{"<s>":0,"<pad>":1,"</s>":2,"<unk>":3,"<mask>":4,"\n":5,"\r":6,"!":7,"\"":8,"#":9,"%":10,"'":11,"(":12,")":13,"+":14,",":15,"-":16,".":17,"/":18,"0":19,"1":20,"2":21,"3":22,"4":23,"5":24,"6":25,"7":26,"8":27,"9":28,":":29,";":30,"=":31,">":32,"?":33,"@":34,"A":35,"B":36,"C":37,"D":38,"E":39,"F":40,"G":41,"H":42,"I":43,"J":44,"K":45,"L":46,"M":47,"N":48,"O":49,"P":50,"R":51,"S":52,"T":53,"U":54,"V":55,"W":56,"Y":57,"[":58,"]":59,"_":60,"a":61,"b":62,"c":63,"d":64,"e":65,"f":66,"g":67,"h":68,"i":69,"j":70,"k":71,"l":72,"m":73,"n":74,"o":75,"p":76,"r":77,"s":78,"t":79,"u":80,"v":81,"w":82,"x":83,"y":84,"z":85,"~":86,"·":87,"—":88,"“":89,"”":90,"▁":91,"❤":92,"、":93,"。":94,"《":95,"》":96,"【":97,"】":98,"一":99,"七":100,"万":101,"三":102,"上":103,"下":104,"不":105,"与":106,"专":107,"且":108,"世":109,"业":110,"东":111,"丝":112,"两":113,"丧":114,"个":115,"中":116,"临":117,"为":118,"主":119,"丽":120,"举":121,"久":122,"么":123,"义":124,"之":125,"乎":126,"乐":127,"也":128,"习":129,"书":130,"买":131,"乱":132,"了":133,"予":134,"争":135,"事":136,"二":137,"于":138,"云":139,"五":140,"亚":141,"些":142,"交":143,"享":144,"京":145,"亮":146,"亲":147,"人":148,"什":149,"仅":150,"今":151,"仍":152,"从":153,"他":154,"付":155,"代":156,"令":157,"以":158,"们":159,"件":160,"价":161,"任":162,"份":163,"众":164,"优":165,"会":166,"伟":167,"传":168,"伤":169,"伦":170,"伴":171,"但":172,"位":173,"低":174,"住":175,"体":176,"何":177,"余":178,"作":179,"你":180,"使":181,"依":182,"便":183,"保":184,"信":185,"修":186,"個":187,"倒":188,"候":189,"值":190,"倾":191,"假":192,"做":193,"停":194,"健":195,"偶":196,"偷":197,"像":198,"儿":199,"元":200,"充":201,"先":202,"光":203,"克":204,"免":205,"入":206,"全":207,"公":208,"六":209,"共":210,"关":211,"兴":212,"其":213,"具":214,"典":215,"内":216,"再":217,"写":218,"军":219,"决":220,"冷":221,"准":222,"几":223,"凡":224,"出":225,"击":226,"分":227,"切":228,"划":229,"则":230,"刚":231,"创":232,"初":233,"利":234,"别":235,"到":236,"制":237,"刻":238,"前":239,"剧":240,"力":241,"办":242,"功":243,"加":244,"务":245,"动":246,"助":247,"努":248,"励":249,"勇":250,"包":251,"化":252,"北":253,"区":254,"医":255,"十":256,"千":257,"午":258,"半":259,"华":260,"单":261,"卖":262,"博":263,"卡":264,"即":265,"却":266,"历":267,"原":268,"去":269,"参":270,"又":271,"及":272,"友":273,"双":274,"反":275,"发":276,"取":277,"受":278,"变":279,"口":280,"古":281,"句":282,"另":283,"只":284,"叫":285,"可":286,"台":287,"右":288,"号":289,"司":290,"吃":291,"各":292,"合":293,"同":294,"名":295,"后":296,"向":297,"吗":298,"否":299,"吧":300,"听":301,"吸":302,"呆":303,"告":304,"员":305,"呢":306,"周":307,"味":308,"命":309,"和":310,"品":311,"哈":312,"响":313,"哥":314,"哦":315,"哪":316,"哭":317,"唯":318,"唱":319,"商":320,"啊":321,"啦":322,"善":323,"喜":324,"嘴":325,"嘻":326,"器":327,"四":328,"回":329,"因":330,"团":331,"困":332,"围":333,"国":334,"图":335,"在":336,"地":337,"场":338,"址":339,"坏":340,"坚":341,"型":342,"城":343,"基":344,"堂":345,"境":346,"增":347,"士":348,"声":349,"处":350,"备":351,"复":352,"外":353,"多":354,"夜":355,"够":356,"大":357,"天":358,"太":359,"夫":360,"失":361,"头":362,"奇":363,"奋":364,"奥":365,"女":366,"她":367,"好":368,"如":369,"妈":370,"妙":371,"始":372,"威":373,"娜":374,"婚":375,"子":376,"字":377,"存":378,"孤":379,"学":380,"孩":381,"宁":382,"它":383,"安":384,"完":385,"官":386,"定":387,"宝":388,"实":389,"客":390,"害":391,"家":392,"容":393,"寂":394,"富":395,"寞":396,"对":397,"寻":398,"射":399,"将":400,"尊":401,"小":402,"少":403,"尔":404,"尚":405,"尝":406,"就":407,"尼":408,"尽":409,"局":410,"展":411,"属":412,"山":413,"岁":414,"州":415,"工":416,"左":417,"巨":418,"差":419,"己":420,"已":421,"巴":422,"市":423,"布":424,"师":425,"希":426,"帝":427,"带":428,"帮":429,"常":430,"干":431,"平":432,"年":433,"并":434,"幸":435,"幻":436,"广":437,"庆":438,"应":439,"底":440,"度":441,"座":442,"康":443,"建":444,"开":445,"弃":446,"式":447,"引":448,"张":449,"弱":450,"强":451,"当":452,"录":453,"形":454,"彩":455,"影":456,"彼":457,"往":458,"待":459,"很":460,"得":461,"微":462,"德":463,"心":464,"必":465,"忆":466,"忍":467,"志":468,"忘":469,"忙":470,"忧":471,"快":472,"念":473,"怀":474,"怎":475,"怕":476,"思":477,"性":478,"总":479,"恋":480,"恐":481,"恨":482,"恶":483,"恼":484,"悔":485,"悦":486,"悲":487,"情":488,"惜":489,"惧":490,"想":491,"意":492,"感":493,"愿":494,"慧":495,"懂":496,"成":497,"我":498,"或":499,"战":500,"房":501,"所":502,"手":503,"才":504,"打":505,"找":506,"承":507,"把":508,"抓":509,"投":510,"折":511,"报":512,"抱":513,"担":514,"拉":515,"拍":516,"拔":517,"拥":518,"择":519,"拿":520,"持":521,"指":522,"挑":523,"掉":524,"掌":525,"排":526,"接":527,"控":528,"推":529,"提":530,"握":531,"摄":532,"支":533,"收":534,"改":535,"放":536,"政":537,"故":538,"效":539,"救":540,"教":541,"敢":542,"数":543,"整":544,"文":545,"斗":546,"断":547,"斯":548,"新":549,"方":550,"旅":551,"无":552,"日":553,"旦":554,"早":555,"时":556,"明":557,"易":558,"星":559,"春":560,"昨":561,"是":562,"显":563,"晚":564,"景":565,"智":566,"暖":567,"暗":568,"更":569,"曾":570,"替":571,"最":572,"會":573,"月":574,"有":575,"朋":576,"服":577,"朗":578,"望":579,"朝":580,"期":581,"未":582,"末":583,"本":584,"术":585,"朵":586,"机":587,"权":588,"李":589,"束":590,"条":591,"来":592,"杯":593,"杰":594,"极":595,"林":596,"果":597,"枪":598,"某":599,"查":600,"标":601,"树":602,"样":603,"根":604,"格":605,"梦":606,"棒":607,"楚":608,"模":609,"次":610,"欢":611,"欣":612,"欺":613,"歌":614,"止":615,"正":616,"此":617,"步":618,"死":619,"段":620,"母":621,"每":622,"比":623,"毕":624,"毛":625,"民":626,"气":627,"水":628,"永":629,"求":630,"沉":631,"沙":632,"没":633,"油":634,"治":635,"法":636,"波":637,"泣":638,"注":639,"泪":640,"泰":641,"洛":642,"活":643,"流":644,"济":645,"浪":646,"海":647,"消":648,"深":649,"清":650,"温":651,"游":652,"源":653,"满":654,"漂":655,"演":656,"漫":657,"潮":658,"激":659,"火":660,"灭":661,"灵":662,"点":663,"為":664,"烂":665,"烈":666,"烦":667,"热":668,"然":669,"照":670,"熟":671,"爱":672,"父":673,"爸":674,"片":675,"版":676,"物":677,"特":678,"犯":679,"狂":680,"独":681,"猜":682,"率":683,"环":684,"现":685,"珍":686,"班":687,"球":688,"理":689,"甚":690,"甜":691,"生":692,"用":693,"由":694,"电":695,"男":696,"界":697,"留":698,"疑":699,"疯":700,"疼":701,"病":702,"痛":703,"白":704,"百":705,"的":706,"目":707,"直":708,"相":709,"看":710,"真":711,"眼":712,"着":713,"睛":714,"睡":715,"知":716,"短":717,"石":718,"研":719,"破":720,"确":721,"碎":722,"示":723,"礼":724,"社":725,"祝":726,"神":727,"禁":728,"福":729,"离":730,"秀":731,"种":732,"秘":733,"积":734,"称":735,"程":736,"究":737,"空":738,"穿":739,"突":740,"立":741,"站":742,"竟":743,"章":744,"童":745,"笑":746,"第":747,"等":748,"答":749,"简":750,"算":751,"管":752,"篇":753,"米":754,"粉":755,"精":756,"系":757,"紧":758,"累":759,"繁":760,"红":761,"约":762,"级":763,"纳":764,"线":765,"练":766,"组":767,"终":768,"经":769,"结":770,"给":771,"绝":772,"统":773,"继":774,"绪":775,"续":776,"维":777,"缘":778,"缺":779,"网":780,"罗":781,"罪":782,"美":783,"翻":784,"耀":785,"老":786,"考":787,"者":788,"而":789,"耐":790,"耶":791,"职":792,"联":793,"肉":794,"肯":795,"育":796,"背":797,"胜":798,"胡":799,"能":800,"脑":801,"脚":802,"脱":803,"脸":804,"自":805,"至":806,"致":807,"舍":808,"舞":809,"般":810,"艰":811,"色":812,"艺":813,"节":814,"花":815,"若":816,"苦":817,"英":818,"草":819,"荐":820,"荣":821,"莫":822,"获":823,"落":824,"虽":825,"蛋":826,"血":827,"行":828,"街":829,"表":830,"被":831,"装":832,"西":833,"要":834,"见":835,"观":836,"规":837,"视":838,"觉":839,"解":840,"言":841,"說":842,"警":843,"计":844,"认":845,"讨":846,"让":847,"议":848,"记":849,"讲":850,"许":851,"论":852,"设":853,"诀":854,"证":855,"评":856,"识":857,"诉":858,"词":859,"译":860,"试":861,"诗":862,"诚":863,"话":864,"该":865,"语":866,"误":867,"说":868,"请":869,"诺":870,"读":871,"课":872,"谁":873,"调":874,"谅":875,"谈":876,"谓":877,"谢":878,"谷":879,"象":880,"负":881,"责":882,"败":883,"质":884,"购":885,"贵":886,"费":887,"资":888,"赛":889,"赢":890,"走":891,"赶":892,"起":893,"超":894,"越":895,"趣":896,"足":897,"距":898,"跟":899,"路":900,"跳":901,"身":902,"车":903,"转":904,"轻":905,"较":906,"辈":907,"边":908,"达":909,"过":910,"迎":911,"运":912,"近":913,"还":914,"这":915,"进":916,"远":917,"连":918,"迷":919,"迹":920,"追":921,"退":922,"送":923,"适":924,"选":925,"透":926,"這":927,"通":928,"速":929,"造":930,"遇":931,"遍":932,"道":933,"遗":934,"那":935,"部":936,"都":937,"配":938,"酒":939,"酸":940,"醒":941,"释":942,"里":943,"重":944,"野":945,"量":946,"金":947,"钟":948,"钱":949,"错":950,"键":951,"长":952,"门":953,"问":954,"间":955,"队":956,"阳":957,"阻":958,"阿":959,"际":960,"降":961,"限":962,"院":963,"除":964,"险":965,"随":966,"难":967,"集":968,"雨":969,"需":970,"青":971,"静":972,"非":973,"靠":974,"面":975,"鞋":976,"音":977,"顶":978,"项":979,"顺":980,"须":981,"预":982,"领":983,"频":984,"颗":985,"题":986,"风":987,"飞":988,"食":989,"餐":990,"首":991,"香":992,"马":993,"验":994,"骗":995,"高":996,"鬼":997,"魂":998,"鸟":999,"鸡":1000,"黑":1001,"默":1002,"鼓":1003,"龙":1004,"\r\n":1005,"。\r\n":1006,"..":1007,"我们":1008,"自己":1009,"一个":1010,"的人":1011,"▁我":1012,",你":1013,"你的":1014,"生活":1015,",不":1016,"就是":1017,"因为":1018,",我":1019,"没有":1020,"什么":1021,"时候":1022,"不要":1023,"如果":1024,",但":1025,",而":1026,"不是":1027,"喜欢":1028,"知道":1029,"//":1030,"的事":1031,"世界":1032,"可以":1033,"▁t":1034,"关注":1035,"一个人":1036,"in":1037,"▁你":1038,"er":1039,"别人":1040,"的,":1041,",就":1042,".\r\n":1043,"//@":1044,"--":1045,"不会":1046,"an":1047,"on":1048,"——":1049,"他们":1050,"永远":1051,"的一":1052,"ou":1053,"微博":1054,"快乐":1055,",那":1056,"需要":1057,"▁有":1058,"我的":1059,"个人":1060,"关注\r\n":1061,"了,":1062,"的\r\n":1063,"....":1064,"▁如果":1065,"是一":1066,"的时候":1067,"he":1068,"拥有":1069,"只是":1070,"幸福":1071,"朋友":1072,"英语":1073,"转发":1074,"▁人":1075,"无法":1076,",也":1077,"重要":1078,"今天":1079,"好的":1080,"改变":1081,"成为":1082,"生命":1083,"。。":1084,"成功":1085,"这个":1086,"开始":1087,",因为":1088,"re":1089,"▁在":1090,"▁不要":1091,"不能":1092,"安\r\n":1093,"爱你":1094,"爱情":1095,"时间":1096,"梦想":1097,"都是":1098,"自己的":1099,"▁a":1100,"▁//@":1101,",有":1102,"▁当":1103,"中国":1104,"努力":1105,"▁转发":1106,"一天":1107,"觉得":1108,"还是":1109,"过去":1110,"那些":1111,"的人,":1112,",而是":1113,"▁转发微博":1114,",我们":1115,"it":1116,"东西":1117,"失去":1118,"希望":1119,"微笑":1120,"的事情":1121,"现在":1122,"相信":1123,"任何":1124,"放弃":1125,"真的":1126,"选择":1127,"at":1128,"美国":1129,",这":1130,"es":1131,"ll":1132,"▁s":1133,"一起":1134,"了。":1135,",是":1136,"▁w":1137,"一次":1138,"了\r\n":1139,"可能":1140,"的是":1141,"真正":1142,"ar":1143,"or":1144,"you":1145,"▁生活":1146,"。(":1147,"所以":1148,",一":1149,"▁不":1150,"只有":1151,"大家":1152,"很多":1153,"心]":1154,"怎么":1155,"所有":1156,"是我":1157,"看到":1158,",却":1159,"en":1160,"is":1161,"▁h":1162,"▁m":1163,"▁you":1164,"总是":1165,"想要":1166,"找到":1167,"起来":1168,"这样":1169,"▁如果你":1170,"ve":1171,"▁每":1172,"只要":1173,"的。":1174,"▁我们":1175,"事情":1176,"你,":1177,"大的":1178,"早安\r\n":1179,"[心]":1180,"一切":1181,"发生":1182,"在于":1183,"工作":1184,"感觉":1185,"...":1186,"ing":1187,",它":1188,"t.":1189,"tt":1190,"▁(":1191,"已经":1192,"必须":1193,"来自":1194,"▁这":1195,"一点":1196,"为了":1197,"让你":1198,"那么":1199,"▁the":1200,"一直":1201,"人,":1202,"人的":1203,"坚强":1204,"应该":1205,"明天":1206,"请关注\r\n":1207,",要":1208,"▁S":1209,"。——":1210,"一样":1211,"决定":1212,"出来":1213,"发现":1214,"忘记":1215,"更多":1216,",不是":1217,",但是":1218,"▁人生":1219,"▁当你":1220,"20":1221,"://":1222,"p://":1223,"▁@":1224,"▁c":1225,"失败":1226,"学习":1227,"孩子":1228,"接受":1229,"未来":1230,"爱的":1231,"▁to":1232,"ttp://":1233,"10":1234,"cn":1235,"ed":1236,"th":1237,"▁d":1238,"▁f":1239,"其实":1240,"哈哈":1241,"在\r\n":1242,"无论":1243,"有多":1244,"精彩":1245,"翻译":1246,"都会":1247,",不要":1248,"t.cn":1249,"ttp://t.cn":1250,"ttp://t.cn/":1251,"om":1252,"▁b":1253,"▁o":1254,"。我":1255,"不到":1256,"值得":1257,"在一起":1258,"坚持":1259,"想做":1260,"的东西":1261,"等待":1262,"简单":1263,"英文":1264,"认为":1265,"▁有时候":1266,"......":1267,",让":1268,"le":1269,"▁一":1270,"不知道":1271,"了。\r\n":1272,"日子":1273,"机会":1274,"问题":1275,"▁th":1276,"真正的":1277,"ay":1278,"ke":1279,"▁n":1280,"▁p":1281,"一些":1282,"中的":1283,"你们":1284,"并不":1285,"的那":1286,"美丽":1287,"的人\r\n":1288,"世界上":1289,"as":1290,"▁\"":1291,"。你":1292,"了一":1293,"享受":1294,"你\r\n":1295,"在乎":1296,"完美":1297,"尝试":1298,"开心":1299,"时,":1300,"是否":1301,"最后":1302,"给你":1303,"美好":1304,"醒来":1305,"来自\r\n":1306,"12":1307,"el":1308,"ow":1309,"▁喜欢":1310,"为什么":1311,"也许":1312,"其他":1313,"勇气":1314,"即使":1315,"原文":1316,"学会":1317,"得到":1318,"忘了":1319,"意味":1320,"新的":1321,"最好的":1322,"这是":1323,"这里":1324,"那个":1325,"...\r\n":1326,"自己,":1327,"ttp://t.cn/z":1328,",在":1329,"al":1330,"ic":1331,"▁-":1332,"▁B":1333,"▁C":1334,"▁[":1335,"。[":1336,"。但":1337,"一下":1338,"一句":1339,"伤心":1340,"你。\r\n":1341,"吧,":1342,"在你":1343,"地方":1344,"就会":1345,"就像":1346,"痛苦":1347,"离开":1348,"辈子":1349,"这么":1350,"阳光":1351,",那么":1352,"▁有些":1353,"▁of":1354,"意味着":1355,"!!":1356,")\r\n":1357,",并":1358,",每":1359,"]\r\n":1360,"am":1361,"od":1362,"▁,":1363,"▁l":1364,"▁对":1365,"不想":1366,"你。":1367,"分享":1368,"勇敢":1369,"吧\r\n":1370,"地址":1371,"太多":1372,"心里":1373,"昨天":1374,"曾经":1375,"理由":1376,"电影":1377,"遇见":1378,"错误":1379,"我们的":1380,"如果你":1381,"所有的":1382,",当":1383,",然":1384,"st":1385,"ver":1386,"▁G":1387,"▁I":1388,"▁今天":1389,"。【":1390,"一刻":1391,"一定":1392,"不了":1393,"世上":1394,"准备":1395,"容易":1396,"怎样":1397,"方式":1398,"早安":1399,"的心":1400,"自由":1401,"追求":1402,"都不":1403,"都有":1404,"and":1405,",只是":1406,",所以":1407,"ac":1408,"ec":1409,"gh":1410,"▁A":1411,"▁g":1412,"▁爱":1413,"▁in":1414,"▁爱情":1415,"▁it":1416,"。早安\r\n":1417,"上的":1418,"他的":1419,"你不":1420,"保持":1421,"吗?":1422,"呢\r\n":1423,"啊\r\n":1424,"回复":1425,"在我":1426,"女孩":1427,"好好":1428,"如何":1429,"意义":1430,"时刻":1431,"是你":1432,"最大的":1433,"期待":1434,"的生活":1435,"知识":1436,"让自己":1437,"许多":1438,"语录":1439,"▁我在\r\n":1440,"别人的":1441,"!\r\n":1442,",只":1443,",才":1444,"~~":1445,"▁e":1446,"▁生命":1447,"。--":1448,"为你":1449,"也会":1450,"代表":1451,"信任":1452,"内心":1453,"到了":1454,"原来":1455,"回忆":1456,"好,":1457,"实现":1458,"总会":1459,"感谢":1460,"愿意":1461,"挑战":1462,"是谁":1463,"有一天":1464,"特别":1465,"结束":1466,"让我":1467,"让我们":1468,"长大":1469,"永远不会":1470,"的一切":1471,"回复@":1472,",以":1473,",还":1474,",就是":1475,"00":1476,"19":1477,"ho":1478,"ld":1479,"ra":1480,"▁T":1481,"▁大":1482,"▁新":1483,"▁没有":1484,"▁这个":1485,"▁原文":1486,"不过":1487,"也不":1488,"了!":1489,"你自己":1490,"使你":1491,"充满":1492,"变得":1493,"告诉":1494,"唯一":1495,"好\r\n":1496,"害怕":1497,"属于":1498,"意思":1499,"成长":1500,"把你":1501,"担心":1502,"控制":1503,"收听":1504,"时光":1505,"晚安":1506,"来说":1507,"爱上":1508,"珍惜":1509,"的爱":1510,"的话":1511,"第一":1512,"第一次":1513,"继续":1514,"记得":1515,"说“":1516,"身边":1517,"部分":1518,"时候,":1519,"的一天":1520,"'t":1521,",他":1522,",没有":1523,"ri":1524,"▁做":1525,"▁别":1526,"▁——":1527,"▁is":1528,"▁回复@":1529,"不同":1530,"之前":1531,"之间":1532,"事,":1533,"亲爱的":1534,"人们":1535,"人生":1536,"仅仅":1537,"从未":1538,"优秀":1539,"做的":1540,"到的":1541,"北京":1542,"句话":1543,"命运":1544,"多少":1545,"并不是":1546,"影响":1547,"想念":1548,"或者":1549,"文章":1550,"晚安\r\n":1551,"最美":1552,"有些":1553,"有人":1554,"理解":1555,"的路":1556,"粉丝":1557,"经典":1558,"遇到":1559,"非常":1560,"是一种":1561,"重要的是":1562,"▁每天":1563,"地址\r\n":1564,",会":1565,",别":1566,",可":1567,",想":1568,"__":1569,"ake":1570,"http://t.cn/z":1571,"uc":1572,"▁H":1573,"▁M":1574,"▁好":1575,"▁要":1576,"▁on":1577,"▁幸福":1578,"▁成功":1579,"▁很多":1580,"▁无论":1581,"。[心]":1582,"不得":1583,"你是":1584,"你有":1585,"你爱":1586,"出了":1587,"分钟":1588,"创造":1589,"力量":1590,"发展":1591,"变成":1592,"呢?":1593,"如此":1594,"对方":1595,"将会":1596,"我,":1597,"所谓":1598,"才是":1599,"抱抱":1600,"故事":1601,"方法":1602,"早上":1603,"明白":1604,"星星":1605,"是在":1606,"是我的":1607,"更加":1608,"最好":1609,"正在":1610,"每个人":1611,"活在":1612,"的小":1613,"的。\r\n":1614,"的时间":1615,"的感觉":1616,"看起来":1617,"眼泪":1618,"眼睛":1619,"经历":1620,"能力":1621,"虽然":1622,"距离":1623,"音乐":1624,"你的生活":1625,"的时候,":1626,"▁每个人":1627,"收听\r\n":1628,"![":1629,"'s":1630,"(关注\r\n":1631,",\r\n":1632,"if":1633,"im":1634,"ion":1635,"ly":1636,"se":1637,"un":1638,"ur":1639,"▁/":1640,"▁2":1641,"▁是":1642,"▁的":1643,"▁那":1644,"▁世界上":1645,"▁and":1646,"。因为":1647,"一件":1648,"一种":1649,"不再":1650,"不如":1651,"了解":1652,"价值":1653,"你在":1654,"你所":1655,"做过":1656,"出去":1657,"受伤":1658,"后悔":1659,"和你":1660,"回来":1661,"多么":1662,"太阳":1663,"奇迹":1664,"孤独":1665,"对你":1666,"对我":1667,"带来":1668,"强大":1669,"当下":1670,"恐惧":1671,"才能":1672,"才知道":1673,"推荐":1674,"方向":1675,"有时":1676,"某人":1677,"温暖":1678,"点\r\n":1679,"烦恼":1680,"疯狂":1681,"直到":1682,"看看":1683,"真爱":1684,"终于":1685,"表示":1686,"表达":1687,"解决":1688,"足够":1689,"都要":1690,"错过":1691,"面对":1692,"风景":1693,"的人。\r\n":1694,"▁我想":1695,"什么样":1696,",但我":1697,"---":1698,"拥有的":1699,"任何人":1700,"ent":1701,",要么":1702,"更多精彩":1703,"▁ne":1704,"▁原文地址\r\n":1705,",他们":1706,",只要":1707,"11":1708,"13":1709,":“":1710,":你":1711,":我":1712,";不要":1713,"et":1714,"id":1715,"ive":1716,"ol":1717,"ore":1718,"”,":1719,"▁#":1720,"▁F":1721,"▁J":1722,"▁k":1723,"▁。":1724,"▁年":1725,"▁现在":1726,"。如果":1727,"。所以":1728,"。来自\r\n":1729,"一位":1730,"一步":1731,"一生":1732,"一辈子":1733,"上帝":1734,"上海":1735,"也是":1736,"仍然":1737,"以为":1738,"会有":1739,"会发现":1740,"做自己":1741,"停止":1742,"儿子":1743,"全世界":1744,"关系":1745,"再也":1746,"到来":1747,"原谅":1748,"只能":1749,"后,":1750,"吸血":1751,"国家":1752,"在这里":1753,"声音":1754,"女人":1755,"孤单":1756,"对不":1757,"当你":1758,"心情":1759,"忘掉":1760,"悲伤":1761,"情绪":1762,"感情":1763,"放手":1764,"智慧":1765,"更好":1766,"最不":1767,"来越":1768,"每天":1769,"每日":1770,"沉默":1771,"灵魂":1772,"照片":1773,"爱,":1774,"爱我":1775,"生气":1776,"电话":1777,"的世界":1778,"秘诀":1779,"能够":1780,"英国":1781,"请关注":1782,"谢谢":1783,"越来越":1784,"轻易":1785,"还有":1786,"黑暗":1787,"的人生":1788,"▁我要":1789,",你就":1790,"生活的":1791,"因为我":1792,",我就":1793,"什么,":1794,"一个人,":1795,"——《":1796,",也不":1797,",也许":1798,"生命中":1799,"成功的":1800,",因为你":1801,"中国的":1802,"▁转发微博。":1803,"ith":1804,"ess":1805,"▁with":1806,"。——《":1807,",但是我们":1808,"▁that":1809,",那么你":1810,"▁有些人":1811,"粉丝们":1812,"吸血鬼":1813,",最":1814,",请":1815,",如果":1816,"3.":1817,">>":1818,"all":1819,"ill":1820,"igh":1821,"up":1822,"ut":1823,"▁.":1824,"▁天":1825,"▁一个":1826,"▁一个人":1827,"▁只有":1828,"▁只要":1829,"▁真正的":1830,"▁亲爱的":1831,"。”":1832,"。不":1833,"一只":1834,"一段":1835,"一颗":1836,"下来":1837,"不可":1838,"不好":1839,"不断":1840,"不知":1841,"中文":1842,"主义":1843,"之中":1844,"人\r\n":1845,"付出":1846,"件事":1847,"你会":1848,"你看":1849,"做的事":1850,"全球":1851,"关于":1852,"关心":1853,"出现":1854,"千万":1855,"去做":1856,"句子":1857,"只不过":1858,"号\r\n":1859,"各位":1860,"同学":1861,"哭泣":1862,"唯美":1863,"困难":1864,"在那":1865,"奋斗":1866,"存在":1867,"尽管":1868,"年的":1869,"往往":1870,"很难":1871,"微信":1872,"心中":1873,"思考":1874,"想法":1875,"想起":1876,"感受":1877,"成熟":1878,"手机":1879,"把它":1880,"抓住":1881,"是什么":1882,"更好的":1883,"比如":1884,"浪漫":1885,"浪费":1886,"漂亮":1887,"演讲":1888,"生日":1889,"生的":1890,"男人":1891,"的太":1892,"的不是":1893,"的地方":1894,"的女孩":1895,"看法":1896,"着,":1897,"礼物":1898,"笑容":1899,"经济":1900,"结局":1901,"结果":1902,"给了":1903,"美好的":1904,"耐心":1905,"能改变":1906,"艰难":1907,"说\r\n":1908,"那样":1909,"那个人":1910,"都在":1911,"难过":1912,"自己\r\n":1913,"自己。\r\n":1914,",你的":1915,"因为你":1916,"喜欢请":1917,"on't":1918,"快乐,":1919,"快乐\r\n":1920,"▁人们":1921,"成为了":1922,",有时":1923,"失去了":1924,",这就是":1925,"▁生活的":1926,"▁ha":1927,"▁http://t.cn/z":1928,"▁your":1929,"这样的":1930,"一点点":1931,"一直在":1932,"2012":1933,"▁for":1934,"▁no":1935,"美丽的":1936,"意味着你":1937,",然后":1938,"吸血鬼日":1939,",何":1940,",去":1941,",大":1942,",没":1943,",能":1944,",谁":1945,",世界":1946,",重要的是":1947,"17":1948,"18":1949,"[左":1950,"ad":1951,"be":1952,"e.":1953,"ey":1954,"il":1955,"ust":1956,"▁1":1957,"▁D":1958,"▁E":1959,"▁K":1960,"▁与":1961,"▁想":1962,"▁看":1963,"▁祝":1964,"▁若":1965,"▁说":1966,"▁不是":1967,"▁永远":1968,"▁ou":1969,"▁re":1970,"▁过去":1971,"▁微笑":1972,"▁美国":1973,"▁为了":1974,"▁学习":1975,"。而":1976,"。不要":1977,"。喜欢":1978,"。早安":1979,"一条":1980,"三个":1981,"下的":1982,"不够":1983,"不喜欢":1984,"不需要":1985,"两个人":1986,"件很":1987,"伤痛":1988,"你能":1989,"你想要":1990,"健康":1991,"公司":1992,"决心":1993,"出的":1994,"加油":1995,"反而":1996,"口语":1997,"台词":1998,"吗\r\n":1999,"周围":2000,"周末":2001,"哦\r\n":2002,"在意":2003,"城市":2004,"天气":2005,"失望":2006,"学英语":2007,"它的":2008,"安排":2009,"完成":2010,"将来":2011,"小时":2012,"小的":2013,"就越":2014,"年轻":2015,"幸运":2016,"心理":2017,"意外":2018,"感到":2019,"感动":2020,"懂得":2021,"成就":2022,"承受":2023,"拥抱":2024,"收获":2025,"是,":2026,"是一个":2027,"晚上":2028,"有点":2029,"有勇气":2030,"某个人":2031,"欢迎":2032,"正确":2033,"环境":2034,"的前":2035,"的爱情":2036,"目标":2037,"研究":2038,"童话":2039,"第二":2040,"给我":2041,"老师":2042,"自我":2043,"行动":2044,"视频":2045,"言\r\n":2046,"记忆":2047,"过程":2048,"这些":2049,"这世上":2050,"适合":2051,"都能":2052,"里,":2053,"随着":2054,"首歌":2055,"高兴":2056,"我们会":2057,"的人。":2058,",你才":2059,",不如":2060,",我也":2061,"没有人":2062,",而且":2063,"知道我":2064,"ere":2065,"ang":2066,",那就":2067,"的时候,你":2068,",而是你":2069,"ard":2070,"怎么看":2071,"2013":2072,"▁don't":2073,"其实我":2074,"▁be":2075,"简单的":2076,"▁有时候,":2077,"的那一刻":2078,"▁喜欢请关注\r\n":2079,"▁lo":2080,"准备好":2081,"▁An":2082,"语录请关注":2083,"抱抱]\r\n":2084,"太阳]":2085,"更多精彩语录请关注":2086,"喜欢请收听\r\n":2087,"吸血鬼日记":2088,"[左抱抱]\r\n":2089,"更多精彩语录请关注[左抱抱]\r\n":2090,",人":2091,",做":2092,",因":2093,",把":2094,",看":2095,",生活":2096,"0%":2097,"2.":2098,"60":2099,":有":2100,"Ch":2101,"TA":2102,"The":2103,"[哈哈":2104,"ak":2105,"bod":2106,"der":2107,"ep":2108,"hat":2109,"ok":2110,"op":2111,"os":2112,"ry":2113,"rom":2114,"s.":2115,"~(关注\r\n":2116,"▁L":2117,"▁W":2118,"▁上":2119,"▁从":2120,"▁他":2121,"▁太":2122,"▁她":2123,"▁很":2124,"▁总":2125,"▁最":2126,"▁马":2127,"▁--":2128,"▁朋友":2129,"▁希望":2130,"▁分享":2131,"❤喜欢请收听\r\n":2132,"。在":2133,"。当":2134,"。我们":2135,"。只要":2136,"上一":2137,"不曾":2138,"不见":2139,"不一样":2140,"两个":2141,"为我":2142,"之后":2143,"也不会":2144,"了才知道":2145,"人在":2146,"他人":2147,"以后":2148,"件事情":2149,"作家":2150,"你想做":2151,"你从未":2152,"使用":2153,"做什么":2154,"关键":2155,"前,":2156,"前行":2157,"十年":2158,"原因":2159,"去爱":2160,"变化":2161,"同行":2162,"后来":2163,"否则":2164,"听到":2165,"啊,":2166,"增长":2167,"大学":2168,"大量":2169,"天空":2170,"头发":2171,"好想":2172,"子\r\n":2173,"它们":2174,"安全":2175,"完全":2176,"实际":2177,"寂寞":2178,"就在":2179,"就算":2180,"左右":2181,"平凡":2182,"幻想":2183,"影子":2184,"彼此":2185,"心,":2186,"心的":2187,"必要":2188,"思想":2189,"想象":2190,"找不到":2191,"承诺":2192,"提出":2193,"提醒":2194,"提高":2195,"整个":2196,"旅行":2197,"时尚":2198,"是最":2199,"是\r\n":2200,"是件很":2201,"最重要":2202,"月3":2203,"有效":2204,"有的":2205,"有那么":2206,"期望":2207,"标志":2208,"欺骗":2209,"每个":2210,"注定":2211,"注意":2212,"活得":2213,"活着":2214,"深处":2215,"然后":2216,"现实":2217,"留在":2218,"的你":2219,"的大":2220,"的女":2221,"的男":2222,"的朋友":2223,"的梦想":2224,"的意思":2225,"的声音":2226,"看不到":2227,"真心":2228,"睡觉":2229,"确实":2230,"社会":2231,"积极":2232,"突然":2233,"第一个":2234,"精神":2235,"结合":2236,"给予":2237,"绝望":2238,"考试":2239,"考验":2240,"自信":2241,"自然":2242,"艺术":2243,"认识":2244,"让人":2245,"让他":2246,"让你的":2247,"让别人":2248,"记住":2249,"说我":2250,"过于":2251,"过的":2252,"进来":2253,"通过":2254,"都可以":2255,"里的":2256,"重新":2257,"除了":2258,"默默":2259,"一个新的":2260,"▁我在":2261,"▁我不是":2262,"▁我觉得":2263,"你的梦想":2264,",不管":2265,",我不":2266,",我的":2267,"什么\r\n":2268,"什么。\r\n":2269,"不要放弃":2270,",但它":2271,",而不是":2272,",而在于":2273,"的事。\r\n":2274,",就像":2275,"他们的":2276,"的一面":2277,"ough":2278,"。。。\r\n":2279,",因为我":2280,"不能接受":2281,"爱你。\r\n":2282,"▁are":2283,"任何事":2284,"▁me":2285,"▁make":2286,",不是因为":2287,"▁do":2288,"英文\r\n":2289,"▁有时候,你":2290,",让我":2291,"真正的幸福":2292,"ect":2293,"▁go":2294,"使你更":2295,"▁每天一句":2296,",想想":2297,"uck":2298,"对不起":2299,"ight":2300,"▁love":2301,"[哈哈]":2302,"body":2303,"!@":2304,",加":2305,",和":2306,",对":2307,",用":2308,",越":2309,",还是":2310,",只有":2311,",明天":2312,",无论":2313,",直到":2314,",成为了":2315,"1日":2316,":http://t.cn/z":2317,";你":2318,"Th":2319,"VI":2320,"au":2321,"are":2322,"ch":2323,"em":2324,"ia":2325,"ir":2326,"ile":2327,"now":2328,"pp":2329,"ru":2330,"s,":2331,"we":2332,"▁9":2333,"▁N":2334,"▁R":2335,"▁“":2336,"▁《":2337,"▁今":2338,"▁但":2339,"▁刚":2340,"▁可":2341,"▁快":2342,"▁约":2343,"▁能":2344,"▁谁":2345,"▁长":2346,"▁高":2347,"▁\r\n":2348,"▁。\r\n":2349,"▁世界":2350,"▁an":2351,"▁只是":2352,"▁大家":2353,"▁早安\r\n":2354,"▁哈哈":2355,"▁也许":2356,"▁感谢":2357,"▁19":2358,"。#":2359,"。~":2360,"。要":2361,"。这":2362,"《吸血鬼日记":2363,"一。":2364,"不出":2365,"不多":2366,"不在于":2367,"不适合":2368,"两人":2369,"丧失":2370,"为自己":2371,"么\r\n":2372,"之所以":2373,"也可以":2374,"了自己":2375,"争取":2376,"事实":2377,"人员":2378,"令人":2379,"们,":2380,"价格":2381,"份礼物":2382,"伤害":2383,"作为":2384,"你将":2385,"你,我":2386,"你是我":2387,"你是否":2388,"依然":2389,"便是":2390,"假装":2391,"做事":2392,"做出":2393,"做到":2394,"做好":2395,"做\r\n":2396,"共同":2397,"出现在":2398,"到哪":2399,"到你的":2400,"到最后":2401,"动的":2402,"动词":2403,"励志":2404,"单词":2405,"单身":2406,"参与":2407,"发布":2408,"取得":2409,"可怕":2410,"合作":2411,"同事":2412,"同一个":2413,"吧!":2414,"听了":2415,"啦\r\n":2416,"回去":2417,"回家":2418,"团队":2419,"坚信":2420,"多久":2421,"多\r\n":2422,"妈妈":2423,"完整":2424,"实的":2425,"尊重":2426,"小事":2427,"带着":2428,"常常":2429,"平静":2430,"当初":2431,"当然":2432,"很好":2433,"很快":2434,"心\r\n":2435,"情人":2436,"成\r\n":2437,"打动":2438,"改说“":2439,"放下":2440,"放在":2441,"教育":2442,"文字":2443,"无关":2444,"早\r\n":2445,"时,你":2446,"明显":2447,"是很":2448,"是真的":2449,"最差":2450,"最终":2451,"最喜欢":2452,"月2":2453,"有所":2454,"有一个":2455,"有时候":2456,"有意义":2457,"条件":2458,"来,":2459,"来源":2460,"根本":2461,"梦中":2462,"梦\r\n":2463,"欢乐":2464,"母亲":2465,"每一":2466,"毕业":2467,"水平":2468,"泪水":2469,"清楚":2470,"满足":2471,"演出":2472,"激动":2473,"热烈":2474,"热爱":2475,"爱自己":2476,"爱的人":2477,"犯罪":2478,"珍贵":2479,"甚至":2480,"电视":2481,"的地":2482,"的越":2483,"的,不":2484,"的就是":2485,"的幸福":2486,"的努力":2487,"的日子":2488,"的理由":2489,"的方式":2490,"的价值":2491,"的安排":2492,"的意外":2493,"的标志":2494,"着你":2495,"确定":2496,"祝福":2497,"笑着":2498,"笑话":2499,"等到":2500,"篇文章":2501,"系统":2502,"给自己":2503,"老天":2504,"而改变":2505,"脚步":2506,"至于":2507,"苦难":2508,"荣耀":2509,"获得":2510,"要做":2511,"要求":2512,"计划":2513,"计较":2514,"说明":2515,"说的":2516,"说话":2517,"责任":2518,"超过":2519,"身上":2520,"身体":2521,"这种":2522,"这句话":2523,"进入":2524,"追寻":2525,"造成":2526,"都没有":2527,"都不会":2528,"酒,":2529,"里\r\n":2530,"金钱":2531,"错的":2532,"面前":2533,"食物":2534,"自己想要":2535,"▁我爱":2536,"▁我的":2537,",你们":2538,"你的心":2539,",不代表":2540,"什么时候":2541,",而爱上":2542,"的事。":2543,"的事物":2544,"一个人的":2545,",就算":2546,",就能":2547,"快乐的":2548,",那些":2549,",那你":2550,"我的心":2551,"是一场":2552,"朋友是我的":2553,"无法改变":2554,"无法控制":2555,",也不要":2556,"重要,重要的是":2557,"成为一个":2558,"生命中的":2559,"。。。":2560,"这个世界":2561,"这个世界上":2562,"开始\r\n":2563,"▁不要只":2564,"爱你]":2565,"自己的错误":2566,"▁at":2567,"▁all":2568,"觉得我":2569,",而是因为":2570,"▁转发微博#":2571,"的事情\r\n":2572,"放弃的那一刻":2573,"选择,而爱上":2574,"ate":2575,",这是":2576,"▁st":2577,"一次的":2578,"可能会":2579,"可能是":2580,",一名":2581,"▁不管":2582,"怎么样":2583,"▁如果你想":2584,",它会":2585,"让你觉得":2586,"一样东西":2587,"thing":2588,"值得拥有":2589,"值得等待":2590,"坚持走":2591,"的那个人":2592,"即使是":2593,"ici":2594,"一句话":2595,"就像一":2596,"勇敢的":2597,"遇见你是":2598,",然而":2599,"very":2600,"一定会":2601,"ack":2602,",只能":2603,"rain":2604,"▁新年":2605,"之前,":2606,"命运的安排":2607,"有些事,":2608,"▁one":2609,"▁世界上最":2610,"”,改说“":2611,"▁know":2612,"主义者":2613,"▁have":2614,"▁与其":2615,"▁out":2616,"▁每天一句:":2617,",成为了朋友是我的":2618,"你是我无法控制":2619,"选择,而爱上你是我无法控制":2620,"遇见你是命运的安排":2621,",成为了朋友是我的选择,而爱上你是我无法控制":2622,"遇见你是命运的安排,成为了朋友是我的选择,而爱上你是我无法控制":2623,"遇见你是命运的安排,成为了朋友是我的选择,而爱上你是我无法控制的意外":2624,"'\r\n":2625,",使":2626,",再":2627,",又":2628,",哪":2629,",如":2630,",心":2631,",新":2632,",更":2633,",由":2634,",一个":2635,",关注\r\n":2636,",朋友":2637,",希望":2638,",现在":2639,",怎么":2640,",早安\r\n":2641,",其实":2642,",如果你":2643,",第一次":2644,",尽管":2645,",否则":2646,"0个":2647,"15":2648,"1月":2649,":不":2650,":\r\n":2651,";如果":2652,"?\r\n":2653,"AN":2654,"It":2655,"Ian":2656,"MG":2657,"ON":2658,"Of":2659,"You":2660,"[泪":2661,"ain":2662,"bo":2663,"day":2664,"e:":2665,"ee":2666,"ip":2667,"iz":2668,"ior":2669,"ky":2670,"lin":2671,"man":2672,"ment":2673,"mile":2674,"ning":2675,"ood":2676,"pect":2677,"ro":2678,"rough":2679,"ta":2680,"ter":2681,"yy":2682,"”;不要":2683,"▁!":2684,"▁'":2685,"▁)":2686,"▁4":2687,"▁5":2688,"▁P":2689,"▁j":2690,"▁以":2691,"▁假":2692,"▁只":2693,"▁和":2694,"▁多":2695,"▁富":2696,"▁小":2697,"▁就":2698,"▁投":2699,"▁明":2700,"▁用":2701,"▁笑":2702,"▁自":2703,"▁谢":2704,"▁你的":2705,"▁好的":2706,"▁那些":2707,"▁...":2708,"▁那么":2709,"▁le":2710,"▁曾经":2711,"▁晚安\r\n":2712,"▁早上":2713,"▁距离":2714,"▁'s":2715,"▁un":2716,"▁up":2717,"▁微信":2718,"▁突然":2719,"▁遇见你是命运的安排,成为了朋友是我的选择,而爱上你是我无法控制的意外":2720,"。-":2721,"。他":2722,"。她":2723,"。大家":2724,"。更多":2725,"。如果你":2726,"。晚安":2727,"。有些事,":2728,"一個":2729,"一大":2730,"一张":2731,"一开始":2732,"一分钟":2733,"上,":2734,"上去":2735,"下去":2736,"下。\r\n":2737,"不停":2738,"不懂":2739,"不快乐":2740,"不爱你":2741,"不可能":2742,"不在乎":2743,"与你":2744,"专家":2745,"专注":2746,"两天":2747,"个单词":2748,"中有":2749,"中的一":2750,"为别人":2751,"为任何人":2752,"主要":2753,"主题":2754,"之旅":2755,"乐观":2756,"也在":2757,"也有":2758,"也能":2759,"也要":2760,"书写":2761,"了会":2762,"了我":2763,"了一个":2764,"了,你":2765,"了多少":2766,"事物":2767,"些人":2768,"交流":2769,"亲爱":2770,"人人":2771,"人民":2772,"人能":2773,"今年":2774,"今日":2775,"令我":2776,"众不同":2777,"会很":2778,"会发生":2779,"伟大的":2780,"你!":2781,"你;":2782,"你也":2783,"你做":2784,"你更":2785,"你的人":2786,"信念":2787,"倒不如":2788,"偷笑":2789,"入睡":2790,"全部":2791,"六十":2792,"内在":2793,"决于":2794,"几个":2795,"创意":2796,"力的":2797,"办法":2798,"加拿":2799,"动\r\n":2800,"勇于":2801,"却不能":2802,"去改变":2803,"又是":2804,"又有":2805,"取悦":2806,"取决于":2807,"另外":2808,"另一种":2809,"只需要":2810,"可爱":2811,"各种":2812,"各自":2813,"合适":2814,"同样":2815,"周年":2816,"哦,":2817,"嘻嘻":2818,"回到":2819,"回头":2820,"回答":2821,"回首":2822,"在其":2823,"地为":2824,"外表":2825,"多数":2826,"大人":2827,"天堂":2828,"女性":2829,"好。":2830,"好心情":2831,"始终":2832,"子。\r\n":2833,"字母":2834,"学家":2835,"宁愿":2836,"它会":2837,"它。\r\n":2838,"定义":2839,"实验":2840,"对你的":2841,"寻找":2842,"将就":2843,"小小的":2844,"就要":2845,"巴西":2846,"市场":2847,"帮助":2848,"常用":2849,"年,":2850,"年来":2851,"度过":2852,"得起":2853,"心没":2854,"忙,":2855,"总统":2856,"意识":2857,"感激":2858,"成真":2859,"成都":2860,"我就":2861,"我\r\n":2862,"战争":2863,"承担":2864,"把握":2865,"摄影":2866,"支持":2867,"改天":2868,"放不":2869,"放开":2870,"文化":2871,"旅程":2872,"无可":2873,"无限":2874,"时代":2875,"时的":2876,"是:":2877,"是因为":2878,"是不是":2879,"是这样":2880,"是为了":2881,"是最好的":2882,"是如此":2883,"更强大":2884,"最有":2885,"最酸":2886,"有钱":2887,"有没有":2888,"服务":2889,"本来":2890,"果断":2891,"某个":2892,"查看":2893,"每次":2894,"每一次":2895,"比你":2896,"没人":2897,"没心没":2898,"活的":2899,"深深":2900,"激情":2901,"点,":2902,"点的":2903,"爱。":2904,"爱的人,":2905,"父亲":2906,"爸爸":2907,"独立":2908,"生人":2909,"生存":2910,"用心":2911,"的力":2912,"的历":2913,"的好":2914,"的情":2915,"的最":2916,"的温":2917,"的美":2918,"的道":2919,"的.\r\n":2920,"的工作":2921,"的问题":2922,"的距离":2923,"的风景":2924,"的感情":2925,"的存在":2926,"的结局":2927,"的自己\r\n":2928,"相爱":2929,"真是":2930,"睡多久":2931,"禁止":2932,"福音":2933,"穿越":2934,"竟然":2935,"第一天":2936,"等于":2937,"管理":2938,"精选":2939,"红色":2940,"经意":2941,"给我们":2942,"网站":2943,"美元":2944,"而烦恼":2945,"耶和":2946,"背后":2947,"胡胡":2948,"自尊":2949,"自身":2950,"至少":2951,"般的":2952,"节日":2953,"若不":2954,"莫过于":2955,"行为":2956,"表现":2957,"要有":2958,"要走":2959,"要学会":2960,"规划":2961,"解释":2962,"认真":2963,"让他们":2964,"议论":2965,"证明":2966,"试图":2967,"语言":2968,"说出":2969,"说出来":2970,"说:“":2971,"调查":2972,"赢家":2973,"走进":2974,"超级":2975,"跟随":2976,"路\r\n":2977,"转身":2978,"过得":2979,"过来":2980,"过日子":2981,"迎接":2982,"还可以":2983,"这张":2984,"这部":2985,"那就":2986,"都不是":2987,"里面":2988,"野鸡":2989,"错的人":2990,"阻止":2991,"需求":2992,"青春":2993,"风雨":2994,"我们不":2995,"一个你爱":2996,"的人都":2997,"的人你看":2998,"▁我从":2999,"▁我知道":3000,"▁我相信":3001,",你所":3002,",你拥有":3003,"你的光":3004,",不会":3005,",不能":3006,"就是一":3007,",我不想":3008,"没有什么":3009,"什么是":3010,"不是因为":3011,"喜欢请关注\r\n":3012,"世界,":3013,"世界的":3014,"▁tim":3015,"关注@":3016,"一个人,你":3017,"的,有":3018,"----":3019,"不会知道":3020,"ank":3021,"ong":3022,"他们想":3023,"他们不能接受":3024,"永远也":3025,"永远都是":3026,"的一件事情":3027,",那只能":3028,"了,因为":3029,"▁如果没有":3030,"是一切":3031,"是一份礼物":3032,"的时候,我们":3033,",也是":3034,"重要。":3035,"。。。。":3036,"。。更多精彩语录请关注[左抱抱]\r\n":3037,"成功\r\n":3038,"这个句子":3039,",因为它":3040,"res":3041,"▁不要让":3042,"自己的心":3043,"还是要":3044,"▁转发微博。【":3045,"微笑\r\n":3046,"微笑。\r\n":3047,"的事情,":3048,"的事情。\r\n":3049,"现在\r\n":3050,"放弃。":3051,"真的很":3052,"美国人":3053,"est":3054,"llll":3055,"▁smile":3056,"▁what":3057,"▁生活中的":3058,"ist":3059,"▁man":3060,"▁you.":3061,"找到了":3062,"找到合适":3063,"一点,":3064,"发现,":3065,"▁当你在":3066,"▁ch":3067,"▁can":3068,"失败了":3069,"孩子们":3070,"有多坚强":3071,"翻译:":3072,",不要为任何人":3073,"ome":3074,"▁by":3075,"的东西。":3076,"......\r\n":3077,"并不重要,重要的是":3078,"了一辈子":3079,"完美的":3080,"完美时刻":3081,"最好的朋友":3082,"这是我的":3083,"。[爱你]":3084,"阳光]":3085,",每一":3086,"▁lif":3087,"曾经拥有":3088,"的心情":3089,"别人的看法":3090,"~~~":3091,"内心深处":3092,",还能":3093,"▁Th":3094,"充满了":3095,"来说,你":3096,"做的就是":3097,"最美妙":3098,"▁很多人":3099,"▁很多时候,":3100,"创造力":3101,"力量\r\n":3102,"活在当下":3103,"▁每个人都":3104,"做过的事":3105,"推荐关注\r\n":3106,"足够的":3107,"▁need":3108,"做自己,不要为任何人":3109,"更好的人":3110,"每天都在":3111,"中国的粉丝们":3112,"做的事,这就是":3113,"哭泣,":3114,"在那里":3115,"浪费时间":3116,"2012年":3117,"▁not":3118,"怎么看待":3119,"▁And":3120,"▁总有一天":3121,"了才知道。有些事,":3122,"▁any":3123,"情人节":3124,"自己的错误是":3125,"[泪]":3126,"”;不要老":3127,"▁微信\r\n":3128,"加拿大":3129,"意识到":3130,"做自己,不要为任何人而改变":3131,"!(":3132,"!太":3133,"!来自\r\n":3134,"!这是":3135,"!虽然":3136,"!加油":3137,"\"\r\n":3138,"'m":3139,"(美国":3140,"):":3141,")。\r\n":3142,",“":3143,",为":3144,",从":3145,",先":3146,",即":3147,",听":3148,",她":3149,",将":3150,",带":3151,",很":3152,",得":3153,",总":3154,",打":3155,",明":3156,",爱":3157,",独":3158,",直":3159,",祝":3160,",结":3161,",什么":3162,",别人":3163,",需要":3164,",转发":3165,",成功":3166,",大家":3167,",享受":3168,",醒来":3169,",好好":3170,",期待":3171,",活在":3172,",眼泪":3173,",虽然":3174,",真爱":3175,"-信":3176,"-号\r\n":3177,"-18":3178,".\"":3179,".3":3180,".我":3181,".来自\r\n":3182,".)\r\n":3183,"1.":3184,"16":3185,"1:":3186,"25":3187,"26":3188,"3:":3189,"43":3190,"4日":3191,"50个":3192,"65":3193,"84":3194,"99":3195,":#":3196,":不要":3197,":今天":3198,";不":3199,";在":3200,";有":3201,";而":3202,";长大":3203,";2.":3204,"=\r\n":3205,"?//@":3206,"AL":3207,"Brain":3208,"Dior":3209,"Ed":3210,"Mar":3211,"Ne":3212,"P8":3213,"PS":3214,"St":3215,"[]":3216,"ab":3217,"ag":3218,"aw":3219,"a的":3220,"ber":3221,"cc":3222,"ce":3223,"com":3224,"ea":3225,"eve":3226,"fici":3227,"http://t.cn/":3228,"hal":3229,"ham":3230,"ike":3231,"lo":3232,"lat":3233,"my":3234,"pe":3235,"row":3236,"sel":3237,"us":3238,"was":3239,"xpect":3240,"y_":3241,"~【":3242,"“大":3243,"”的":3244,"”。\r\n":3245,"▁3":3246,"▁:":3247,"▁x":3248,"▁”":3249,"▁】":3250,"▁七":3251,"▁千":3252,"▁发":3253,"▁因":3254,"▁外":3255,"▁如":3256,"▁家":3257,"▁尔":3258,"▁常":3259,"▁平":3260,"▁影":3261,"▁打":3262,"▁把":3263,"▁无":3264,"▁然":3265,"▁神":3266,"▁给":3267,"▁老":3268,"▁被":3269,"▁请":3270,"▁越":3271,"▁這":3272,"▁通":3273,"▁香":3274,"▁自己":3275,"▁//":3276,"▁....":3277,"▁he":3278,"▁时间":3279,"▁中国":3280,"▁任何":3281,"▁可能":3282,"▁en":3283,"▁[心]":3284,"▁......":3285,"▁美丽":3286,"▁开心":3287,"▁即使":3288,"▁)\r\n":3289,"▁信任":3290,"▁让我们":3291,"▁晚安":3292,"▁第一次":3293,"▁所谓":3294,"▁面对":3295,"▁儿子":3296,"▁感情":3297,"▁谢谢":3298,"▁3.":3299,"▁各位":3300,"▁这样的":3301,"▁三个":3302,"▁老师":3303,"▁You":3304,"▁翻译:":3305,"▁~~~":3306,"、高":3307,"。)":3308,"。T":3309,"。一":3310,"。上":3311,"。也":3312,"。如":3313,"。请":3314,"。很多":3315,"。❤喜欢请收听\r\n":3316,"》,":3317,"】指":3318,"一,":3319,"一事":3320,"一双":3321,"一座":3322,"一手":3323,"一般":3324,"一遍":3325,"上了":3326,"上传":3327,"上天":3328,"上是":3329,"上\r\n":3330,"上一个人":3331,"上看到":3332,"下次":3333,"下降":3334,"下面":3335,"下一手":3336,"不,":3337,"不住":3338,"不决":3339,"不及":3340,"不失":3341,"不已":3342,"不开":3343,"不必":3344,"不用":3345,"不觉":3346,"不完美":3347,"不容易":3348,"不代表":3349,"不愿意":3350,"不属于":3351,"不快乐,":3352,"与人":3353,"与坚持":3354,"与众不同":3355,"专业":3356,"世间":3357,"两种":3358,"中,我们":3359,"中看到":3360,"为之":3361,"主\r\n":3362,"丽·":3363,"之一":3364,"也无法":3365,"也不能":3366,"也只不过":3367,"书\r\n":3368,"了就":3369,"了太多":3370,"了以后":3371,"事\r\n":3372,"亮]":3373,"人家":3374,"今晚":3375,"他会":3376,"他带":3377,"他竟然":3378,"代价":3379,"代替":3380,"以前":3381,"以及":3382,"以外":3383,"们的":3384,"价还":3385,"任务":3386,"会失去":3387,"会一直":3388,"会变成":3389,"会是什么":3390,"伟大":3391,"伤的":3392,"体会":3393,"体验":3394,"何必":3395,"余生":3396,"作品":3397,"你得":3398,"你想":3399,"你我":3400,"你最":3401,"你什么":3402,"你知道":3403,"你自己的":3404,"你看到":3405,"你拥抱":3406,"保留":3407,"保证":3408,"做个":3409,"做些":3410,"做你":3411,"做我":3412,"做的,":3413,"做决定":3414,"停留":3415,"偶尔":3416,"克尔":3417,"克\r\n":3418,"克号\r\n":3419,"免费":3420,"公布":3421,"关的":3422,"其中":3423,"再次":3424,"再见":3425,"冷笑话":3426,"几天":3427,"出一":3428,"出我的":3429,"击倒":3430,"击\r\n":3431,"分别":3432,"则是":3433,"别的":3434,"到底":3435,"到达":3436,"前世":3437,"动物":3438,"区别":3439,"医院":3440,"十二":3441,"十天":3442,"博文":3443,"友情":3444,"发出":3445,"取代":3446,"口英语":3447,"古希":3448,"只想":3449,"叫声":3450,"可惜":3451,"名字":3452,"后,你":3453,"向前":3454,"吧。":3455,"听力":3456,"味道":3457,"和我":3458,"和其他":3459,"哪里":3460,"啊!":3461,"啊?":3462,"啊啊":3463,"善待":3464,"回到了":3465,"国,":3466,"图片":3467,"在中":3468,"在心":3469,"在等":3470,"在路":3471,"在这":3472,"在别人":3473,"在中国":3474,"在最不":3475,"地区":3476,"地去":3477,"场\r\n":3478,"增加":3479,"士多":3480,"处理":3481,"外院":3482,"多,":3483,"大脑":3484,"大\r\n":3485,"天员":3486,"太开":3487,"太远":3488,"太福音":3489,"失恋":3490,"头脑":3491,"奇\r\n":3492,"她的":3493,"好了":3494,"好有":3495,"好过":3496,"好。\r\n":3497,"好了。":3498,"始于":3499,"婚礼":3500,"存在于":3501,"学的":3502,"它,你":3503,"安。":3504,"安静":3505,"定的":3506,"实在":3507,"家人":3508,"家里":3509,"富有":3510,"对于":3511,"对自己":3512,"对的人":3513,"小,":3514,"小到":3515,"小孩":3516,"少,":3517,"尔\r\n":3518,"就好":3519,"就能":3520,"就没有":3521,"就不要":3522,"就不会":3523,"就关注\r\n":3524,"就出去":3525,"尼克号\r\n":3526,"尽在\r\n":3527,"展示":3528,"岁月":3529,"岁的":3530,"布斯":3531,"带有":3532,"帮我":3533,"并没有":3534,"建议":3535,"开放":3536,"开朗":3537,"开了。\r\n":3538,"强者":3539,"当时":3540,"形容":3541,"很有":3542,"很容易":3543,"得更":3544,"得最":3545,"得有":3546,"得多\r\n":3547,"微风":3548,"微-信":3549,"心疼":3550,"忘不了":3551,"怀疑":3552,"思维":3553,"性\r\n":3554,"总说":3555,"恋爱":3556,"悲观":3557,"想到":3558,"想不到":3559,"想太多":3560,"愿望":3561,"成。":3562,"我会":3563,"我看":3564,"我爱你":3565,"我希望":3566,"房间":3567,"所为":3568,"所能":3569,"所在\r\n":3570,"所当然":3571,"手所":3572,"手报":3573,"手指":3574,"打击":3575,"承认":3576,"把自己":3577,"投资":3578,"报的":3579,"抱得更":3580,"拍#":3581,"拍摄":3582,"拔野鸡":3583,"拿着":3584,"拿走":3585,"掌控":3586,"掌握":3587,"推动":3588,"教学":3589,"整天":3590,"新年":3591,"新的一天":3592,"新手报":3593,"方面":3594,"旅游":3595,"无其":3596,"无助":3597,"无意义":3598,"无所谓":3599,"早起":3600,"时,我":3601,"时不要":3602,"明星":3603,"明确":3604,"昨日":3605,"是为":3606,"是过":3607,"是,当":3608,"是因为我":3609,"显示":3610,"晚点":3611,"景,":3612,"更。\r\n":3613,"更重要":3614,"更美好":3615,"最大":3616,"最近":3617,"最难":3618,"最高":3619,"月10":3620,"月亮]":3621,"有,":3622,"有了":3623,"有福":3624,"有限":3625,"有一个人":3626,"有一次":3627,"有机会":3628,"朝它":3629,"本书":3630,"本身":3631,"来临":3632,"来到":3633,"来的":3634,"来过":3635,"来\r\n":3636,"杯,不会":3637,"林\r\n":3638,"某天":3639,"样东西":3640,"梦里":3641,"欢喜":3642,"正直":3643,"正面":3644,"此刻":3645,"死于":3646,"每一个":3647,"每件事":3648,"比亚":3649,"比赛":3650,"比较":3651,"比昨天":3652,"毕竟":3653,"水果":3654,"永不":3655,"没必要":3656,"法和":3657,"注:":3658,"泰尼克号\r\n":3659,"消费":3660,"深的":3661,"漫长":3662,"潮英语":3663,"点;":3664,"点儿":3665,"点。\r\n":3666,"热情":3667,"爱人":3668,"爱\r\n":3669,"爱。\r\n":3670,"爱一个人":3671,"猜猜":3672,"现代":3673,"现出":3674,"现场":3675,"球迷":3676,"理想":3677,"理所当然":3678,"生,":3679,"生死":3680,"生。\r\n":3681,"用来":3682,"用任何":3683,"男女":3684,"男性":3685,"的友":3686,"的基":3687,"的天":3688,"的时":3689,"的歌":3690,"的特":3691,"的答":3692,"的译":3693,"的车":3694,"的我们":3695,"的生命":3696,"的都是":3697,"的微笑":3698,"的,不是":3699,"的未来":3700,"的阳光":3701,"的时刻":3702,"的回忆":3703,"的并不是":3704,"的星星":3705,"的恐惧":3706,"的方向":3707,"的过程":3708,"的外表":3709,"的没心没":3710,"目前":3711,"直觉":3712,"相当":3713,"看见":3714,"看门":3715,"看星星":3716,"看的太":3717,"真实":3718,"眼云":3719,"着。":3720,"神秘":3721,"离别":3722,"称为":3723,"立\r\n":3724,"笑起来":3725,"答应":3726,"经验":3727,"给他们":3728,"绝对":3729,"缘分":3730,"网\r\n":3731,"美剧":3732,"美女":3733,"美德":3734,"美街":3735,"翻唱":3736,"耀眼":3737,"而已":3738,"而忙,":3739,"联系":3740,"肯定":3741,"胜利":3742,"胜过":3743,"能走":3744,"能量":3745,"能成为":3746,"自《":3747,"自\r\n":3748,"般的爱情":3749,"花朵":3750,"花\r\n":3751,"苦一":3752,"苦一辈子":3753,"草,":3754,"落落":3755,"落\r\n":3756,"蛋]":3757,"行\r\n":3758,"被忘记":3759,"要是":3760,"解脱":3761,"說\r\n":3762,"讨价还":3763,"让它":3764,"让步":3765,"记性":3766,"评论":3767,"试试":3768,"诚实":3769,"语法":3770,"语\r\n":3771,"说爱":3772,"说过":3773,"读了":3774,"谷歌":3775,"购买":3776,"走走":3777,"起起":3778,"超越":3779,"过。":3780,"过分":3781,"过的东西":3782,"还在":3783,"还能":3784,"还没有":3785,"还记得":3786,"还不如":3787,"这次":3788,"这就是":3789,"进去":3790,"进行":3791,"连续":3792,"透反而":3793,"道德":3794,"都看":3795,"都不知道":3796,"配拥有":3797,"酒杯":3798,"里最":3799,"重庆":3800,"重量":3801,"长时间":3802,"间的":3803,"难以":3804,"难免":3805,"难道":3806,"面\r\n":3807,"鞋子":3808,"音部":3809,"频繁":3810,"风格":3811,"飞行":3812,"香,":3813,"鸟儿":3814,"..\r\n":3815,"我们很":3816,"我们有":3817,"我们自己":3818,"我们可以":3819,"自己很":3820,"自己是":3821,"自己最":3822,"一个你":3823,"一个\r\n":3824,"一个伟大的":3825,"的人。你":3826,"▁我对":3827,"▁我这":3828,"▁我今天":3829,"▁我不知道":3830,"▁我一直在":3831,",你将":3832,",你看":3833,",你要":3834,",你永远":3835,",你仍然":3836,",你也可以":3837,",你还是要":3838,"你的世界":3839,"你的眼睛":3840,"你的一生":3841,"你的笑容":3842,"生活。\r\n":3843,",不求":3844,",不过":3845,"就是这样":3846,"就是让自己":3847,"就是我,":3848,"因为我们":3849,",我必":3850,",我想":3851,",我可能":3852,",但不是":3853,",但总会":3854,",而我":3855,",而是一":3856,"不是一个":3857,"不是你的":3858,"喜欢你":3859,"喜欢自己":3860,"的事儿":3861,"的事\r\n":3862,"的事;长大":3863,"可以不":3864,"可以和":3865,"可以在":3866,"可以用":3867,"可以选择":3868,"ink":3869,"▁你是":3870,"▁你知道":3871,"era":3872,"erhal":3873,"的,是":3874,",就不要":3875,",就关注\r\n":3876,",就必须":3877,",就一定":3878,"//@全球":3879,"不会再":3880,"不会很快":3881,"的一种":3882,"的一件事":3883,"ous":3884,"快乐。":3885,"快乐。\r\n":3886,",那叫":3887,",那就是":3888,"需要保持":3889,"▁有人":3890,"....\r\n":3891,"▁如果不":3892,"▁如果我":3893,"的时候会":3894,"的时候,我":3895,"hed":3896,"hen":3897,"只是我":3898,"幸福是件很":3899,"朋友们":3900,"英语#":3901,"转发\r\n":3902,",也不会":3903,"重要的":3904,"重要的人":3905,"今天的":3906,"生命是一份礼物":3907,"▁在你":3908,"▁在这个世界上":3909,"▁不要因为":3910,"不能改变":3911,"爱情,":3912,"时间的":3913,"梦想,":3914,"梦想而忙,":3915,"都是因为":3916,"自己的感觉":3917,"▁ag":3918,"▁//@冷笑话":3919,",有些人":3920,"▁当我":3921,"▁当我们":3922,"努力工作":3923,"觉得自己":3924,"的人,是":3925,"的人,都是":3926,"的人,他竟然":3927,",我们必须":3928,",我们需要保持":3929,"失去的,":3930,"失去希望":3931,"希望自己":3932,"微笑吧,":3933,"的事情就是":3934,"相信你":3935,"相信我":3936,"相信自己":3937,"相信自己,":3938,"选择;":3939,"美国总统":3940,",这些":3941,",这样":3942,",这种":3943,"ese":3944,"▁sth":3945,"▁see":3946,",是因为":3947,"▁we":3948,"▁wor":3949,"▁who":3950,"的是,我":3951,"arl":3952,"arn":3953,"ary":3954,"orning":3955,"▁生活中":3956,",一定":3957,"只有你":3958,"只有一个人":3959,"是我不想":3960,"看到了":3961,"▁my":3962,"找到一个":3963,"起来的":3964,"事情会":3965,"[心][心]":3966,"一切都会":3967,"发生在":3968,"发生的":3969,",它是":3970,"已经拥有":3971,"为了梦想而忙,":3972,"那么多":3973,"明天\r\n":3974,",要学会":3975,"决定我们":3976,"出来的":3977,"忘记一个人":3978,"▁人生最大的":3979,"▁人生就像一":3980,"▁人生充满了":3981,"学习了":3982,"学习英语":3983,"接受生活":3984,"100":3985,"▁from":3986,"其实是":3987,"翻译】":3988,"omerhal":3989,"▁bit":3990,"想做的事":3991,"简单是件很":3992,"简单的事;长大":3993,"英文语录":3994,"认为对":3995,",让我们":3996,",让自己":3997,"▁this":3998,"▁through":3999,"▁per":4000,"一些人,":4001,"ase":4002,"ason":4003,"给你带来":4004,"美好,":4005,"醒来。\r\n":4006,"为什么当初":4007,"也许就是":4008,"忘了梦想":4009,"这里。\r\n":4010,"那个特别":4011,"▁Ch":4012,"在你心里":4013,"痛苦的":4014,"这么多":4015,"▁off":4016,"!!\r\n":4017,",并非":4018,"不想失去":4019,"遇见,不能":4020,"怎样,你还是要":4021,"都不太":4022,"都有一个":4023,"▁gu":4024,"▁爱是":4025,"▁it's":4026,"好好享受":4027,",才能":4028,",才要":4029,"▁every":4030,"。---":4031,"到了这里。\r\n":4032,"结束了":4033,"▁没有人":4034,"▁这个世界上":4035,"告诉你":4036,"唯一需要":4037,"把你抱得更":4038,"的爱国":4039,"第一步":4040,"继续生活":4041,"时候,幸福是件很":4042,"▁别让":4043,"最美的":4044,"最美好的":4045,"____":4046,"▁要么":4047,"不得不":4048,"你有没有":4049,"所谓的":4050,"抱抱]":4051,"方法\r\n":4052,"最好的一面":4053,"每个人都":4054,"的感觉\r\n":4055,"不再是":4056,"做过的事情":4057,"多么艰难":4058,"对我来说":4059,"温暖的":4060,"▁我想知道":4061,"---更多精彩语录请关注[左抱抱]\r\n":4062,"▁never":4063,"▁现在是":4064,"上帝\r\n":4065,"会发现你的":4066,"后,简单是件很":4067,"在这里\r\n":4068,"每日一句":4069,"沉默是":4070,",我就在这里":4071,",也不配拥有":4072,",但是我们要":4073,">>>":4074,"▁只要你":4075,"▁真正的朋友":4076,"一段时间":4077,"不断地":4078,"不知不觉":4079,"同学们":4080,"感受到":4081,"成熟的标志":4082,"浪费它,你":4083,"耐心。因为":4084,"▁生活的艺术":4085,"▁http://t.cn/zY":4086,",没人能":4087,"beat":4088,"▁永远不要":4089,"。喜欢请关注\r\n":4090,"周围的人":4091,"学英语好心情":4092,"心理学":4093,"首歌,":4094,",我也相信":4095,"准备好了,":4096,",因它会":4097,"akes":4098,"关键在于":4099,"后来忙":4100,"大量的":4101,"左右,":4102,"整个世界":4103,"月31日":4104,"活得漂亮":4105,"的你,也不配拥有":4106,"的男人,":4107,"给予的":4108,"重新开始":4109,"一个新的开始\r\n":4110,"▁我觉得生命是一份礼物":4111,",不管怎样,你还是要":4112,",但它值得等待":4113,"▁mean":4114,"真正的幸福,我们需要保持":4115,",想想为什么当初":4116,"VIP":4117,"▁No":4118,"《吸血鬼日记》":4119,"最差的你,也不配拥有":4120,"的方式\r\n":4121,"▁不要只追求":4122,"放弃的那一刻,想想为什么当初":4123,"坚持走到了这里。\r\n":4124,"勇敢的做自己,不要为任何人而改变":4125,"Offici":4126,"▁just":4127,"▁假如":4128,"▁投\r\n":4129,"一开始为了梦想而忙,":4130,"个单词,":4131,"倒不如的没心没":4132,"偷笑]":4133,"又有什么":4134,"嘻嘻]":4135,"放不下":4136,"有钱了,":4137,"独立思考":4138,"精选:":4139,"耶和华":4140,"背后议论":4141,"一个你爱的人,他竟然":4142,",我不想浪费它,你":4143,"▁time":4144,"不会知道下一手":4145,"他们不能接受最差的你,也不配拥有":4146,",那只能说明":4147,"▁smile.":4148,"找到合适的人":4149,"并不重要,重要的是你":4150,"最美妙的一件事":4151,"Brainwas":4152,"self":4153,"不快乐,倒不如的没心没":4154,"会是什么,要学会":4155,"你拥抱一个你爱的人,他竟然":4156,"友情是":4157,"士多德":4158,"外院\r\n":4159,"太开心]":4160,"微-信-号\r\n":4161,"是,当你拥抱一个你爱的人,他竟然":4162,"杯,不会苦一辈子":4163,"看门人":4164,"看星星,就":4165,"看的太透反而":4166,"美街拍#":4167,"讨价还价":4168,"起起落落":4169,"▁我今天学习了":4170,",但总会苦一":4171,"▁sth.":4172,"▁人生就像一杯,不会苦一辈子":4173,"▁人生充满了起起落落":4174,"omerhalder":4175,"简单的事;长大后,简单是件很":4176,"把你抱得更紧":4177,"时候,幸福是件很简单的事;长大后,简单是件很":4178,"▁生活的艺术在于":4179,"学英语好心情,关注\r\n":4180,"▁我觉得生命是一份礼物,我不想浪费它,你":4181,"真正的幸福,我们需要保持耐心。因为":4182,"放弃的那一刻,想想为什么当初坚持走到了这里。\r\n":4183,"一开始为了梦想而忙,后来忙":4184,"不会知道下一手会是什么,要学会":4185,"他们不能接受最差的你,也不配拥有最好的":4186,"最美妙的一件事是,当你拥抱一个你爱的人,他竟然":4187,"Brainwashed":4188,"看的太透反而不快乐,倒不如的没心没":4189,"▁人生就像一杯,不会苦一辈子,但总会苦一":4190,"时候,幸福是件很简单的事;长大后,简单是件很幸福":4191,"▁我觉得生命是一份礼物,我不想浪费它,你不会知道下一手会是什么,要学会":4192,"最美妙的一件事是,当你拥抱一个你爱的人,他竟然把你抱得更紧":4193,"▁我觉得生命是一份礼物,我不想浪费它,你不会知道下一手会是什么,要学会接受生活":4194,"!在":4195,"!我":4196,"!這":4197,"!//@":4198,"!生命":4199,"!哈哈":4200,"!你们":4201,"!让我们":4202,"!——《":4203,"#新手报":4204,"%的":4205,"'re":4206,"'ve":4207,"(m":4208,"(t":4209,"(享":4210,"(古希":4211,")!":4212,")(":4213,")。":4214,")【":4215,")是":4216,")来自\r\n":4217,"+一个":4218,",万":4219,",上":4220,",举":4221,",其":4222,",出":4223,",刚":4224,",反":4225,",发":4226,",受":4227,",另":4228,",吃":4229,",后":4230,",嘴":4231,",多":4232,",太":4233,",子":4234,",学":4235,",干":4236,",忙":4237,",手":4238,",指":4239,",掉":4240,",改":4241,",為":4242,",熟":4243,",生":4244,",的":4245,",相":4246,",老":4247,",被":4248,",诚":4249,",走":4250,",超":4251,",转":4252,",过":4253,",除":4254,",首":4255,",喜欢":4256,",永远":4257,",今天":4258,",改变":4259,",生命":4260,",一起":4261,",未来":4262,",都会":4263,",其他":4264,",即使":4265,",学会":4266,",得到":4267,",遇见":4268,",他的":4269,",保持":4270,",许多":4271,",信任":4272,",早上":4273,",终于":4274,",都要":4275,",仍然":4276,",沉默":4277,",英国":4278,",比如":4279,",下的":4280,",其实我":4281,",回家":4282,",甚至":4283,",亲爱":4284,",说出来":4285,",始于":4286,",活得漂亮":4287,"-M":4288,"-d":4289,"-th":4290,".【":4291,".你":4292,".爱":4293,"/她":4294,"/你是否":4295,"/Brainwashed":4296,"0年":4297,"1号":4298,"1小时":4299,"24":4300,"27":4301,"2:":4302,"31":4303,"32":4304,"35":4305,"37":4306,"3h":4307,"30%":4308,"360":4309,"42":4310,"47":4311,"4个":4312,"5.":4313,"57":4314,"5月31日":4315,"62":4316,"63":4317,"6日":4318,"6月":4319,"6小时":4320,"85":4321,"86":4322,"8日":4323,"97":4324,":\"":4325,":4":4326,":B":4327,":H":4328,":M":4329,":从":4330,":在":4331,":是":4332,":这":4333,":我们":4334,":一个":4335,":中国":4336,":微笑":4337,":哈哈":4338,":这是":4339,":回复@":4340,":关于":4341,":爱自己":4342,":1.":4343,":.爱":4344,";他":4345,";但":4346,";若":4347,";因为":4348,";即使":4349,";当你":4350,";生命中":4351,";3.":4352,"?【":4353,"@D":4354,"@丽":4355,"@小":4356,"@林":4357,"BA":4358,"BC":4359,"Bill":4360,"CL":4361,"Cre":4362,"Cam":4363,"DJ":4364,"EO":4365,"Good":4366,"Hu":4367,"Hey":4368,"HEd":4369,"IN":4370,"IO":4371,"IS":4372,"If":4373,"I'm":4374,"JN":4375,"Jo":4376,"J3h":4377,"LA":4378,"MV":4379,"Mr":4380,"Mic":4381,"NE":4382,"NY":4383,"Nor":4384,"OH":4385,"OL":4386,"OP":4387,"OMG":4388,"PO":4389,"Pong":4390,"RE":4391,"Rust":4392,"SI":4393,"SAN":4394,"Somerhalder":4395,"S63":4396,"TE":4397,"THEd":4398,"UJ3h":4399,"We":4400,"WP8":4401,"WJN":4402,"[原":4403,"[太阳]":4404,"[蛋]":4405,"[偷笑]":4406,"[嘻嘻]":4407,"]关注\r\n":4408,"]//@全球":4409,"_:":4410,"_Offici":4411,"ai":4412,"ait":4413,"ale":4414,"aid":4415,"by":4416,"bam":4417,"ca":4418,"cho":4419,"cent":4420,"do":4421,"ds":4422,"ding":4423,"eb":4424,"ex":4425,"eat":4426,"eel":4427,"fan":4428,"fuck":4429,"ger":4430,"gas":4431,"gres":4432,"hg":4433,"here":4434,"i,":4435,"ies":4436,"ial":4437,"iver":4438,"iac":4439,"ild":4440,"ibo":4441,"igas":4442,"jam":4443,"ler":4444,"l26":4445,"lUJ3h":4446,"mo":4447,"mp":4448,"mer":4449,"na":4450,"no":4451,"o_":4452,"ose":4453,"oore":4454,"ook":4455,"pr":4456,"pon":4457,"ron":4458,"ris":4459,"ric":4460,"s!":4461,"sh":4462,"te":4463,"ty":4464,"ton":4465,"tle":4466,"ud":4467,"ug":4468,"uk":4469,"ulat":4470,"y)":4471,"yst":4472,"~\r\n":4473,"·布":4474,"—《":4475,"“你":4476,"“哈":4477,"“女":4478,"”“":4479,"”一":4480,"”,而是":4481,"▁+":4482,"▁7":4483,"▁?":4484,"▁O":4485,"▁V":4486,"▁i":4487,"▁v":4488,"▁y":4489,"▁—":4490,"▁❤":4491,"▁【":4492,"▁万":4493,"▁三":4494,"▁为":4495,"▁主":4496,"▁也":4497,"▁习":4498,"▁了":4499,"▁事":4500,"▁亲":4501,"▁使":4502,"▁像":4503,"▁克":4504,"▁典":4505,"▁再":4506,"▁写":4507,"▁到":4508,"▁前":4509,"▁华":4510,"▁即":4511,"▁古":4512,"▁吃":4513,"▁同":4514,"▁周":4515,"▁哈":4516,"▁哪":4517,"▁困":4518,"▁坏":4519,"▁夜":4520,"▁够":4521,"▁娜":4522,"▁学":4523,"▁德":4524,"▁心":4525,"▁忙":4526,"▁恶":4527,"▁感":4528,"▁拉":4529,"▁提":4530,"▁数":4531,"▁斯":4532,"▁日":4533,"▁杰":4534,"▁步":4535,"▁没":4536,"▁洛":4537,"▁海":4538,"▁深":4539,"▁清":4540,"▁火":4541,"▁热":4542,"▁物":4543,"▁珍":4544,"▁睡":4545,"▁石":4546,"▁站":4547,"▁等":4548,"▁紧":4549,"▁累":4550,"▁翻":4551,"▁联":4552,"▁苦":4553,"▁莫":4554,"▁见":4555,"▁视":4556,"▁警":4557,"▁记":4558,"▁诺":4559,"▁转":4560,"▁远":4561,"▁送":4562,"▁都":4563,"▁随":4564,"▁青":4565,"▁面":4566,"▁预":4567,"▁就是":4568,"▁别人":4569,"▁.\r\n":4570,"▁他们":4571,"▁微博":4572,"▁快乐":4573,"▁英语":4574,"▁成为":4575,"▁不能":4576,"▁安\r\n":4577,"▁放弃":4578,"▁真的":4579,"▁选择":4580,"▁一次":4581,"▁所以":4582,"▁总是":4583,"▁想要":4584,"▁已经":4585,"▁未来":4586,"▁10":4587,"▁其实":4588,"▁英文":4589,"▁ke":4590,"▁享受":4591,"▁最后":4592,"▁12":4593,"▁为什么":4594,"▁学会":4595,"▁就像":4596,"▁太多":4597,"▁心里":4598,"▁所有的":4599,"▁世上":4600,"▁早安":4601,"▁保持":4602,"▁ra":4603,"▁'t":4604,"▁北京":4605,"▁地址\r\n":4606,"▁活在":4607,"▁虽然":4608,"▁if":4609,"▁后悔":4610,"▁奇迹":4611,"▁真爱":4612,"▁孤单":4613,"▁还有":4614,"▁因为我":4615,"▁中国的":4616,"▁粉丝们":4617,"▁中文":4618,"▁经济":4619,"▁艰难":4620,"▁两个人":4621,"▁伤痛":4622,"▁目标":4623,"▁视频":4624,"▁随着":4625,"▁2013":4626,"▁完全":4627,"▁平凡":4628,"▁两人":4629,"▁单身":4630,"▁篇文章":4631,"▁专注":4632,"▁查看":4633,"▁激情":4634,"▁关注@":4635,"▁完美的":4636,"▁推荐关注\r\n":4637,"▁2012年":4638,"▁加拿大":4639,"▁=\r\n":4640,"▁布斯":4641,"▁努力工作":4642,"▁勇敢的做自己,不要为任何人而改变":4643,"、最":4644,"、有":4645,"、自由":4646,"、音乐":4647,"、自信":4648,"、团队":4649,"。\"":4650,"。—":4651,"。《":4652,"。于":4653,"。别":4654,"。它":4655,"。就":4656,"。是":4657,"。爱":4658,"。。\r\n":4659,"。不是":4660,"。关注\r\n":4661,"。朋友":4662,"。不能":4663,"。爱情":4664,"。也许":4665,"。属于":4666,"。晚安\r\n":4667,"。有时":4668,"。谢谢":4669,"。3.":4670,"。抓住":4671,"。比如":4672,"。不能接受":4673,"。早\r\n":4674,"。It":4675,"。什么是":4676,"。这是我的":4677,"。耶和华":4678,"《神":4679,"《老":4680,"》:":4681,"》。\r\n":4682,"》第二":4683,"【果":4684,"【请":4685,"】你":4686,"】[心]":4687,"一人":4688,"一份":4689,"一半":4690,"一场":4691,"一夜":4692,"一日":4693,"一时":4694,"一朵":4695,"一眼":4696,"一草":4697,"一言":4698,"一路":4699,"一部":4700,"一。\r\n":4701,"一部分":4702,"三次":4703,"三道":4704,"上午":4705,"上多":4706,"上学":4707,"上获":4708,"上一个":4709,"上,你":4710,"上生活":4711,"上我的":4712,"上计较":4713,"上认真":4714,"下周":4715,"下一刻":4716,"不入":4717,"不动":4718,"不合":4719,"不喜":4720,"不展":4721,"不愿":4722,"不相":4723,"不着":4724,"不而":4725,"不胜":4726,"不许":4727,"不该":4728,"不说":4729,"不透":4730,"不了,":4731,"不觉得":4732,"不值得":4733,"不了。\r\n":4734,"不开心":4735,"不好,":4736,"不仅仅":4737,"不的努力":4738,"不错的":4739,"不做的事,这就是":4740,"不重要的人":4741,"与其":4742,"与别人":4743,"与他们":4744,"与别人的看法":4745,"与直觉":4746,"业家":4747,"两只":4748,"个好":4749,"个小":4750,"个月":4751,"个男":4752,"个词":4753,"个理由":4754,"个方向":4755,"个结局":4756,"个字母":4757,"中,":4758,"中心":4759,"中要":4760,"中的人":4761,"中有多":4762,"中学习英语":4763,"临在":4764,"为一":4765,"为爱":4766,"为谁":4767,"为难":4768,"为你的":4769,"举办":4770,"么?":4771,"之下":4772,"之为":4773,"之光":4774,"之外":4775,"之行":4776,"之道":4777,"之际":4778,"乎所有":4779,"乐趣":4780,"乐队":4781,"乐\r\n":4782,"也很":4783,"也不要":4784,"也是一":4785,"习语":4786,"书本":4787,"书的":4788,"买了":4789,"买到":4790,"乱了":4791,"了.":4792,"了你":4793,"了再":4794,"了呢":4795,"了好":4796,"了无":4797,"了,不":4798,"了,就":4799,"了朋友":4800,"了一天":4801,"了很多":4802,"了...\r\n":4803,"了你。\r\n":4804,"了进入":4805,"了博文":4806,"事做":4807,"事是":4808,"事的":4809,"事,我不":4810,"二十年":4811,"于原":4812,"于未来":4813,"于千万":4814,"云图":4815,"五个":4816,"五大":4817,"五月":4818,"五种":4819,"亚里":4820,"交会":4821,"交友":4822,"交给":4823,"交网站":4824,"享有":4825,"人与":4826,"人会":4827,"人却":4828,"人地":4829,"人帮":4830,"人心":4831,"人更":4832,"人有":4833,"人要":4834,"人。\r\n":4835,"人,但是":4836,"人醒来":4837,"人怎样":4838,"人啊\r\n":4839,"人来说":4840,"仅是":4841,"今后":4842,"今生":4843,"从你":4844,"从来":4845,"从许多":4846,"从梦中":4847,"从书本":4848,"他,":4849,"他在":4850,"他妈":4851,"他有":4852,"他\r\n":4853,"他人的":4854,"他/她":4855,"付我":4856,"付出了":4857,"令你":4858,"令自己":4859,"以智":4860,"们心疼":4861,"价一个人":4862,"优越":4863,"会使":4864,"会在":4865,"会更":4866,"会觉得":4867,"会让你":4868,"会坚强":4869,"会遇见":4870,"会容易":4871,"会让我们":4872,"会爱上":4873,"会感动":4874,"会让你的":4875,"伤悲":4876,"伤。\r\n":4877,"但是":4878,"低谷":4879,"住在你心里":4880,"何时":4881,"作和":4882,"作文":4883,"作回忆":4884,"你听":4885,"你对":4886,"你就":4887,"你眼":4888,"你被":4889,"你要":4890,"你请":4891,"你走":4892,"你没有":4893,"你不是":4894,"你喜欢":4895,"你可以":4896,"你需要":4897,"你成为":4898,"你不能":4899,"你的人,":4900,"你真正":4901,"你一直":4902,"你决定":4903,"你自己,":4904,"你原来":4905,"你是谁":4906,"你的人生":4907,"你生活的":4908,"你生命中的":4909,"你本来":4910,"你”;不要老":4911,"你,不管怎样,你还是要":4912,"使命":4913,"便应":4914,"保罗":4915,"信号":4916,"信和":4917,"信骗":4918,"信心\r\n":4919,"修女":4920,"倒计":4921,"倾向":4922,"倾听":4923,"倾诉":4924,"做,":4925,"做梦":4926,"做鬼":4927,"做别人":4928,"做很多":4929,"做人的":4930,"做一些":4931,"做那个":4932,"做出了":4933,"做你想做":4934,"做了才知道。有些事,":4935,"做的事情就是":4936,"停下":4937,"停留在":4938,"偶然":4939,"偷偷":4940,"儿童":4941,"充分":4942,"先开":4943,"光,":4944,"光。":4945,"光明":4946,"克服":4947,"克》第二":4948,"免许多":4949,"入,我":4950,"全力":4951,"全国":4952,"全新的":4953,"公共":4954,"公平":4955,"公里":4956,"共度":4957,"兴趣":4958,"其它":4959,"其广":4960,"具有":4961,"典礼":4962,"内容":4963,"再度":4964,"再来":4965,"再成熟":4966,"再寂寞":4967,"军区":4968,"冷。":4969,"冷\r\n":4970,"几率":4971,"出卖":4972,"出发":4973,"出版":4974,"出。\r\n":4975,"出第一步":4976,"分之":4977,"分开":4978,"分手":4979,"分目":4980,"分配":4981,"则要":4982,"刚在":4983,"创业":4984,"初中":4985,"初恋":4986,"利亚":4987,"利用":4988,"别再":4989,"别让":4990,"到一":4991,"到位":4992,"到此":4993,"到目":4994,"到这":4995,"到那":4996,"到\r\n":4997,"到一起":4998,"到让你":4999,"到的人,都是":5000,"制作":5001,"制度":5002,"制造":5003,"前进":5004,"前面":5005,"前\r\n":5006,"剧本":5007,"力而":5008,"力下降":5009,"力所能":5010,"功\r\n":5011,"加入":5012,"加班":5013,"助于":5014,"助人":5015,"助己":5016,"助手":5017,"勇往":5018,"包容":5019,"北卡":5020,"午夜":5021,"午餐":5022,"华丽":5023,"华里,":5024,"博主":5025,"博客":5026,"即便":5027,"却知道":5028,"去何":5029,"去吧":5030,"去年":5031,"去看":5032,"去评":5033,"去过":5034,"去退":5035,"去相信":5036,"去等待":5037,"去尝试":5038,"去看看":5039,"去认识":5040,"去争取":5041,"又很":5042,"又要":5043,"及时":5044,"反对":5045,"发呆":5046,"发气":5047,"发的":5048,"发出来":5049,"取舍":5050,"取知识":5051,"变强":5052,"口。\r\n":5053,"句型":5054,"句\r\n":5055,"另一条":5056,"另一个人的":5057,"只的":5058,"只需":5059,"只须":5060,"只代表":5061,"叫我":5062,"可及":5063,"可是":5064,"可不是":5065,"可爱的":5066,"吃点":5067,"各地":5068,"合理":5069,"同一":5070,"名的":5071,"后和":5072,"后果":5073,"向任何人":5074,"否定":5075,"否认":5076,"吧?":5077,"吧[":5078,"吧。\r\n":5079,"吧,我":5080,"吧。。":5081,"吧,要":5082,"吧,因为你":5083,"听从":5084,"听过":5085,"听起来":5086,"吸引":5087,"呆着":5088,"员工":5089,"周四":5090,"周日":5091,"和对":5092,"和平":5093,"和率":5094,"和我的":5095,"和创造力":5096,"和教学":5097,"和沉默是":5098,"品脱":5099,"品质":5100,"哈:":5101,"哥哥":5102,"唯有":5103,"唱到":5104,"唱来":5105,"唱的":5106,"商,":5107,"啊。":5108,"喜乐":5109,"喜爱":5110,"器官":5111,"器:微笑":5112,"回想":5113,"回给你":5114,"因此":5115,"因一次":5116,"团的":5117,"国之":5118,"国外":5119,"在:":5120,"在上":5121,"在了":5122,"在亚":5123,"在人":5124,"在想":5125,"在林":5126,"在街":5127,"在谈":5128,"在一个":5129,"在微博":5130,"在生命":5131,"在最后":5132,"在12":5133,"在担心":5134,"在人生":5135,"在情绪":5136,"在做事":5137,"在背后议论":5138,"地外":5139,"地看":5140,"地道":5141,"地\r\n":5142,"地挑战":5143,"地,用":5144,"场景":5145,"场比赛":5146,"坏\r\n":5147,"境地":5148,"境界":5149,"士\r\n":5150,"处的":5151,"外,还":5152,"多个":5153,"多远":5154,"多难":5155,"够了\r\n":5156,"大事":5157,"大声":5158,"大师":5159,"大道":5160,"大队":5161,"大雨":5162,"大的人":5163,"大部分":5164,"大,大":5165,"大多数":5166,"天拍":5167,"天的":5168,"天\r\n":5169,"天生的":5170,"太深":5171,"太短":5172,"太想念":5173,"太思考":5174,"头笑着":5175,"奥斯":5176,"奥丽·":5177,"女,":5178,"女人,":5179,"她就":5180,"好”":5181,"好友":5182,"好吃":5183,"好奇":5184,"好的\r\n":5185,"好好的":5186,"好起来":5187,"好一点":5188,"如同":5189,"如生的":5190,"如同一个":5191,"妙\r\n":5192,"子:":5193,"子。":5194,"子图":5195,"字典":5196,"学生":5197,"学英文":5198,"学生的":5199,"宁可":5200,"宁静":5201,"它。":5202,"它就":5203,"它打":5204,"它成为":5205,"它怎样":5206,"它,成功":5207,"安定":5208,"安装":5209,"定。":5210,"宝宝":5211,"宝\r\n":5212,"实行":5213,"客\r\n":5214,"害的":5215,"家的":5216,"对?":5217,"对中":5218,"对它":5219,"对此":5220,"对象":5221,"对世界":5222,"对别人":5223,"对过去":5224,"对某个人":5225,"寻求":5226,"将不":5227,"将有":5228,"将永远":5229,"将过去":5230,"将他带":5231,"小学":5232,"小说":5233,"小龙":5234,"小子\r\n":5235,"少些":5236,"少年":5237,"少数":5238,"尔.":5239,"尚:":5240,"就得":5241,"就有":5242,"就能改变":5243,"就不要放弃":5244,"就睡多久":5245,"尽情":5246,"尽量":5247,"尽可能":5248,"尽全力":5249,"山顶":5250,"山奇\r\n":5251,"工业":5252,"工人":5253,"工具":5254,"巨星":5255,"巨大的":5256,"巨人,":5257,"巨人醒来":5258,"差不多":5259,"巴特":5260,"带上":5261,"带给":5262,"带。\r\n":5263,"带给你":5264,"干,":5265,"干\r\n":5266,"平安":5267,"年4":5268,"年9":5269,"年内":5270,"年。\r\n":5271,"年华里,":5272,"并写":5273,"并不能":5274,"广州":5275,"庆幸":5276,"应对":5277,"应用":5278,"应付我":5279,"底线":5280,"底\r\n":5281,"座右":5282,"建立":5283,"建造":5284,"开,":5285,"开头":5286,"开,你":5287,"当成":5288,"当的":5289,"当一切":5290,"当一点":5291,"当巨人醒来":5292,"录音":5293,"往事":5294,"很棒":5295,"很短":5296,"很累":5297,"很失败":5298,"很特别":5299,"很小,":5300,"很开朗":5301,"很大,大":5302,"得多":5303,"得很":5304,"得我":5305,"得救":5306,"得时候":5307,"得不到":5308,"得太多":5309,"得进来":5310,"得忘了梦想":5311,"得真正的幸福,我们需要保持耐心。因为":5312,"心安":5313,"心底":5314,"心无":5315,"心灵":5316,"心的人":5317,"心的,":5318,"心动的":5319,"心动\r\n":5320,"心爱的人,":5321,"心的是,我":5322,"必有":5323,"必背":5324,"忍不住":5325,"志愿":5326,"忧。\r\n":5327,"忧伤的":5328,"快\r\n":5329,"念头":5330,"怀念":5331,"怀抱":5332,"怕只是":5333,"性恋":5334,"总有":5335,"总结":5336,"总能":5337,"恨我":5338,"恨不得":5339,"恶都":5340,"悔恨":5341,"情下":5342,"情愿":5343,"想一":5344,"想去":5345,"想见":5346,"想达":5347,"想一个人":5348,"想到的":5349,"想睡多久":5350,"意志":5351,"意见":5352,"意\r\n":5353,"意想不到":5354,"感。":5355,"感,但":5356,"愿以":5357,"成的":5358,"我到":5359,"我吃":5360,"我爱":5361,"我要":5362,"我走":5363,"我还":5364,"我。\r\n":5365,"我知道":5366,"我不会":5367,"我觉得":5368,"我还是":5369,"我。你":5370,"我都不":5371,"我内心":5372,"我,我就":5373,"我不在乎":5374,"我手所":5375,"我最好的一面":5376,"我,那只能说明":5377,"或不知道":5378,"所\r\n":5379,"所决定":5380,"所爱,":5381,"手,":5382,"手不":5383,"手娜":5384,"手,一":5385,"手同行":5386,"才照":5387,"才开始":5388,"才明白":5389,"打着":5390,"打破":5391,"打给":5392,"打电话":5393,"找口":5394,"把我们":5395,"把什么":5396,"投影":5397,"报告":5398,"报复":5399,"担当一点":5400,"拉克":5401,"拍\r\n":5402,"指向":5403,"指引":5404,"指的是":5405,"掌]":5406,"接住":5407,"收视":5408,"收到的":5409,"改善":5410,"改正":5411,"放军":5412,"政购":5413,"救的":5414,"教人怎样":5415,"数着":5416,"文件":5417,"文学":5418,"文\r\n":5419,"文应该":5420,"断地挑战":5421,"斯·":5422,"斯\r\n":5423,"新一":5424,"新浪":5425,"方便":5426,"无数":5427,"无的":5428,"无知":5429,"无缺":5430,"无言":5431,"无需":5432,"日出":5433,"日前":5434,"日常":5435,"旦破":5436,"早餐":5437,"早好\r\n":5438,"时报":5439,"时记忆":5440,"时,那些":5441,"时不失":5442,"明。":5443,"明智":5444,"星期":5445,"春运":5446,"昨晚":5447,"是真":5448,"是色":5449,"是跟":5450,"是时候":5451,"是个人":5452,"是不够":5453,"是完全":5454,"是确定":5455,"是怎么样":5456,"是无可":5457,"是教人怎样":5458,"显然":5459,"显龙":5460,"更要":5461,"更坚强":5462,"更好\r\n":5463,"更失望":5464,"替代":5465,"最低":5466,"最棒":5467,"最神":5468,"最需要":5469,"最应该":5470,"最美好":5471,"最伤心":5472,"最简单的":5473,"月\r\n":5474,"有余":5475,"有深":5476,"有着":5477,"有,所以":5478,"有许多":5479,"有过的东西":5480,"有担当一点":5481,"服的。":5482,"望必须":5483,"朝你":5484,"期限":5485,"末日":5486,"本\r\n":5487,"机器":5488,"权利":5489,"权威":5490,"李小龙":5491,"李显龙":5492,"来爱你":5493,"来看看":5494,"来表示":5495,"杯子":5496,"林肯":5497,"林其广":5498,"果然":5499,"某事":5500,"某种":5501,"某一天":5502,"某人,":5503,"标准":5504,"样子。\r\n":5505,"根你看到":5506,"格拉":5507,"梦境":5508,"梦见":5509,"模式":5510,"模样":5511,"次的":5512,"欢欣":5513,"欺的,":5514,"歌\r\n":5515,"歌手娜":5516,"正日":5517,"段台词":5518,"母。":5519,"母鸡":5520,"每一个人,你":5521,"比冷":5522,"比\r\n":5523,"比你的":5524,"比别人":5525,"比任何":5526,"毛病":5527,"毛的人":5528,"民主义":5529,"永生":5530,"求婚":5531,"求职":5532,"求在我":5533,"求得真正的幸福,我们需要保持耐心。因为":5534,"沉睡":5535,"沙热烈":5536,"没能":5537,"没了自己":5538,"治国,":5539,"法、":5540,"波:":5541,"注明":5542,"泰尔":5543,"洛克》第二":5544,"活动":5545,"活\r\n":5546,"流泪":5547,"流行":5548,"流言":5549,"消失":5550,"消极":5551,"清醒":5552,"游。\r\n":5553,"源于":5554,"满意":5555,"演唱":5556,"潮流":5557,"灭了,你":5558,"点!":5559,"点也是":5560,"点点的":5561,"点击\r\n":5562,"然泪":5563,"然心动\r\n":5564,"爱她":5565,"爱的时候":5566,"爱唯美":5567,"爱了以后":5568,"父母。":5569,"片子":5570,"版本":5571,"版\r\n":5572,"版】[心]":5573,"物质":5574,"特的":5575,"犯错":5576,"犯错误":5577,"球的":5578,"球队":5579,"甜\r\n":5580,"甜的,":5581,"甜的\r\n":5582,"生病":5583,"生\r\n":5584,"生至少":5585,"用的":5586,"用这":5587,"用\r\n":5588,"用一切":5589,"用一辈子":5590,"用助人":5591,"由于":5592,"电站":5593,"电信骗":5594,"男子":5595,"留下":5596,"留着":5597,"留足":5598,"留作回忆":5599,"疯子\r\n":5600,"疼痛":5601,"痛楚":5602,"痛。\r\n":5603,"痛心的是,我":5604,"百万":5605,"的7":5606,"的?":5607,"的“":5608,"的丧":5609,"的医":5610,"的味":5611,"的喜":5612,"的希":5613,"的性":5614,"的恶":5615,"的新":5616,"的棒":5617,"的每":5618,"的留":5619,"的的":5620,"的红":5621,"的让":5622,"的起":5623,"的轻":5624,"的间":5625,"的难":5626,"的面":5627,"的一个":5628,"的知道":5629,"的快乐":5630,"的英语":5631,"的过去":5632,"的可能":5633,"的。(":5634,"的学习":5635,"的你\r\n":5636,"的电影":5637,"的自由":5638,"的内心":5639,"的仅仅":5640,"的理解":5641,"的发展":5642,"的能力":5643,"的到来":5644,"的国家":5645,"的困难":5646,"的伤痛":5647,"的城市":5648,"的童话":5649,"的天空":5650,"的旅行":5651,"的精神":5652,"的每一":5653,"的食物":5654,"的无所谓":5655,"的去评":5656,"的品质":5657,"的宁静":5658,"的山顶":5659,"的巨人,":5660,"目,":5661,"目光":5662,"目的。":5663,"直接":5664,"直面":5665,"相见":5666,"相。\r\n":5667,"看完":5668,"看懂":5669,"看着":5670,"看你的":5671,"看不见":5672,"看他有":5673,"真理":5674,"眼里":5675,"眼,却":5676,"眼中的":5677,"着要":5678,"着你的":5679,"睡着":5680,"睡不着":5681,"知足":5682,"短信":5683,"短短":5684,"短,什么":5685,"石油":5686,"破碎":5687,"确认":5688,"碎使你更":5689,"社交网站":5690,"祝大家":5691,"福第一":5692,"离去":5693,"种人在":5694,"称,":5695,"程度":5696,"空间":5697,"空。\r\n":5698,"童鞋":5699,"笑,":5700,"笑的时候":5701,"笑;你":5702,"笑得时候":5703,"等被":5704,"等\r\n":5705,"答,":5706,"管他":5707,"管它怎样":5708,"米比亚":5709,"粉http://t.cn/z":5710,"精力":5711,"紧,":5712,"紧要":5713,"累,没人能":5714,"繁华":5715,"红酒,":5716,"约了我":5717,"纳米比亚":5718,"练有的":5719,"经常":5720,"结婚":5721,"结论":5722,"给出":5723,"给你的":5724,"给别人":5725,"给更好的人":5726,"统统":5727,"维尔":5728,"维斯":5729,"罗斯":5730,"罪恶":5731,"美儿":5732,"美语":5733,"老成":5734,"者的":5735,"者\r\n":5736,"者认为":5737,"而且":5738,"而变":5739,"而是":5740,"而言":5741,"而生活":5742,"而生存":5743,"而哭泣,":5744,"而活\r\n":5745,"背景,":5746,"能、":5747,"能使":5748,"能将":5749,"能骗":5750,"能\r\n":5751,"能一起":5752,"能感觉":5753,"能让你":5754,"能把你":5755,"能做的":5756,"脱离":5757,"自来":5758,"至19":5759,"致的":5760,"舍弃":5761,"花开":5762,"英赛":5763,"行善":5764,"表明":5765,"表演":5766,"表面":5767,"表了博文":5768,"被禁止":5769,"要么":5770,"要像":5771,"要去":5772,"要梦想":5773,"要努力":5774,"要精彩":5775,"要遇到":5776,"要回头":5777,"要比你":5778,"要做的就是":5779,"要掌控":5780,"见过":5781,"规章":5782,"解放军":5783,"言人":5784,"认真的":5785,"讨你,":5786,"让每个":5787,"让每个人都":5788,"让不重要的人":5789,"记>":5790,"记录":5791,"记的":5792,"记\r\n":5793,"讲话":5794,"许愿":5795,"论什么时候":5796,"设身":5797,"词\r\n":5798,"诗篇":5799,"诗人,":5800,"诚实的":5801,"话就":5802,"该怎么":5803,"说。\r\n":5804,"说你不":5805,"说的话":5806,"说,我不":5807,"说对不起":5808,"说不出":5809,"说三道":5810,"诺言":5811,"读懂":5812,"课的":5813,"课程":5814,"谈恋":5815,"谈话":5816,"谈安定":5817,"象你的心":5818,"负重":5819,"败了,不":5820,"购物":5821,"资本":5822,"资源":5823,"赢得":5824,"走了":5825,"走出我的":5826,"走,那叫":5827,"赶走":5828,"起了":5829,"起诉":5830,"起\r\n":5831,"越是":5832,"足以":5833,"跟我":5834,"身上的":5835,"车。\r\n":5836,"车电话":5837,"轻信":5838,"轻学英语":5839,"边缘":5840,"过后":5841,"过客":5842,"过着":5843,"过\r\n":5844,"过。\r\n":5845,"过我,":5846,"过什么,":5847,"近在":5848,"近。\r\n":5849,"还不":5850,"还得":5851,"还想":5852,"还童":5853,"还不够":5854,"这一":5855,"这会":5856,"这是一":5857,"这篇文章":5858,"这段台词":5859,"进口":5860,"进步":5861,"远的距离":5862,"迷了":5863,"迷恋":5864,"追美剧":5865,"适应":5866,"适当的":5867,"透明":5868,"通常":5869,"通道":5870,"速发展":5871,"道#":5872,"道别":5873,"道路":5874,"遗。\r\n":5875,"那就是":5876,"部的":5877,"部电影":5878,"都上":5879,"都跟":5880,"都不要":5881,"都需要":5882,"都无法":5883,"都必须":5884,"都应该":5885,"都为你":5886,"都结束":5887,"都变得":5888,"都没能":5889,"酸甜":5890,"释怀":5891,"释放":5892,"里奇":5893,"里。\r\n":5894,"重复":5895,"量化":5896,"金正日":5897,"钟表":5898,"钱无法":5899,"错,但":5900,"错的,":5901,"错了才知道。有些事,":5902,"键是":5903,"长在":5904,"门运":5905,"门\r\n":5906,"门会让你的":5907,"问\r\n":5908,"问:“":5909,"问,不代表":5910,"问心无":5911,"降临":5912,"降低":5913,"限量":5914,"随时":5915,"随风":5916,"随他们":5917,"难受":5918,"难,但":5919,"难,有":5920,"集\r\n":5921,"青年":5922,"静音":5923,"靠近":5924,"面,却":5925,"音响":5926,"顶时":5927,"项调查":5928,"顺着":5929,"预见":5930,"领人":5931,"频道":5932,"题目":5933,"风得":5934,"风行":5935,"风尚:":5936,"飞起来":5937,"飞开了。\r\n":5938,"马上":5939,"马的":5940,"高考":5941,"高频":5942,"鸡蛋":5943,"黑的大":5944,"鼓励":5945,"鼓舞":5946,"鼓掌]":5947,"龙头":5948,"龙的存在":5949,"我们没有":5950,"我们还是":5951,"我们必须":5952,"我们是否":5953,"我们心中":5954,"自己学":5955,"自己生活":5956,"自己长大":5957,"自己失去了":5958,"一个会":5959,"一个全":5960,"一个机会":5961,"一个地方":5962,"一个时刻":5963,"一个简单的":5964,"一个转身":5965,"的人们":5966,"的人多":5967,"的人是":5968,"的人,不":5969,"的人,而是":5970,"的人除了":5971,"的人,就像":5972,"的人,就算":5973,"的人有福":5974,"▁我不":5975,"▁我也":5976,"▁我将":5977,"▁我恨":5978,"▁我请":5979,"▁我希望":5980,"▁我总是":5981,"▁我以为":5982,"▁我就是我,":5983,"▁我在这里\r\n":5984,"▁我会坚强":5985,",你就是":5986,",你是我":5987,",你就会":5988,"你的\r\n":5989,"你的。\r\n":5990,"你的生命":5991,"你的幻想":5992,"你的代价":5993,"你的爱人":5994,"生活和":5995,"生活是":5996,"生活,不是":5997,"生活给你":5998,"生活就会":5999,"生活讨价还价":6000,",不懂":6001,",不曾":6002,",不在于":6003,",不在乎":6004,",不能改变":6005,"就是个":6006,",我为":6007,",我爱":6008,",我要":6009,",我爱你":6010,",我那些":6011,",我都会":6012,",我活的":6013,",我只想":6014,"没有朋友":6015,"没有一点":6016,"没有鞋子":6017,"什么就":6018,"什么,而":6019,"时候你的":6020,"不要老":6021,"不要错过":6022,"如果他们":6023,",但却":6024,",但绝":6025,",但这":6026,",但是我":6027,",但这是":6028,",但有钱了,":6029,",而要":6030,",而非":6031,",而不知道":6032,",而其他":6033,"不是你本来":6034,"不是数着":6035,"喜欢,":6036,"喜欢\r\n":6037,"喜欢就是":6038,"喜欢那些":6039,"喜欢你\r\n":6040,"知道自己想要":6041,"知道得太多":6042,"的事是":6043,"的事,是":6044,"世界:":6045,"世界来说,你":6046,"世界末日":6047,"可以多":6048,"可以把":6049,"可以拿":6050,"可以改变":6051,"可以给你":6052,"可以从许多":6053,"可以飞起来":6054,"关注你,":6055,"一个人是":6056,"一个人。\r\n":6057,"一个人有多":6058,"一个人,只是":6059,"一个人呆着":6060,"ins":6061,"int":6062,"▁你需要":6063,"▁你无法":6064,"▁你已经":6065,"▁你永远不会":6066,"▁你每天都在":6067,"erry":6068,"别人怎么":6069,"别人对你的":6070,"的,\r\n":6071,"的,更要":6072,"的,我们必须":6073,",就会":6074,",就得":6075,",就放":6076,",就越":6077,",就放弃":6078,",就不知道":6079,"//@经典":6080,"不会在":6081,"不会害怕":6082,"ane":6083,"ant":6084,"ance":6085,"onver":6086,"oney":6087,"他们必":6088,"永远的":6089,"永远不要":6090,"永远无法":6091,"永远都在":6092,"永远都不会":6093,"的一次":6094,"的一生":6095,"的一句话":6096,"的一首歌":6097,"out":6098,"ould":6099,"ouse":6100,"oupon":6101,"微博并":6102,"快乐、":6103,"快乐的人":6104,"快乐![":6105,"快乐的事情。\r\n":6106,",那只不过":6107,"需要一个":6108,"需要勇气":6109,"▁有时":6110,"▁有没有":6111,"▁有爱的":6112,"▁有的人你看":6113,"我的\r\n":6114,"我的世界":6115,"我的生命":6116,"我的眼泪":6117,"了,可":6118,"了,爱":6119,"了,大家":6120,"了,然后":6121,"了,才明白":6122,"▁如果他":6123,"▁如果有人":6124,"是一位":6125,"是一名":6126,"是一朵":6127,"的时候\r\n":6128,"的时候,不要":6129,"的时候出现":6130,"hell":6131,"拥有一个":6132,"拥有的东西":6133,"拥有你从未":6134,"只是通":6135,"只是一个":6136,"只是用来":6137,"只是给更好的人":6138,"幸福安":6139,"幸福的":6140,"朋友,":6141,"朋友\r\n":6142,"朋友的价值":6143,"英语推荐":6144,"▁人的":6145,"▁人与人":6146,"无法再":6147,"无法解决":6148,"无法承受":6149,",也别":6150,",也没有":6151,",也不想":6152,"重要\r\n":6153,"重要的事情":6154,"重要的。":6155,"重要的不是":6156,"重要的心情":6157,"今天开始":6158,"今天是我":6159,"今天,期待":6160,"改变\r\n":6161,"改变,不能改变":6162,"成为数":6163,"成为你的":6164,"成为什么样":6165,"成为第一个":6166,"。。......":6167,"。。。【":6168,"成功了":6169,"成功,不要":6170,"这个决定":6171,"开始,":6172,"开始了,":6173,"开始新的":6174,"开始了!":6175,",因为别人":6176,",因为只有你":6177,"ree":6178,"ren":6179,"ret":6180,"ream":6181,"▁在我":6182,"▁在我们":6183,"▁在这个":6184,"▁在你想要":6185,"▁在这世上":6186,"▁在找到合适的人":6187,"▁不要去":6188,"▁不要等待":6189,"▁不要着,":6190,"▁不要失去希望":6191,"▁不要根你看到":6192,"▁不要轻信":6193,"▁不要知道得太多":6194,"不能服":6195,"不能自":6196,"不能应付我":6197,"爱你,所以":6198,"爱情\r\n":6199,"爱情故事":6200,"爱情的世界":6201,"爱情结束了":6202,"梦想\r\n":6203,"都是影子":6204,"都是小事":6205,"自己的生活":6206,"自己的,不要":6207,"自己的方式":6208,"自己的内心":6209,"▁al":6210,"▁app":6211,"▁acc":6212,"▁//@2013":6213,"▁//@THEd":6214,"▁//@波:":6215,"▁//@的童话":6216,",有你的":6217,",有一点点":6218,"▁当有人":6219,"中国人":6220,"中国\r\n":6221,"中国人民":6222,"努力。":6223,"努力!\r\n":6224,"还是可以":6225,"过去\r\n":6226,"过去发生":6227,"过去,它":6228,"过去,不如":6229,"过去的历":6230,"那些最":6231,"那些对你":6232,"那些不愿":6233,"的人,就是":6234,"的人,其实":6235,"的人,到哪":6236,",而是没有人":6237,"itor":6238,"ities":6239,"希望\r\n":6240,"微笑着":6241,"微笑的人,":6242,"微笑活在当下":6243,"的事情上":6244,"相信她":6245,"相信它,成功":6246,"任何东西":6247,"任何事情":6248,"放弃\r\n":6249,"真的是":6250,"选择,":6251,"选择去做":6252,"ated":6253,"美国作家":6254,"▁sh":6255,"▁son":6256,"▁say":6257,"▁some":6258,"▁syst":6259,"了。我":6260,"了。——":6261,"了。也许":6262,",是你":6263,",是一个":6264,",是为了":6265,",是因为你":6266,",是在最后":6267,"▁wis":6268,"▁wing":6269,"▁will":6270,"▁wait":6271,"的是你":6272,"真正喜欢":6273,"真正拥有":6274,"orities":6275,"▁生活就是":6276,"▁生活是一":6277,"▁生活就像":6278,"▁生活有时":6279,"▁生活是一场":6280,"。(言\r\n":6281,"。(美国总统":6282,",一切":6283,",一直":6284,",一点点的":6285,",一种人在":6286,"▁不求":6287,"▁不知":6288,"▁不过":6289,"很多次":6290,"很多问题":6291,"看到你的":6292,"看到的\r\n":6293,"看到什么样":6294,"看到的,有":6295,",却了一辈子":6296,"enjam":6297,"isc":6298,"ish":6299,"▁hit":6300,"▁http://t.cn/":6301,"▁how":6302,"▁hur":6303,"▁here":6304,"▁muc":6305,"▁more":6306,"▁morning":6307,"总是值得等待":6308,"总是有,所以":6309,"想要的":6310,"找到这样":6311,"起来的。":6312,"▁如果你要":6313,"▁如果你想要":6314,"▁如果你放不下":6315,"▁如果你在背后议论":6316,"ve-th":6317,"▁每日":6318,"只要活着":6319,"的。比如":6320,"▁我们都有":6321,"▁我们的生命":6322,"你,是一种":6323,"一切会容易":6324,"一切,但有钱了,":6325,"发生了太多":6326,"在于你自己":6327,"工作人员":6328,"感觉有点":6329,"...还是":6330,",它们":6331,",它却":6332,",它也会":6333,",它总会":6334,"tter":6335,"▁(微-信-号\r\n":6336,"▁(学英语好心情,关注\r\n":6337,"已经感觉":6338,"已经失去的,":6339,"必须去做":6340,"必须有,":6341,"来自美国":6342,"▁这是":6343,"▁这是我":6344,"▁这是我的":6345,"一点时间":6346,"为了求得真正的幸福,我们需要保持耐心。因为":6347,"让你看到的\r\n":6348,"那么短,什么":6349,"▁they":6350,"一直都":6351,"人,手":6352,"坚强,眼泪":6353,"应该是":6354,"应该努力":6355,",要有勇气":6356,",要看他有":6357,"▁St":6358,"▁Sw":6359,"▁She":6360,"▁Sho":6361,"▁Sch":6362,"▁S-M":6363,"。——自《":6364,"。——山奇\r\n":6365,"一样\r\n":6366,"一样。\r\n":6367,"决定就能改变":6368,"出来的\r\n":6369,"出来,但我":6370,"发现原来":6371,"发现自己的错误是":6372,"忘记了":6373,"忘记你":6374,"忘记。不能":6375,",不是“":6376,",但是最终":6377,"▁人生也许就是":6378,"▁人生重要的事情":6379,"▁当你停止":6380,"▁当你再成熟":6381,"200":6382,"2010":6383,"▁@OMG":6384,"▁call":6385,"▁care":6386,"失败。\r\n":6387,"失败的恐惧":6388,"接受,改变":6389,"未来。\r\n":6390,"未来,因它会":6391,"10分钟":6392,"ed,":6393,"editor":6394,"thorities":6395,"▁day":6396,"▁fall":6397,"▁fight":6398,"▁feel":6399,"哈哈哈":6400,"无论你是否":6401,"有多么":6402,"有多长":6403,"精彩许多":6404,"都会累,没人能":6405,",不要浪费时间":6406,",不要想睡多久":6407,",不要忘记。不能":6408,"▁but":6409,"▁old":6410,"。我会":6411,"。我真的":6412,"想做,会":6413,"想做却不能":6414,"想做。这是我的":6415,"想做什么就":6416,"的东西总是有,所以":6417,"等待老天":6418,"认为我":6419,"▁有时候,我":6420,"▁有时候,我们":6421,",让它成为":6422,"leep":6423,"▁一句":6424,"▁一旦":6425,"▁一生至少":6426,"日子都变得":6427,"机会。":6428,"问题。":6429,"问题的":6430,"问题。\r\n":6431,"问题都是":6432,"▁there":6433,"▁think":6434,"aya":6435,"aybe":6436,"▁pl":6437,"▁par":6438,"▁pres":6439,"中的伤痛":6440,"你们\r\n":6441,"并不值得":6442,"并不意味着":6443,"的那个":6444,"的那样":6445,"美丽\r\n":6446,"ask":6447,"asy":6448,"。你就是":6449,"了一眼,却":6450,"在乎人地":6451,"尝试才是":6452,"时,奇迹":6453,"时,善待":6454,"时,随他们":6455,"给你上一":6456,"美好事物":6457,"醒来都要":6458,"own":6459,"ower":6460,"▁喜欢就关注\r\n":6461,"为什么还":6462,"也许会":6463,"其他地方":6464,"勇气。\r\n":6465,"原文\r\n":6466,"学会了":6467,"得到的":6468,"得到你想要":6469,"得到的,更要":6470,"忘了答应":6471,"最好的总会":6472,"那个对":6473,"那个错的人":6474,",在我":6475,"aldo":6476,"ice":6477,"ick":6478,"icky":6479,"▁Bu":6480,"▁Bar":6481,"▁Bab":6482,"▁Benjam":6483,"▁Co":6484,"▁Cu":6485,"▁[b":6486,"▁[太阳]":6487,"。[太阳]":6488,"。[阳光]":6489,"。[抱抱]":6490,"。但是":6491,"。但是,":6492,"一下吧":6493,"一下。\r\n":6494,"一句“":6495,"伤心,不是因为":6496,"在你身边":6497,"地方就有":6498,"就会发生":6499,"就会发现":6500,"离开你的生活":6501,"阳光\r\n":6502,"阳光才照":6503,"▁有些事情":6504,"▁有些事,我不":6505,"意味着永远":6506,"意味着两个人":6507,"!!!!":6508,",并决心":6509,",每个人":6510,",每一天":6511,",每一次":6512,",每一次的":6513,"odel":6514,"▁live":6515,"▁对世界来说,你":6516,"分享。":6517,"勇敢地":6518,"勇敢,谁":6519,"勇敢,心":6520,"地址:":6521,"地址:http://t.cn/z":6522,"太多。\r\n":6523,"心里面,却":6524,"昨天,活在":6525,"错误的":6526,",当我们":6527,",当灭了,你":6528,"▁God":6529,"▁Gun":6530,"。【口英语":6531,"一定程度":6532,"不了你,":6533,"不了决定":6534,"容易失去":6535,"早安!":6536,"的心,一个":6537,"自由的人除了":6538,"追求成功":6539,"追求一草":6540,"都有一些":6541,",只是不":6542,",所以我":6543,",所以只要活着":6544,"ace":6545,"ach":6546,"ecret":6547,"▁Aok":6548,"▁AMG":6549,"▁get":6550,"▁爱情就像":6551,"▁爱情是,":6552,"▁it.":6553,"你不想做却不能":6554,"吗?我":6555,"在我身边":6556,"女孩浪漫":6557,"好好地":6558,"如何用":6559,"时刻表":6560,"期待。":6561,"让自己变得":6562,"许多人":6563,"许多你不想做却不能":6564,",才有":6565,"▁expect":6566,"▁生命中":6567,"▁生命中有":6568,"▁生命必须有,":6569,"。--《":6570,"。--泰尔":6571,"为你做":6572,"为你承担":6573,"原来爱情的世界":6574,"回忆,":6575,"总会找到":6576,"总会让步":6577,"感谢你":6578,"挑战,世界":6579,"结束而哭泣,":6580,"让我笑起来":6581,"长大越":6582,"长大了才知道":6583,"的一切\r\n":6584,"的一切。\r\n":6585,",以至于":6586,",还不如":6587,"0000":6588,"001:":6589,"▁The":6590,"▁大挑战,世界":6591,"▁新的一天":6592,"▁没有比":6593,"不过是":6594,"也不好":6595,"也不值得拥有":6596,"你自己。":6597,"告诉孩子":6598,"告诉你,我":6599,"害怕失去":6600,"属于你的":6601,"属于你;":6602,"成长,":6603,"时光\r\n":6604,"时光。\r\n":6605,"晚安外院\r\n":6606,"珍惜。属于":6607,"的爱,她":6608,"的话,":6609,"继续向前":6610,"说“”,":6611,"身边\r\n":6612,"部分的":6613,"的一天\r\n":6614,",他说":6615,"rive-th":6616,"▁做你想做":6617,"▁别了":6618,"不同的结局":6619,"之间的":6620,"之间左右":6621,"事,原来":6622,"人生中":6623,"仅仅在于你自己":6624,"优秀的品质":6625,"做的工":6626,"到的每件事":6627,"命运。\r\n":6628,"多少苦":6629,"并不是要":6630,"影响到":6631,"影响了自己":6632,"或者合":6633,"有些人":6634,"有些好":6635,"经典语录":6636,"经典台词":6637,"经典文字":6638,"非常不":6639,"非常重要的。":6640,"是一种用任何":6641,"是一种遇见,不能":6642,",会难过":6643,",别在":6644,",别让":6645,",可我内心":6646,"▁Ma":6647,"▁Moore":6648,"▁ones":6649,"▁幸福是":6650,"▁幸福不是":6651,"▁幸福不在于":6652,"▁成功的":6653,"▁成功就是":6654,"▁很多事情":6655,"▁无论多么艰难":6656,"▁无论过去发生":6657,"你有两只":6658,"分钟的":6659,"变成现实":6660,"呢?[":6661,"呢?\r\n":6662,"将会在":6663,"方法就是":6664,"早上都":6665,"明白,真爱":6666,"明白,我那些":6667,"每个人都有":6668,"的感觉是":6669,"经历过":6670,"能力:":6671,"音乐剧":6672,"你的生活中":6673,"▁每个人心中":6674,"▁每个人都会累,没人能":6675,"ly.":6676,"▁2.":6677,"▁世界上最美妙的一件事是,当你拥抱一个你爱的人,他竟然把你抱得更紧":6678,"出去,":6679,"受伤,没":6680,"和你一起":6681,"和你在一起":6682,"回来,那么":6683,"多么的":6684,"对我说":6685,"带来喜乐":6686,"当下,让它成为":6687,"恐惧;":6688,"疯狂的事":6689,"看看,否则":6690,"表达方式":6691,"表达的温":6692,"解决很多问题":6693,"足够坚强":6694,"什么样的内心":6695,",但我相信":6696,"拥有的,不要忘记。不能":6697,"任何人,因为":6698,",要么忍":6699,",要么让人":6700,"更多精彩请关注\r\n":6701,"▁new":6702,";不要等到":6703,"▁#Ian":6704,"▁#每日一句":6705,"▁F.":6706,"▁Fr":6707,"▁Fri":6708,"▁年轻":6709,"▁年后,":6710,"。如果有时候":6711,"一生中有多":6712,"会有那么":6713,"会发现你有两只":6714,"停止了":6715,"再也不能":6716,"到来,也不会":6717,"到来,但它值得等待":6718,"原谅别人":6719,"原谅一个人,只是":6720,"对不对?":6721,"悲伤。\r\n":6722,"放手。\r\n":6723,"放手与坚持":6724,"智慧,能":6725,"更好。":6726,"每日英语推荐":6727,"爱我所爱,":6728,"生气1小时":6729,"越来越少":6730,"轻易到来,但它值得等待":6731,"的人生,":6732,",我就永远":6733,"一个人,即使":6734,",也不愿意":6735,",也许你会":6736,"成功的秘诀":6737,"成功的望必须":6738,",因为你看到的,有":6739,"ess.":6740,"▁thats":6741,",那么你永远也":6742,",那么你必须去做":6743,",那么你也不值得拥有":6744,",最终":6745,",最重要的是":6746,"ally":6747,"uty":6748,"▁天.\r\n":6749,"▁一个自由的人除了":6750,"一只用助人":6751,"一颗星星":6752,"下来,":6753,"下来是因为":6754,"不可动的":6755,"不好就出去":6756,"之中\r\n":6757,"做的事才是":6758,"全球的":6759,"各位,早安\r\n":6760,"唯美英语":6761,"在那儿":6762,"奋斗将来":6763,"年的第一天":6764,"很难。":6765,"手机版】[心]":6766,"漂亮的外表":6767,"演讲,":6768,"演讲】":6769,"生日\r\n":6770,"的不是你":6771,"经济体":6772,"给了我们":6773,"▁人们总说":6774,"▁人们伤心,不是因为":6775,"▁happ":6776,"一直在寻找":6777,"美丽的忧伤的":6778,",然后在":6779,",何时":6780,",何来":6781,",世界也会":6782,"▁Kore":6783,"▁想你,是一种":6784,"▁祝大家":6785,"▁若无其":6786,"▁不是没":6787,"▁our":6788,"▁reason":6789,"▁微笑和沉默是":6790,"▁美国习语":6791,"▁学习昨天,活在":6792,"。而你":6793,"。早安~(关注\r\n":6794,"一条,":6795,"下的叫":6796,"不喜欢你的人":6797,"公司的":6798,"决心想达":6799,"周围都是影子":6800,"在意你的":6801,"年轻人":6802,"幸运的,":6803,"收获都必须":6804,"晚上睡觉":6805,"有勇气去":6806,"正确的事情":6807,"的前后":6808,"的前面\r\n":6809,"目标,并决心":6810,"研究和教学":6811,"童话故事":6812,"自我。\r\n":6813,"视频\r\n":6814,"这世上只有":6815,"没有人可以":6816,"知道我有多么":6817,"ange":6818,"angry":6819,",而是你没有":6820,",因此":6821,",把手":6822,",看我":6823,":有时候,":6824,"Chrom":6825,"▁Lin":6826,"▁What":6827,"▁从来":6828,"▁太耀眼":6829,"▁马克":6830,"▁马太福音":6831,"▁-----":6832,"▁朋友是":6833,"▁朋友就是":6834,"之后就不要":6835,"作家\r\n":6836,"你想做却不能":6837,"使用该":6838,"使用。\r\n":6839,"去爱;不要等到":6840,"大学生":6841,"安全感":6842,"寂寞了,才明白":6843,"影子,当灭了,你":6844,"找不到那个对":6845,"提醒自己,":6846,"提高英语":6847,"最重要的\r\n":6848,"月30":6849,"有那么一个人":6850,"注定要遇到":6851,"的意思是":6852,"看不到,不":6853,"睡觉,醒来":6854,"积极的":6855,"绝望的时候":6856,"绝望主\r\n":6857,"考试中":6858,"考验。很多":6859,"默默地":6860,"一个新的“哈":6861,",而在于是否":6862,"的一面,那么你也不值得拥有":6863,"任何事。\r\n":6864,"▁有时候,你需要":6865,",让我觉得我":6866,"真正的幸福不会很快":6867,"使你更坚强,眼泪":6868,"使你更勇敢,心":6869,"!@M":6870,",加强":6871,"Thai":6872,"aren":6873,"ru:":6874,"weibo":6875,"▁今晚":6876,"▁可是我":6877,"▁能发现自己的错误是":6878,"▁只是感觉有点":6879,"▁哈哈,":6880,"。~!":6881,"。这只是给更好的人":6882,"《吸血鬼日记\r\n":6883,"不多了。":6884,"不适合看星星,就":6885,"不适合谈安定":6886,"之所以原谅一个人,只是":6887,"令人痛心的是,我":6888,"假装的无所谓":6889,"出现在你":6890,"出现在你的生活中":6891,"完整的":6892,"很好奇":6893,"放下,然而":6894,"无关。\r\n":6895,"无关紧要":6896,"时,你就会":6897,"明显要比你":6898,"最差的一面,那么你也不值得拥有":6899,"有所成就":6900,"来源获得":6901,"根本就":6902,"毕业典礼":6903,"水平的":6904,"满足就是":6905,"珍贵的东西总是有,所以":6906,"脚步,":6907,"要做的一件事情":6908,"责任;生命中":6909,"追寻,而不知道":6910,"错的只是":6911,"自己想要的生活":6912,"▁我爱美街拍#":6913,",不代表你":6914,"生命中的小":6915,"▁不要只因一次":6916,",而是因为当一切":6917,"放弃的那一刻,你才":6918,",这是你的代价":6919,"可能是他们想":6920,"▁如果你想拥有你从未":6921,",它会带来喜乐":6922,"让你觉得更失望":6923,"让你觉得快乐的事情。\r\n":6924,"thing.":6925,"坚持走下去":6926,"一句话\r\n":6927,"verybody":6928,"▁新年快乐":6929,"之前,唯一需要":6930,"▁世界上最远的距离":6931,"”,改说“我":6932,"▁know.":6933,"主义者在":6934,",使得":6935,",哪个":6936,",由于":6937,",怎么能":6938,"1月1日":6939,";如果他":6940,";如果他们不能接受最差的你,也不配拥有最好的":6941,"IanSomerhalder":6942,"ONDJ":6943,"▁4.":6944,"▁富足":6945,"▁小时候,幸福是件很简单的事;长大后,简单是件很幸福":6946,"▁明的人":6947,"▁自从":6948,"▁谢朵":6949,"▁好的爱情":6950,"▁...[原":6951,"▁let":6952,"▁曾经拥有的,不要忘记。不能":6953,"。如果你有":6954,"。晚安~(关注\r\n":6955,"一大早":6956,"不爱你,只是":6957,"与你手同行":6958,"中的一颗":6959,"你的人不需要":6960,"勇于对过去":6961,"取悦每一个人,你":6962,"各自的":6963,"周年念":6964,"回首往事":6965,"好。把":6966,"把握,每一次的":6967,"摄影师":6968,"时的动":6969,"最酸的感觉是":6970,"某个决定就能改变":6971,"的感情\r\n":6972,"红色的车":6973,"经意的时候出现":6974,"要走得":6975,"要学会自己长大":6976,"语言也无法":6977,"跟随自己的内心":6978,"转身离开":6979,"这张照片":6980,"这部剧":6981,"那就改变,不能改变":6982,"都不是我":6983,"的人你看了一眼,却":6984,",你拥有什么,而":6985,"不是因为没有朋友":6986,"了,因为它":6987,"了,因为他们必":6988,"放弃。已经失去的,":6989,"一点,管它怎样":6990,"▁当你在自己的感觉":6991,"▁change":6992,"孩子们对":6993,"了一辈子,却了一辈子":6994,"完美时刻的到来":6995,"▁life":6996,"▁life.":6997,"▁Thur":6998,"▁很多人一开始为了梦想而忙,后来忙":6999,"▁很多时候,看的太透反而不快乐,倒不如的没心没":7000,"▁很多时候,为了求得真正的幸福,我们需要保持耐心。因为":7001,"活在当下,活得漂亮":7002,"▁每个人都注定要遇到":7003,"足够的优秀":7004,"中国的粉丝们,你们":7005,"自己的错误是勇敢":7006,"!虽然唱到":7007,",爱要":7008,",直至":7009,",祝你":7010,",好好把握,每一次的":7011,",虽然我们":7012,";在低谷":7013,";有的人你看了一眼,却":7014,"eah":7015,"http://t.cn/a":7016,"▁发表了博文":7017,"▁外国":7018,"▁打卡":7019,"▁enough":7020,"▁感情不需要":7021,"一事无":7022,"不属于你\r\n":7023,"世间最":7024,"也只不过是一":7025,"了就睡觉,醒来":7026,"你知道或不知道":7027,"做你认为对":7028,"做我想做。这是我的":7029,"做的,就是让自己":7030,"做决定。":7031,"偶尔要回头":7032,"别的来源获得":7033,"前世约了我":7034,"十二月\r\n":7035,"十天左右,":7036,"叫声老":7037,"后,你会发现你有两只":7038,"哪里又有什么":7039,"在路上":7040,"在最不经意的时候出现":7041,"地区,":7042,"学的词":7043,"并没有错的,":7044,"形容词":7045,"微风]关注\r\n":7046,"我希望找到这样":7047,"拔野鸡毛的人":7048,"昨日已":7049,"是过眼云":7050,"月10日":7051,"有一次,":7052,"正直人的":7053,"漫长的旅行":7054,"球迷,":7055,"的时就不要放弃":7056,"的方向。":7057,"相当于":7058,"般的爱情--":7059,"花朵,":7060,"试试看":7061,"这就是为什么":7062,"连续工作":7063,"我们很久":7064,"一个伟大的目标,并决心":7065,"的人。你要做的就是":7066,"▁我这一生":7067,"▁我一直在关注你,":7068,",你永远不知道":7069,"不是一个天生的":7070,"可以和生活讨价还价":7071,"era360":7072,",就一定要努力":7073,"▁有人说":7074,"▁不要因为结束而哭泣,":7075,"▁//@冷笑话精选:":7076,"▁当我们长大":7077,"微笑吧,为你的":7078,"▁world":7079,"只有一个人,让我觉得我":7080,"是我不想笑的时候":7081,"起来的最好":7082,"发生的几率":7083,"▁this?":7084,"▁perf":7085,"那个特别的人。你要做的就是":7086,"都有一个沉睡":7087,"好好享受;在低谷":7088,",才要去爱;不要等到":7089,"▁没有人可以和生活讨价还价":7090,"最美的年华里,":7091,"会发现你的周围都是影子":7092,",我就在这里;当你":7093,">>>(关注\r\n":7094,"一段时间要学会自己长大":7095,"不断地放下,然而":7096,",我也相信有":7097,"准备好了,下一刻":7098,"重新开始。\r\n":7099,"▁Nobody":7100,"▁不要只追求漂亮的外表":7101,"独立思考是":7102,"友情是影子,当灭了,你":7103,"▁生活的艺术在于,好好把握,每一次的":7104,"▁人生就像一杯,不会苦一辈子,但总会苦一子。\r\n":7105,"!生命就是":7106,"(the":7107,"(古希学家":7108,",另一只用助人":7109,",都要继续向前":7110,":He":7111,";即使自己很":7112,"@丽美儿":7113,"CLS63":7114,"Creese":7115,"Camera360":7116,"Joe":7117,"_Official":7118,"bama的":7119,"chool":7120,"l26WJN":7121,"ulation":7122,"“女”一":7123,"▁典型":7124,"▁够他":7125,"▁学个词":7126,"▁累了就睡觉,醒来":7127,"▁keep":7128,"▁心里的":7129,"▁世上只有一个人,让我觉得我":7130,"▁后悔过去,不如":7131,"▁孤单不是因为没有朋友":7132,"▁粉丝们!":7133,"▁伤痛使你更坚强,眼泪":7134,"▁查看原文\r\n":7135,"▁2012年5月31日":7136,"、音乐、":7137,"、团队合作":7138,"。朋友,是在最后":7139,"。抓住当下,让它成为":7140,"。不能接受那就改变,不能改变":7141,"《神洛克》第二":7142,"【果粉http://t.cn/z":7143,"【请翻译】":7144,"一朵花":7145,"一言):":7146,"上获取知识":7147,"不做的事,这就是责任;生命中":7148,"与别人的看法之间左右":7149,"也是一天":7150,"买到一切,但有钱了,":7151,"了进入你生活的":7152,"于未来的梦想":7153,"亚里士多德":7154,"从书本上获取知识":7155,"他在前世约了我":7156,"以智治国,":7157,"们心疼。":7158,"价一个人,因为你看到的,有":7159,"会遇见什么":7160,"伤悲,人":7161,"你听到的每件事":7162,"你被它打":7163,"你原来决心想达":7164,"你是谁,你拥有什么,而":7165,"做鬼脸":7166,"做了才知道。有些事,错了才知道。有些事,":7167,"做的事情就是相信自己,":7168,"分目录":7169,"到此结束":7170,"到让你们心疼。":7171,"到的人,都是相信你":7172,"力而为":7173,"力所能及":7174,"助己,另一只用助人":7175,"勇往直":7176,"去吧。这只是给更好的人":7177,"另一条路":7178,"只需一分钟":7179,"和率直":7180,"回给你一个新的“哈":7181,"在生命里":7182,"在情绪上计较":7183,"在做事上认真":7184,"外,还可以从许多":7185,"太思考未来,因它会":7186,"头笑着飞开了。\r\n":7187,"奥斯卡":7188,"奥丽·本\r\n":7189,"对某个人来说,你":7190,"将他带到你的":7191,"带给你恐惧;":7192,"当巨人醒来时,奇迹":7193,"很小,小到":7194,"很大,大到":7195,"得进来。\r\n":7196,"心灵通道":7197,"志愿者":7198,"我不在乎\r\n":7199,"我手所做的工":7200,"我,那只能说明,我活的":7201,"手,一只是用来":7202,"改正自己的错误是勇敢":7203,"救的浪漫":7204,"断地挑战,它总会":7205,"时不失勇气":7206,"是不够的,我们必须":7207,"是确定一个伟大的目标,并决心":7208,"是无可救的浪漫":7209,"最神奇":7210,"最应该做的事情就是相信自己,":7211,"有许多你想做却不能":7212,"有过的东西,那么你必须去做":7213,"有担当一点后,你会发现你有两只":7214,"李小龙\r\n":7215,"欢欣鼓舞":7216,"求职者":7217,"求在我最美的年华里,":7218,"沙热烈追求一草":7219,"流行风尚:":7220,"爱了以后,才要去爱;不要等到":7221,"甜的,心里面,却":7222,"用一切你知道或不知道":7223,"留足了进入你生活的":7224,"的能力\r\n":7225,"的城市不适合看星星,就":7226,"的去评价一个人,因为你看到的,有":7227,"的巨人,当巨人醒来时,奇迹":7228,"碎使你更明智":7229,"福第一电站":7230,"等被爱了以后,才要去爱;不要等到":7231,"能骗到的人,都是相信你":7232,"英赛特":7233,"让每个日子都变得":7234,"让不重要的人影响了自己":7235,"设身处":7236,"说,我不问,不代表":7237,"说三道四":7238,"象你的心不适合谈安定":7239,"败了,不断地挑战,它总会":7240,"过什么,无论你是否":7241,"追美剧轻学英语":7242,"都结束了,爱":7243,"钱无法买到一切,但有钱了,":7244,"门会让你的时记忆":7245,"问:“你":7246,"一个转身,就不知道":7247,"的人,就算是我不想笑的时候":7248,"的人有福了,因为他们必":7249,"▁我以为我":7250,"▁我就是我,爱我所爱,":7251,"▁我会坚强到让你们心疼。":7252,"生活,不是你的。\r\n":7253,"生活就会回给你一个新的“哈":7254,",不在于怎么":7255,",我只想告诉你,我":7256,"不是你本来想":7257,"不是数着日子":7258,"喜欢那些让我笑起来":7259,"知道自己想要什么":7260,"可以给你力量":7261,"可以飞起来,就是":7262,"▁你无法取悦每一个人,你":7263,"▁你永远不会明白,我那些":7264,"▁你每天都在做很多":7265,",就放弃你原来决心想达":7266,"永远都在追寻,而不知道":7267,"▁有爱的地方就有":7268,"▁有的人你看了一辈子,却了一辈子":7269,"。。......---更多精彩语录请关注[左抱抱]\r\n":7270,"成功,不要去":7271,"这个决定,这是你的代价":7272,",因为只有你放弃的那一刻,你才":7273,"▁在你想要放弃的那一刻,想想为什么当初坚持走到了这里。\r\n":7274,"▁在这世上珍贵的东西总是有,所以":7275,"▁不要等待完美时刻的到来":7276,"▁不要着,最好的总会":7277,"▁不要根你看到的去评价一个人,因为你看到的,有":7278,"▁不要知道得太多,会难过":7279,"不能应付我最差的一面,那么你也不值得拥有":7280,"爱情结束了,而是因为当一切":7281,"自己的,不要放弃。已经失去的,":7282,"▁access":7283,"▁//@THEdrive-th":7284,"▁//@的童话世界:":7285,"▁当有人离开你的生活":7286,"中国人民解放军":7287,"那些不愿与你手同行":7288,"的人,到哪都不太":7289,",而是没有人住在你心里":7290,"微笑活在当下,它会带来喜乐":7291,"选择去做让你觉得快乐的事情。\r\n":7292,"▁system":7293,"▁生活是一场漫长的旅行":7294,"看到什么样的世界":7295,"▁hurt":7296,"▁much":7297,"▁如果你放不下那个错的人":7298,"▁如果你在背后议论我,那只能说明,我活的":7299,"▁我们都有绝望的时候":7300,"一切会容易得多\r\n":7301,",它也会对你":7302,"那么短,什么让不重要的人影响了自己":7303,",要看他有谁":7304,"▁S-Model":7305,"▁人生也许就是不断地放下,然而":7306,"▁人生重要的事情是确定一个伟大的目标,并决心":7307,"▁当你再成熟有担当一点后,你会发现你有两只":7308,"▁@OMG美语":7309,"失败的恐惧\r\n":7310,"接受,改变,":7311,"▁feeling":7312,",不要想睡多久就睡多久":7313,"想做,会找到一个":7314,"等待老天将他带到你的":7315,"在乎人地点":7316,"时,随他们去吧。这只是给更好的人":7317,"得到的,更要珍惜。属于":7318,"忘了答应自己":7319,"▁Benjamin":7320,"阳光才照得进来。\r\n":7321,"▁有些事,我不说,我不问,不代表":7322,"。【口英语手机版】[心]":7323,",所以只要活着,就一定要努力":7324,"▁Aoki":7325,"▁爱情是,友情是影子,当灭了,你":7326,"让自己变得与别人":7327,"许多你不想做却不能不做的事,这就是责任;生命中":7328,"▁生命中有许多你不想做却不能不做的事,这就是责任;生命中":7329,"▁生命必须有,阳光才照得进来。\r\n":7330,"总会让步。如果有时候":7331,"▁大挑战,世界总会让步。如果有时候":7332,"的爱,她头笑着飞开了。\r\n":7333,"说“”,生活就会回给你一个新的“哈":7334,"仅仅在于你自己怎么看待":7335,"是一种用任何语言也无法":7336,"是一种遇见,不能等待":7337,",可我内心是无可救的浪漫":7338,"▁幸福不在于你是谁,你拥有什么,而":7339,"▁无论多么艰难,都要继续向前":7340,"▁无论过去发生过什么,无论你是否":7341,"明白,真爱总是值得等待":7342,"▁每个人心中都有一个沉睡":7343,"▁每个人都会累,没人能为你承担":7344,"看看,否则永远都在追寻,而不知道":7345,"解决很多问题,沉默":7346,"▁#每日一句\r\n":7347,"▁年后,让你觉得更失望":7348,"到来,也不会轻易到来,但它值得等待":7349,"智慧,能改正自己的错误是勇敢":7350,"成功的望必须超过":7351,",那么你永远也找不到那个对":7352,"▁一个自由的人除了从书本上获取知识":7353,"不好就出去走走":7354,"▁人们伤心,不是因为爱情结束了,而是因为当一切":7355,"美丽的忧伤的甜的,心里面,却":7356,"▁想你,是一种美丽的忧伤的甜的,心里面,却":7357,"▁若无其事,原来":7358,"▁学习昨天,活在今天,期待":7359,"angryeditor":7360,"Chrome":7361,"▁太耀眼的城市不适合看星星,就":7362,"寂寞了,才明白朋友的价值":7363,"考验。很多失败了":7364,"真正的幸福不会很快到来,也不会轻易到来,但它值得等待":7365,"使你更勇敢,心碎使你更明智":7366,"▁能发现自己的错误是智慧,能改正自己的错误是勇敢":7367,"▁只是感觉有点受伤,没":7368,"令人痛心的是,我都没能":7369,"明显要比你精彩许多":7370,"可能是他们想让你看到的\r\n":7371,"▁如果你想拥有你从未有过的东西,那么你必须去做":7372,"之前,唯一需要做的,就是让自己":7373,"IanSomerhalder_Official":7374,"ONDJ1":7375,"▁...[原微博":7376,"▁曾经拥有的,不要忘记。不能得到的,更要珍惜。属于":7377,"勇于对过去说“”,生活就会回给你一个新的“哈":7378,"▁当你在自己的感觉与别人的看法之间左右":7379,"▁很多时候,看的太透反而不快乐,倒不如的没心没。\r\n":7380,"▁很多时候,为了求得真正的幸福,我们需要保持耐心。因为真正的幸福不会很快到来,也不会轻易到来,但它值得等待":7381,"▁每个人都注定要遇到那个特别的人。你要做的就是":7382,";有的人你看了一眼,却念":7383,"做我想做。这是我的生活,不是你的。\r\n":7384,"偶尔要回头看看,否则永远都在追寻,而不知道":7385,"别的来源获得知识":7386,"哪里又有什么可惜":7387,"并没有错的,错的只是":7388,"我希望找到这样一个人,即使":7389,"是过眼云;":7390,"▁我一直在关注你,用一切你知道或不知道":7391,"▁不要因为结束而哭泣,微笑吧,为你的":7392,"好好享受;在低谷时不失勇气":7393,"▁没有人可以和生活讨价还价,所以只要活着,就一定要努力":7394,"会发现你的周围都是影子。朋友,是在最后":7395,"准备好了,下一刻都是":7396,"▁生活的艺术在于,好好把握,每一次的放手与坚持":7397,"“女”一词":7398,"▁学个词第":7399,"▁累了就睡觉,醒来就":7400,"▁世上只有一个人,让我觉得我可以飞起来,就是":7401,"▁后悔过去,不如奋斗将来":7402,"▁孤单不是因为没有朋友,而是没有人住在你心里":7403,"▁伤痛使你更坚强,眼泪使你更勇敢,心碎使你更明智":7404,"。抓住当下,让它成为完美时刻":7405,"。不能接受那就改变,不能改变,那就":7406,"【果粉http://t.cn/zl26WJN":7407,"他在前世约了我:":7408,"以智治国,国之":7409,"你听到的每件事,不要":7410,"你被它打败了,不断地挑战,它总会":7411,"做了才知道。有些事,错了才知道。有些事,长大了才知道":7412,"外,还可以从许多别的来源获得知识":7413,"太思考未来,因它会带给你恐惧;":7414,"心灵通道【果粉http://t.cn/zl26WJN":7415,"手,一只是用来助己,另一只用助人":7416,"有许多你想做却不能做的事,这就是":7417,"沙热烈追求一草的爱,她头笑着飞开了。\r\n":7418,"留足了进入你生活的空间":7419,"的巨人,当巨人醒来时,奇迹就会发生":7420,"等被爱了以后,才要去爱;不要等到寂寞了,才明白朋友的价值":7421,"让每个日子都变得有意义":7422,"象你的心不适合谈安定。\r\n":7423,"钱无法买到一切,但有钱了,一切会容易得多\r\n":7424,"的人,就算是我不想笑的时候。\r\n":7425,"▁我就是我,爱我所爱,做我想做。这是我的生活,不是你的。\r\n":7426,"喜欢那些让我笑起来的人,就算是我不想笑的时候。\r\n":7427,"▁你无法取悦每一个人,你最应该做的事情就是相信自己,":7428,"▁你永远不会明白,我那些假装的无所谓":7429,",就放弃你原来决心想达到的":7430,"▁有的人你看了一辈子,却了一辈子;有的人你看了一眼,却念":7431,"这个决定,这是你的代价\r\n":7432,"▁在这世上珍贵的东西总是有,所以这世上只有":7433,"▁不要等待完美时刻的到来。抓住当下,让它成为完美时刻":7434,"▁不要着,最好的总会在最不经意的时候出现":7435,"▁不要根你看到的去评价一个人,因为你看到的,有可能是他们想让你看到的\r\n":7436,"不能应付我最差的一面,那么你也不值得拥有我最好的一面":7437,"自己的,不要放弃。已经失去的,留作回忆":7438,"▁//@THEdrive-thru:":7439,"▁当有人离开你的生活时,随他们去吧。这只是给更好的人":7440,"那些不愿与你手同行的人\r\n":7441,"▁生活是一场漫长的旅行,不要浪费时间":7442,"▁如果你放不下那个错的人,那么你永远也找不到那个对":7443,"▁如果你在背后议论我,那只能说明,我活的明显要比你精彩许多":7444,"那么短,什么让不重要的人影响了自己重要的心情":7445,"▁人生也许就是不断地放下,然而令人痛心的是,我都没能":7446,"▁人生重要的事情是确定一个伟大的目标,并决心实现":7447,"▁当你再成熟有担当一点后,你会发现你有两只手,一只是用来助己,另一只用助人":7448,"▁有些事,我不说,我不问,不代表我不在乎\r\n":7449,"。【口英语手机版】[心]心灵通道【果粉http://t.cn/zl26WJN":7450,"▁爱情是,友情是影子,当灭了,你会发现你的周围都是影子。朋友,是在最后":7451,"▁生命中有许多你不想做却不能不做的事,这就是责任;生命中有许多你想做却不能做的事,这就是":7452,"▁大挑战,世界总会让步。如果有时候你被它打败了,不断地挑战,它总会":7453,"是一种用任何语言也无法表达的温":7454,"▁幸福不在于你是谁,你拥有什么,而仅仅在于你自己怎么看待":7455,"▁无论多么艰难,都要继续向前,因为只有你放弃的那一刻,你才":7456,"▁无论过去发生过什么,无论你是否准备好了,下一刻都是":7457,"▁每个人心中都有一个沉睡的巨人,当巨人醒来时,奇迹就会发生":7458,"▁年后,让你觉得更失望的不是你":7459,"▁一个自由的人除了从书本上获取知识外,还可以从许多别的来源获得知识":7460,"▁人们伤心,不是因为爱情结束了,而是因为当一切都结束了,爱":7461,"▁想你,是一种美丽的忧伤的甜的,心里面,却是一种用任何语言也无法表达的温":7462,"▁太耀眼的城市不适合看星星,就象你的心不适合谈安定。\r\n":7463,"▁如果你想拥有你从未有过的东西,那么你必须去做你从未":7464,"▁曾经拥有的,不要忘记。不能得到的,更要珍惜。属于自己的,不要放弃。已经失去的,留作回忆":7465,"勇于对过去说“”,生活就会回给你一个新的“哈\r\n":7466,"▁当你在自己的感觉与别人的看法之间左右为难":7467,"▁每个人都注定要遇到那个特别的人。你要做的就是等待老天将他带到你的":7468,"偶尔要回头看看,否则永远都在追寻,而不知道自己失去了":7469,"▁不要因为结束而哭泣,微笑吧,为你的曾经拥有":7470,"▁当有人离开你的生活时,随他们去吧。这只是给更好的人留足了进入你生活的空间":7471,"▁爱情是,友情是影子,当灭了,你会发现你的周围都是影子。朋友,是在最后可以给你力量":7472,"▁大挑战,世界总会让步。如果有时候你被它打败了,不断地挑战,它总会服的。":7473}