{"<s>":0,"<pad>":1,"</s>":2,"<unk>":3,"<mask>":4,"\n":5,"\r":6,"!":7,"\"":8,"#":9,"%":10,"'":11,"(":12,")":13,"+":14,",":15,"-":16,".":17,"/":18,"0":19,"1":20,"2":21,"3":22,"4":23,"5":24,"6":25,"7":26,"8":27,"9":28,":":29,";":30,"=":31,">":32,"?":33,"@":34,"A":35,"B":36,"C":37,"D":38,"E":39,"F":40,"G":41,"H":42,"I":43,"J":44,"K":45,"L":46,"M":47,"N":48,"O":49,"P":50,"R":51,"S":52,"T":53,"U":54,"V":55,"W":56,"Y":57,"[":58,"]":59,"_":60,"a":61,"b":62,"c":63,"d":64,"e":65,"f":66,"g":67,"h":68,"i":69,"j":70,"k":71,"l":72,"m":73,"n":74,"o":75,"p":76,"r":77,"s":78,"t":79,"u":80,"v":81,"w":82,"x":83,"y":84,"z":85,"~":86,"·":87,"—":88,"“":89,"”":90,"▁":91,"❤":92,"、":93,"。":94,"《":95,"》":96,"【":97,"】":98,"一":99,"万":100,"三":101,"上":102,"下":103,"不":104,"与":105,"专":106,"且":107,"世":108,"业":109,"东":110,"丝":111,"两":112,"丧":113,"个":114,"中":115,"临":116,"为":117,"主":118,"丽":119,"举":120,"久":121,"么":122,"义":123,"之":124,"乎":125,"乐":126,"也":127,"习":128,"书":129,"买":130,"乱":131,"了":132,"予":133,"争":134,"事":135,"二":136,"于":137,"云":138,"互":139,"五":140,"亚":141,"些":142,"交":143,"享":144,"京":145,"亮":146,"亲":147,"人":148,"什":149,"仅":150,"今":151,"仍":152,"从":153,"他":154,"付":155,"代":156,"令":157,"以":158,"们":159,"件":160,"价":161,"任":162,"份":163,"众":164,"优":165,"会":166,"伟":167,"传":168,"伤":169,"伦":170,"伴":171,"但":172,"位":173,"低":174,"住":175,"体":176,"何":177,"余":178,"作":179,"你":180,"使":181,"依":182,"便":183,"保":184,"信":185,"個":186,"倒":187,"候":188,"值":189,"倾":190,"假":191,"做":192,"停":193,"健":194,"偶":195,"偷":196,"像":197,"儿":198,"元":199,"充":200,"先":201,"光":202,"克":203,"免":204,"入":205,"全":206,"八":207,"公":208,"六":209,"共":210,"关":211,"兴":212,"其":213,"具":214,"典":215,"内":216,"再":217,"写":218,"军":219,"决":220,"冷":221,"准":222,"几":223,"凡":224,"出":225,"击":226,"分":227,"切":228,"划":229,"则":230,"刚":231,"创":232,"初":233,"利":234,"别":235,"到":236,"制":237,"刻":238,"前":239,"剧":240,"力":241,"办":242,"功":243,"加":244,"务":245,"动":246,"助":247,"努":248,"励":249,"勇":250,"包":251,"化":252,"北":253,"区":254,"医":255,"十":256,"千":257,"午":258,"半":259,"华":260,"单":261,"卖":262,"博":263,"卡":264,"即":265,"却":266,"历":267,"原":268,"去":269,"参":270,"又":271,"及":272,"友":273,"双":274,"反":275,"发":276,"取":277,"受":278,"变":279,"口":280,"古":281,"句":282,"另":283,"只":284,"叫":285,"可":286,"台":287,"右":288,"号":289,"司":290,"吃":291,"各":292,"合":293,"同":294,"名":295,"后":296,"向":297,"吗":298,"否":299,"吧":300,"听":301,"吸":302,"呆":303,"告":304,"员":305,"呢":306,"周":307,"味":308,"命":309,"和":310,"品":311,"哈":312,"响":313,"哥":314,"哦":315,"哪":316,"哭":317,"唯":318,"唱":319,"商":320,"啊":321,"啦":322,"善":323,"喜":324,"嘴":325,"嘻":326,"器":327,"四":328,"回":329,"因":330,"困":331,"围":332,"国":333,"图":334,"在":335,"地":336,"场":337,"址":338,"坏":339,"坚":340,"型":341,"城":342,"基":343,"堂":344,"境":345,"增":346,"士":347,"声":348,"处":349,"备":350,"复":351,"外":352,"多":353,"夜":354,"够":355,"大":356,"天":357,"太":358,"夫":359,"失":360,"头":361,"奇":362,"奋":363,"奥":364,"女":365,"她":366,"好":367,"如":368,"妈":369,"妙":370,"始":371,"威":372,"娜":373,"婚":374,"子":375,"字":376,"存":377,"孤":378,"学":379,"孩":380,"宁":381,"它":382,"安":383,"完":384,"官":385,"定":386,"宝":387,"实":388,"客":389,"害":390,"家":391,"容":392,"富":393,"对":394,"寻":395,"射":396,"将":397,"尊":398,"小":399,"少":400,"尔":401,"尚":402,"尝":403,"就":404,"尽":405,"局":406,"展":407,"属":408,"山":409,"岁":410,"工":411,"左":412,"巨":413,"差":414,"己":415,"已":416,"巴":417,"市":418,"布":419,"师":420,"希":421,"帝":422,"带":423,"帮":424,"常":425,"干":426,"平":427,"年":428,"并":429,"幸":430,"幻":431,"广":432,"庆":433,"应":434,"底":435,"府":436,"度":437,"座":438,"康":439,"建":440,"开":441,"弃":442,"式":443,"引":444,"张":445,"强":446,"当":447,"录":448,"形":449,"彩":450,"影":451,"彼":452,"往":453,"待":454,"很":455,"得":456,"微":457,"德":458,"心":459,"必":460,"忆":461,"忍":462,"志":463,"忘":464,"忙":465,"忧":466,"快":467,"念":468,"怀":469,"怎":470,"怕":471,"思":472,"性":473,"怨":474,"怪":475,"总":476,"恋":477,"恐":478,"恨":479,"恶":480,"恼":481,"悔":482,"悲":483,"情":484,"惜":485,"惧":486,"想":487,"意":488,"感":489,"愿":490,"慧":491,"懂":492,"成":493,"我":494,"或":495,"战":496,"房":497,"所":498,"手":499,"才":500,"打":501,"找":502,"承":503,"把":504,"抓":505,"投":506,"折":507,"报":508,"抱":509,"担":510,"拉":511,"拍":512,"拔":513,"拥":514,"择":515,"拿":516,"持":517,"指":518,"挑":519,"据":520,"掉":521,"掌":522,"排":523,"接":524,"控":525,"推":526,"提":527,"握":528,"摄":529,"支":530,"收":531,"改":532,"放":533,"政":534,"故":535,"效":536,"救":537,"教":538,"敢":539,"数":540,"整":541,"文":542,"斗":543,"断":544,"斯":545,"新":546,"方":547,"旅":548,"无":549,"日":550,"旦":551,"早":552,"时":553,"明":554,"易":555,"星":556,"春":557,"昨":558,"是":559,"显":560,"晚":561,"景":562,"智":563,"暖":564,"暗":565,"曲":566,"更":567,"曾":568,"替":569,"最":570,"會":571,"月":572,"有":573,"朋":574,"服":575,"朗":576,"望":577,"朝":578,"期":579,"未":580,"末":581,"本":582,"术":583,"朵":584,"机":585,"权":586,"李":587,"束":588,"条":589,"来":590,"杯":591,"杰":592,"极":593,"林":594,"果":595,"枪":596,"某":597,"查":598,"标":599,"树":600,"样":601,"根":602,"格":603,"梦":604,"棒":605,"楚":606,"樂":607,"模":608,"次":609,"欢":610,"欣":611,"欺":612,"歌":613,"止":614,"正":615,"此":616,"步":617,"死":618,"段":619,"毁":620,"母":621,"每":622,"比":623,"毕":624,"毛":625,"民":626,"气":627,"水":628,"永":629,"求":630,"沉":631,"沙":632,"没":633,"油":634,"治":635,"法":636,"波":637,"泣":638,"注":639,"泪":640,"泰":641,"洛":642,"活":643,"派":644,"流":645,"济":646,"浪":647,"海":648,"消":649,"深":650,"清":651,"温":652,"游":653,"源":654,"满":655,"漂":656,"演":657,"漫":658,"潮":659,"激":660,"火":661,"灵":662,"点":663,"為":664,"烂":665,"烈":666,"烦":667,"热":668,"然":669,"照":670,"熟":671,"爱":672,"父":673,"爸":674,"片":675,"版":676,"物":677,"特":678,"犯":679,"狂":680,"独":681,"猜":682,"率":683,"环":684,"现":685,"珍":686,"班":687,"球":688,"理":689,"甚":690,"甜":691,"生":692,"用":693,"由":694,"电":695,"男":696,"界":697,"留":698,"疑":699,"疯":700,"疼":701,"病":702,"痛":703,"白":704,"百":705,"的":706,"目":707,"直":708,"相":709,"看":710,"真":711,"眼":712,"着":713,"睛":714,"睡":715,"知":716,"短":717,"石":718,"研":719,"破":720,"确":721,"碎":722,"示":723,"礼":724,"社":725,"祝":726,"神":727,"禁":728,"福":729,"离":730,"秀":731,"私":732,"种":733,"秘":734,"积":735,"称":736,"程":737,"究":738,"空":739,"穿":740,"突":741,"立":742,"站":743,"竟":744,"章":745,"童":746,"笑":747,"第":748,"等":749,"答":750,"简":751,"算":752,"管":753,"篇":754,"米":755,"粉":756,"精":757,"系":758,"紧":759,"累":760,"繁":761,"红":762,"约":763,"级":764,"纳":765,"线":766,"练":767,"组":768,"终":769,"经":770,"结":771,"给":772,"绝":773,"统":774,"继":775,"绪":776,"续":777,"维":778,"缘":779,"缺":780,"网":781,"罗":782,"罪":783,"美":784,"翻":785,"耀":786,"老":787,"考":788,"者":789,"而":790,"耐":791,"耶":792,"职":793,"联":794,"肉":795,"肯":796,"育":797,"背":798,"胜":799,"能":800,"脑":801,"脚":802,"脱":803,"脸":804,"自":805,"至":806,"致":807,"舍":808,"舞":809,"般":810,"艰":811,"色":812,"艺":813,"节":814,"花":815,"若":816,"苦":817,"英":818,"草":819,"荐":820,"荣":821,"莫":822,"获":823,"菜":824,"落":825,"虽":826,"蛋":827,"血":828,"行":829,"街":830,"表":831,"被":832,"装":833,"西":834,"要":835,"见":836,"观":837,"视":838,"觉":839,"角":840,"解":841,"言":842,"說":843,"警":844,"计":845,"认":846,"讨":847,"让":848,"议":849,"记":850,"讲":851,"许":852,"论":853,"设":854,"诀":855,"证":856,"评":857,"识":858,"诉":859,"词":860,"译":861,"试":862,"诗":863,"诚":864,"话":865,"该":866,"语":867,"误":868,"说":869,"请":870,"诺":871,"读":872,"课":873,"谁":874,"调":875,"谅":876,"谈":877,"谓":878,"谢":879,"象":880,"负":881,"责":882,"败":883,"质":884,"购":885,"贵":886,"费":887,"资":888,"赛":889,"赢":890,"走":891,"赶":892,"起":893,"超":894,"越":895,"趣":896,"足":897,"距":898,"跟":899,"路":900,"跳":901,"身":902,"车":903,"转":904,"轻":905,"较":906,"辈":907,"边":908,"达":909,"过":910,"迎":911,"运":912,"近":913,"还":914,"这":915,"进":916,"远":917,"连":918,"迷":919,"迹":920,"追":921,"退":922,"送":923,"适":924,"选":925,"透":926,"這":927,"通":928,"速":929,"造":930,"遇":931,"遍":932,"道":933,"遗":934,"那":935,"部":936,"都":937,"配":938,"酒":939,"酸":940,"醒":941,"释":942,"里":943,"重":944,"野":945,"量":946,"金":947,"钟":948,"钱":949,"错":950,"键":951,"长":952,"门":953,"问":954,"间":955,"队":956,"阳":957,"阻":958,"阿":959,"际":960,"降":961,"限":962,"院":963,"除":964,"险":965,"随":966,"难":967,"集":968,"雨":969,"需":970,"青":971,"静":972,"非":973,"靠":974,"面":975,"鞋":976,"音":977,"顶":978,"项":979,"顺":980,"须":981,"顾":982,"预":983,"领":984,"频":985,"颗":986,"题":987,"风":988,"飞":989,"食":990,"餐":991,"首":992,"香":993,"马":994,"验":995,"骗":996,"高":997,"鬼":998,"魂":999,"鸡":1000,"黑":1001,"默":1002,"鼓":1003,"龙":1004,"\r\n":1005,"。\r\n":1006,"..":1007,"我们":1008,"自己":1009,"一个":1010,"的人":1011,"▁我":1012,",你":1013,"你的":1014,"生活":1015,",不":1016,"就是":1017,"因为":1018,",我":1019,"没有":1020,"什么":1021,"时候":1022,"不要":1023,"如果":1024,",但":1025,",而":1026,"不是":1027,"喜欢":1028,"知道":1029,"//":1030,"的事":1031,"世界":1032,"可以":1033,"▁t":1034,"关注":1035,"一个人":1036,"in":1037,"▁你":1038,"er":1039,"别人":1040,"的,":1041,",就":1042,".\r\n":1043,"//@":1044,"--":1045,"不会":1046,"an":1047,"on":1048,"——":1049,"他们":1050,"永远":1051,"的一":1052,"ou":1053,"微博":1054,"快乐":1055,",那":1056,"的\r\n":1057,"需要":1058,"▁有":1059,"了,":1060,"我的":1061,"关注\r\n":1062,"....":1063,"▁如果":1064,"个人":1065,"是一":1066,"的时候":1067,"he":1068,"拥有":1069,"只是":1070,"幸福":1071,"朋友":1072,"英语":1073,"转发":1074,"▁人":1075,"无法":1076,",也":1077,"重要":1078,"今天":1079,"好的":1080,"改变":1081,"成为":1082,"生命":1083,"。。":1084,"成功":1085,"这个":1086,"开始":1087,",因为":1088,"re":1089,"▁在":1090,"▁不要":1091,"不能":1092,"安\r\n":1093,"爱你":1094,"爱情":1095,"时间":1096,"梦想":1097,"都是":1098,"自己的":1099,"▁a":1100,"▁//@":1101,",有":1102,"▁当":1103,"中国":1104,"努力":1105,"▁转发":1106,"一天":1107,"觉得":1108,"还是":1109,"过去":1110,"那些":1111,"的人,":1112,",而是":1113,"▁转发微博":1114,",我们":1115,"it":1116,"东西":1117,"失去":1118,"希望":1119,"微笑":1120,"的事情":1121,"现在":1122,"相信":1123,"任何":1124,"放弃":1125,"真的":1126,"选择":1127,"at":1128,"美国":1129,",这":1130,"es":1131,"ll":1132,"▁s":1133,"一起":1134,"了。":1135,",是":1136,"▁w":1137,"一次":1138,"了\r\n":1139,"可能":1140,"的是":1141,"真正":1142,"ar":1143,"or":1144,"you":1145,"▁生活":1146,"。(":1147,"所以":1148,",一":1149,"▁不":1150,"只有":1151,"大家":1152,"很多":1153,"心]":1154,"怎么":1155,"所有":1156,"是我":1157,"看到":1158,",却":1159,"en":1160,"is":1161,"▁h":1162,"▁m":1163,"▁you":1164,"总是":1165,"想要":1166,"找到":1167,"起来":1168,"这样":1169,"▁如果你":1170,"ve":1171,"▁每":1172,"只要":1173,"的。":1174,"▁我们":1175,"事情":1176,"你,":1177,"大的":1178,"早安\r\n":1179,"[心]":1180,"一切":1181,"发生":1182,"在于":1183,"工作":1184,"感觉":1185,"...":1186,"ing":1187,",它":1188,"t.":1189,"tt":1190,"▁(":1191,"已经":1192,"必须":1193,"来自":1194,"▁这":1195,"一点":1196,"为了":1197,"让你":1198,"那么":1199,"▁the":1200,"一直":1201,"人,":1202,"人的":1203,"坚强":1204,"应该":1205,"明天":1206,"请关注\r\n":1207,",要":1208,"▁S":1209,"。——":1210,"一样":1211,"决定":1212,"出来":1213,"发现":1214,"忘记":1215,"更多":1216,",不是":1217,",但是":1218,"▁人生":1219,"▁当你":1220,"20":1221,"://":1222,"p://":1223,"▁@":1224,"▁c":1225,"失败":1226,"学习":1227,"孩子":1228,"接受":1229,"未来":1230,"爱的":1231,"▁to":1232,"ttp://":1233,"10":1234,"cn":1235,"ed":1236,"th":1237,"▁d":1238,"▁f":1239,"其实":1240,"哈哈":1241,"在\r\n":1242,"无论":1243,"有多":1244,"精彩":1245,"翻译":1246,"都会":1247,",不要":1248,"t.cn":1249,"ttp://t.cn":1250,"ttp://t.cn/":1251,"om":1252,"▁b":1253,"▁o":1254,"。我":1255,"不到":1256,"值得":1257,"在一起":1258,"坚持":1259,"想做":1260,"的东西":1261,"等待":1262,"简单":1263,"英文":1264,"认为":1265,"▁有时候":1266,"......":1267,",让":1268,"le":1269,"▁一":1270,"不知道":1271,"了。\r\n":1272,"日子":1273,"机会":1274,"问题":1275,"▁th":1276,"真正的":1277,"ay":1278,"ke":1279,"▁n":1280,"▁p":1281,"一些":1282,"中的":1283,"你们":1284,"并不":1285,"的那":1286,"美丽":1287,"的人\r\n":1288,"世界上":1289,"as":1290,"▁\"":1291,"。你":1292,"了一":1293,"享受":1294,"你\r\n":1295,"在乎":1296,"完美":1297,"尝试":1298,"开心":1299,"时,":1300,"是否":1301,"最后":1302,"给你":1303,"美好":1304,"醒来":1305,"来自\r\n":1306,"12":1307,"el":1308,"ow":1309,"▁喜欢":1310,"为什么":1311,"也许":1312,"其他":1313,"勇气":1314,"即使":1315,"原文":1316,"学会":1317,"得到":1318,"忘了":1319,"意味":1320,"新的":1321,"最好的":1322,"这是":1323,"这里":1324,"那个":1325,"...\r\n":1326,"自己,":1327,"ttp://t.cn/z":1328,",在":1329,"al":1330,"ic":1331,"▁-":1332,"▁B":1333,"▁C":1334,"▁[":1335,"。[":1336,"。但":1337,"一下":1338,"一句":1339,"伤心":1340,"你。\r\n":1341,"吧,":1342,"在你":1343,"地方":1344,"就会":1345,"就像":1346,"痛苦":1347,"离开":1348,"辈子":1349,"这么":1350,"阳光":1351,",那么":1352,"▁有些":1353,"▁of":1354,"意味着":1355,"!!":1356,")\r\n":1357,",并":1358,",每":1359,"]\r\n":1360,"am":1361,"od":1362,"▁,":1363,"▁l":1364,"▁对":1365,"不想":1366,"你。":1367,"分享":1368,"勇敢":1369,"吧\r\n":1370,"地址":1371,"太多":1372,"心里":1373,"昨天":1374,"曾经":1375,"理由":1376,"电影":1377,"遇见":1378,"错误":1379,"我们的":1380,"如果你":1381,"所有的":1382,",当":1383,",然":1384,"st":1385,"ver":1386,"▁G":1387,"▁I":1388,"▁今天":1389,"。【":1390,"一刻":1391,"一定":1392,"不了":1393,"世上":1394,"准备":1395,"容易":1396,"怎样":1397,"方式":1398,"早安":1399,"的心":1400,"自由":1401,"追求":1402,"都不":1403,"都有":1404,"and":1405,",只是":1406,",所以":1407,"ac":1408,"ec":1409,"gh":1410,"▁A":1411,"▁g":1412,"▁爱":1413,"▁in":1414,"▁爱情":1415,"▁it":1416,"。早安\r\n":1417,"上的":1418,"他的":1419,"你不":1420,"保持":1421,"吗?":1422,"呢\r\n":1423,"啊\r\n":1424,"回复":1425,"在我":1426,"女孩":1427,"好好":1428,"如何":1429,"意义":1430,"时刻":1431,"是你":1432,"最大的":1433,"期待":1434,"的生活":1435,"知识":1436,"让自己":1437,"许多":1438,"语录":1439,"▁我在\r\n":1440,"别人的":1441,"!\r\n":1442,",只":1443,",才":1444,"~~":1445,"▁e":1446,"▁生命":1447,"。--":1448,"为你":1449,"也会":1450,"代表":1451,"你自己":1452,"信任":1453,"内心":1454,"到了":1455,"原来":1456,"回忆":1457,"好,":1458,"实现":1459,"总会":1460,"感谢":1461,"愿意":1462,"挑战":1463,"是谁":1464,"有一天":1465,"特别":1466,"结束":1467,"让我":1468,"让我们":1469,"长大":1470,"永远不会":1471,"的一切":1472,"回复@":1473,",以":1474,",还":1475,",就是":1476,"00":1477,"19":1478,"ho":1479,"ld":1480,"ra":1481,"▁T":1482,"▁新":1483,"▁没有":1484,"▁这个":1485,"▁原文":1486,"不过":1487,"也不":1488,"了!":1489,"使你":1490,"充满":1491,"变得":1492,"告诉":1493,"唯一":1494,"好\r\n":1495,"害怕":1496,"属于":1497,"意思":1498,"成长":1499,"把你":1500,"担心":1501,"控制":1502,"收听":1503,"时光":1504,"晚安":1505,"来说":1506,"爱上":1507,"珍惜":1508,"的爱":1509,"的话":1510,"第一":1511,"第一次":1512,"继续":1513,"记得":1514,"说“":1515,"身边":1516,"部分":1517,"时候,":1518,"的一天":1519,"'t":1520,",他":1521,",没有":1522,"ri":1523,"▁做":1524,"▁别":1525,"▁大":1526,"▁——":1527,"▁is":1528,"▁回复@":1529,"不同":1530,"之前":1531,"之间":1532,"事,":1533,"亲爱的":1534,"人们":1535,"人生":1536,"仅仅":1537,"从未":1538,"优秀":1539,"做的":1540,"到的":1541,"北京":1542,"句话":1543,"命运":1544,"多少":1545,"并不是":1546,"影响":1547,"想念":1548,"或者":1549,"文章":1550,"晚安\r\n":1551,"最美":1552,"有些":1553,"有人":1554,"理解":1555,"的路":1556,"粉丝":1557,"经典":1558,"遇到":1559,"非常":1560,"是一种":1561,"重要的是":1562,"▁每天":1563,"地址\r\n":1564,",会":1565,",别":1566,",可":1567,",想":1568,"__":1569,"ake":1570,"http://t.cn/z":1571,"uc":1572,"▁H":1573,"▁M":1574,"▁好":1575,"▁要":1576,"▁on":1577,"▁幸福":1578,"▁成功":1579,"▁很多":1580,"▁无论":1581,"。[心]":1582,"不得":1583,"你是":1584,"你有":1585,"你爱":1586,"出了":1587,"分钟":1588,"创造":1589,"力量":1590,"发展":1591,"变成":1592,"呢?":1593,"如此":1594,"对方":1595,"将会":1596,"我,":1597,"所谓":1598,"才是":1599,"抱抱":1600,"故事":1601,"方法":1602,"早上":1603,"明白":1604,"星星":1605,"是在":1606,"是我的":1607,"更加":1608,"最好":1609,"正在":1610,"每个人":1611,"活在":1612,"的小":1613,"的。\r\n":1614,"的时间":1615,"的感觉":1616,"看起来":1617,"眼泪":1618,"眼睛":1619,"经历":1620,"能力":1621,"虽然":1622,"距离":1623,"音乐":1624,"你的生活":1625,"的时候,":1626,"▁每个人":1627,"收听\r\n":1628,"![":1629,"'s":1630,"(关注\r\n":1631,",\r\n":1632,"if":1633,"im":1634,"ion":1635,"ly":1636,"se":1637,"un":1638,"ur":1639,"▁/":1640,"▁2":1641,"▁年":1642,"▁是":1643,"▁的":1644,"▁那":1645,"▁世界上":1646,"▁and":1647,"。因为":1648,"一件":1649,"一种":1650,"不再":1651,"不如":1652,"了解":1653,"价值":1654,"你在":1655,"你所":1656,"做过":1657,"再也":1658,"出去":1659,"受伤":1660,"后悔":1661,"和你":1662,"回来":1663,"多么":1664,"太阳":1665,"奇迹":1666,"孤独":1667,"对你":1668,"对我":1669,"带来":1670,"强大":1671,"当下":1672,"恐惧":1673,"才能":1674,"才知道":1675,"推荐":1676,"方向":1677,"有时":1678,"某人":1679,"温暖":1680,"点\r\n":1681,"烦恼":1682,"疯狂":1683,"直到":1684,"看看":1685,"真爱":1686,"终于":1687,"表示":1688,"表达":1689,"解决":1690,"足够":1691,"都要":1692,"错过":1693,"面对":1694,"风景":1695,"的人。\r\n":1696,"▁我想":1697,"什么样":1698,",但我":1699,"---":1700,"拥有的":1701,"任何人":1702,"ent":1703,",要么":1704,"更多精彩":1705,"▁ne":1706,"▁原文地址\r\n":1707,",他们":1708,",只要":1709,"11":1710,"13":1711,":“":1712,":你":1713,":我":1714,";不要":1715,"et":1716,"id":1717,"ive":1718,"ol":1719,"ore":1720,"”,":1721,"▁#":1722,"▁F":1723,"▁J":1724,"▁k":1725,"▁。":1726,"▁现在":1727,"。如果":1728,"。所以":1729,"。来自\r\n":1730,"一位":1731,"一步":1732,"一生":1733,"一辈子":1734,"上帝":1735,"上海":1736,"也是":1737,"仍然":1738,"以为":1739,"会有":1740,"会发现":1741,"做自己":1742,"停止":1743,"儿子":1744,"全世界":1745,"关系":1746,"到来":1747,"原谅":1748,"只能":1749,"后,":1750,"吸血":1751,"国家":1752,"在这里":1753,"声音":1754,"女人":1755,"孤单":1756,"对不":1757,"当你":1758,"心情":1759,"忘掉":1760,"悲伤":1761,"情绪":1762,"感情":1763,"放手":1764,"智慧":1765,"更好":1766,"最不":1767,"来越":1768,"每天":1769,"每日":1770,"沉默":1771,"灵魂":1772,"照片":1773,"爱,":1774,"爱我":1775,"生气":1776,"电话":1777,"的世界":1778,"秘诀":1779,"能够":1780,"英国":1781,"请关注":1782,"谢谢":1783,"越来越":1784,"轻易":1785,"还有":1786,"黑暗":1787,"的人生":1788,"▁我要":1789,",你就":1790,"生活的":1791,"因为我":1792,",我就":1793,"什么,":1794,"一个人,":1795,"——《":1796,",也不":1797,",也许":1798,"生命中":1799,"成功的":1800,",因为你":1801,"中国的":1802,"▁转发微博。":1803,"ith":1804,"ess":1805,"▁with":1806,"。——《":1807,",但是我们":1808,"▁that":1809,",那么你":1810,"▁有些人":1811,"粉丝们":1812,"吸血鬼":1813,",最":1814,",请":1815,",如果":1816,"3.":1817,">>":1818,"all":1819,"ill":1820,"igh":1821,"up":1822,"ut":1823,"▁.":1824,"▁天":1825,"▁一个":1826,"▁一个人":1827,"▁只有":1828,"▁只要":1829,"▁真正的":1830,"▁亲爱的":1831,"。”":1832,"。不":1833,"一只":1834,"一段":1835,"一颗":1836,"下来":1837,"不可":1838,"不好":1839,"不断":1840,"不知":1841,"中文":1842,"主义":1843,"之中":1844,"人\r\n":1845,"付出":1846,"件事":1847,"你会":1848,"你看":1849,"做的事":1850,"全球":1851,"关于":1852,"关心":1853,"出现":1854,"千万":1855,"去做":1856,"句子":1857,"只不过":1858,"号\r\n":1859,"各位":1860,"同学":1861,"哭泣":1862,"唯美":1863,"困难":1864,"在那":1865,"奋斗":1866,"存在":1867,"尽管":1868,"往往":1869,"很难":1870,"微信":1871,"心中":1872,"思考":1873,"想法":1874,"想起":1875,"感受":1876,"成熟":1877,"手机":1878,"把它":1879,"抓住":1880,"是什么":1881,"更好的":1882,"比如":1883,"浪漫":1884,"浪费":1885,"漂亮":1886,"演讲":1887,"生日":1888,"生的":1889,"男人":1890,"的太":1891,"的不是":1892,"的地方":1893,"的女孩":1894,"看法":1895,"着,":1896,"礼物":1897,"笑容":1898,"经济":1899,"结局":1900,"结果":1901,"给了":1902,"给我":1903,"美好的":1904,"耐心":1905,"能改变":1906,"艰难":1907,"说\r\n":1908,"那样":1909,"那个人":1910,"都在":1911,"难过":1912,"自己\r\n":1913,"自己。\r\n":1914,"因为你":1915,"喜欢请":1916,"on't":1917,"快乐,":1918,"快乐\r\n":1919,"▁人们":1920,"成为了":1921,",有时":1922,"失去了":1923,",这就是":1924,"▁生活的":1925,"▁ha":1926,"▁http://t.cn/z":1927,"▁your":1928,"这样的":1929,"一点点":1930,"一直在":1931,"2012":1932,"▁for":1933,"▁no":1934,"美丽的":1935,"意味着你":1936,",然后":1937,"吸血鬼日":1938,",何":1939,",去":1940,",大":1941,",没":1942,",能":1943,",谁":1944,",世界":1945,",重要的是":1946,"17":1947,"18":1948,"[左":1949,"ad":1950,"be":1951,"e.":1952,"ey":1953,"il":1954,"ust":1955,"▁1":1956,"▁D":1957,"▁E":1958,"▁K":1959,"▁与":1960,"▁想":1961,"▁看":1962,"▁祝":1963,"▁若":1964,"▁不是":1965,"▁永远":1966,"▁ou":1967,"▁re":1968,"▁过去":1969,"▁微笑":1970,"▁美国":1971,"▁为了":1972,"▁学习":1973,"。而":1974,"。不要":1975,"。喜欢":1976,"。早安":1977,"一条":1978,"三个":1979,"下的":1980,"不够":1981,"不喜欢":1982,"不需要":1983,"两个人":1984,"件很":1985,"伤痛":1986,"你能":1987,"你想要":1988,"健康":1989,"公司":1990,"决心":1991,"出的":1992,"加油":1993,"反而":1994,"口语":1995,"台词":1996,"吗\r\n":1997,"周围":1998,"周末":1999,"哦\r\n":2000,"在意":2001,"城市":2002,"天气":2003,"失望":2004,"学英语":2005,"它的":2006,"安排":2007,"完成":2008,"将来":2009,"小时":2010,"小的":2011,"就越":2012,"年的":2013,"年轻":2014,"幸运":2015,"心理":2016,"意外":2017,"感到":2018,"感动":2019,"懂得":2020,"成就":2021,"承受":2022,"拥抱":2023,"收获":2024,"政府":2025,"是,":2026,"是一个":2027,"晚上":2028,"有点":2029,"有的":2030,"有勇气":2031,"某个人":2032,"欢迎":2033,"正确":2034,"环境":2035,"的前":2036,"的爱情":2037,"目标":2038,"研究":2039,"童话":2040,"第二":2041,"老师":2042,"自我":2043,"行动":2044,"视频":2045,"言\r\n":2046,"记忆":2047,"过程":2048,"这些":2049,"这世上":2050,"适合":2051,"都能":2052,"里,":2053,"随着":2054,"首歌":2055,"高兴":2056,"我们会":2057,"的人。":2058,",你才":2059,",你的":2060,",不如":2061,",我也":2062,"没有人":2063,",而且":2064,"知道我":2065,"ere":2066,"ang":2067,",那就":2068,"的时候,你":2069,",而是你":2070,"ard":2071,"怎么看":2072,"2013":2073,"▁don't":2074,"其实我":2075,"▁be":2076,"简单的":2077,"▁有时候,":2078,"的那一刻":2079,"▁喜欢请关注\r\n":2080,"▁lo":2081,"准备好":2082,"▁An":2083,"语录请关注":2084,"抱抱]\r\n":2085,"太阳]":2086,"更多精彩语录请关注":2087,"喜欢请收听\r\n":2088,"吸血鬼日记":2089,"[左抱抱]\r\n":2090,"更多精彩语录请关注[左抱抱]\r\n":2091,",人":2092,",做":2093,",因":2094,",把":2095,",看":2096,",生活":2097,"0%":2098,"2.":2099,"60":2100,":有":2101,"Ch":2102,"TA":2103,"The":2104,"[哈哈":2105,"ak":2106,"bod":2107,"der":2108,"ep":2109,"hat":2110,"ok":2111,"op":2112,"os":2113,"ry":2114,"rom":2115,"s.":2116,"~(关注\r\n":2117,"▁L":2118,"▁W":2119,"▁上":2120,"▁从":2121,"▁他":2122,"▁太":2123,"▁她":2124,"▁很":2125,"▁总":2126,"▁最":2127,"▁马":2128,"▁--":2129,"▁朋友":2130,"▁希望":2131,"▁分享":2132,"❤喜欢请收听\r\n":2133,"。在":2134,"。当":2135,"。我们":2136,"。只要":2137,"上一":2138,"不曾":2139,"不见":2140,"不一样":2141,"两个":2142,"为我":2143,"之后":2144,"也不会":2145,"了才知道":2146,"人在":2147,"他人":2148,"以后":2149,"件事情":2150,"你想做":2151,"你从未":2152,"使用":2153,"做什么":2154,"关键":2155,"前,":2156,"前行":2157,"十年":2158,"原因":2159,"去爱":2160,"变化":2161,"同行":2162,"后来":2163,"否则":2164,"听到":2165,"啊,":2166,"增长":2167,"大学":2168,"大量":2169,"天空":2170,"头发":2171,"好想":2172,"子\r\n":2173,"它们":2174,"安全":2175,"完全":2176,"实际":2177,"就在":2178,"就算":2179,"左右":2180,"平凡":2181,"幻想":2182,"影子":2183,"彼此":2184,"心,":2185,"心的":2186,"必要":2187,"思想":2188,"想象":2189,"找不到":2190,"承诺":2191,"提出":2192,"提醒":2193,"提高":2194,"整个":2195,"旅行":2196,"时尚":2197,"是最":2198,"是\r\n":2199,"是件很":2200,"最重要":2201,"月3":2202,"有效":2203,"有那么":2204,"期望":2205,"标志":2206,"欺骗":2207,"每个":2208,"注定":2209,"注意":2210,"活得":2211,"活着":2212,"深处":2213,"然后":2214,"现实":2215,"留在":2216,"的你":2217,"的大":2218,"的女":2219,"的男":2220,"的朋友":2221,"的梦想":2222,"的意思":2223,"的声音":2224,"看不到":2225,"真心":2226,"睡觉":2227,"确实":2228,"社会":2229,"积极":2230,"突然":2231,"第一个":2232,"精神":2233,"结合":2234,"给予":2235,"绝望":2236,"考试":2237,"考验":2238,"自信":2239,"自然":2240,"艺术":2241,"认识":2242,"让人":2243,"让他":2244,"让你的":2245,"让别人":2246,"记住":2247,"说我":2248,"说的":2249,"过于":2250,"过的":2251,"进来":2252,"通过":2253,"都可以":2254,"里的":2255,"重新":2256,"除了":2257,"默默":2258,"一个新的":2259,"▁我在":2260,"▁我不是":2261,"▁我觉得":2262,"你的梦想":2263,",不管":2264,",我不":2265,",我的":2266,"什么\r\n":2267,"什么。\r\n":2268,"不要放弃":2269,",但它":2270,",而不是":2271,",而在于":2272,"的事。\r\n":2273,",就像":2274,"他们的":2275,"的一面":2276,"ough":2277,"。。。\r\n":2278,",因为我":2279,"不能接受":2280,"爱你。\r\n":2281,"▁are":2282,"任何事":2283,"▁me":2284,"▁make":2285,",不是因为":2286,"▁do":2287,"英文\r\n":2288,"▁有时候,你":2289,",让我":2290,"真正的幸福":2291,"ect":2292,"▁go":2293,"使你更":2294,"▁每天一句":2295,",想想":2296,"uck":2297,"对不起":2298,"ight":2299,"▁love":2300,"[哈哈]":2301,"body":2302,"!@":2303,",加":2304,",和":2305,",对":2306,",用":2307,",越":2308,",还是":2309,",只有":2310,",明天":2311,",无论":2312,",直到":2313,",成为了":2314,"1日":2315,":http://t.cn/z":2316,";你":2317,"Th":2318,"VI":2319,"au":2320,"are":2321,"ch":2322,"em":2323,"ia":2324,"ir":2325,"ile":2326,"now":2327,"pp":2328,"ru":2329,"s,":2330,"we":2331,"▁9":2332,"▁N":2333,"▁R":2334,"▁“":2335,"▁《":2336,"▁今":2337,"▁但":2338,"▁刚":2339,"▁可":2340,"▁和":2341,"▁快":2342,"▁约":2343,"▁能":2344,"▁谁":2345,"▁长":2346,"▁高":2347,"▁\r\n":2348,"▁。\r\n":2349,"▁世界":2350,"▁an":2351,"▁只是":2352,"▁大家":2353,"▁早安\r\n":2354,"▁哈哈":2355,"▁也许":2356,"▁感谢":2357,"▁19":2358,"。#":2359,"。~":2360,"。要":2361,"。这":2362,"《吸血鬼日记":2363,"一。":2364,"不出":2365,"不多":2366,"不在于":2367,"不适合":2368,"两人":2369,"丧失":2370,"为自己":2371,"么\r\n":2372,"之所以":2373,"也可以":2374,"了自己":2375,"争取":2376,"事实":2377,"人员":2378,"令人":2379,"们,":2380,"价格":2381,"份礼物":2382,"伤害":2383,"作为":2384,"你将":2385,"你,我":2386,"你是我":2387,"你是否":2388,"依然":2389,"便是":2390,"假装":2391,"做事":2392,"做出":2393,"做到":2394,"做好":2395,"做\r\n":2396,"共同":2397,"出现在":2398,"到哪":2399,"到你的":2400,"到最后":2401,"动的":2402,"动词":2403,"励志":2404,"单词":2405,"单身":2406,"参与":2407,"发布":2408,"取得":2409,"可怕":2410,"合作":2411,"同事":2412,"同一个":2413,"吧!":2414,"听了":2415,"啦\r\n":2416,"回去":2417,"回家":2418,"坚信":2419,"多久":2420,"多\r\n":2421,"妈妈":2422,"完整":2423,"实的":2424,"尊重":2425,"小事":2426,"带着":2427,"常常":2428,"平静":2429,"当初":2430,"当然":2431,"很好":2432,"很快":2433,"心\r\n":2434,"情人":2435,"成\r\n":2436,"打动":2437,"改说“":2438,"放下":2439,"放在":2440,"教育":2441,"文字":2442,"无关":2443,"早\r\n":2444,"时,你":2445,"明显":2446,"是个":2447,"是很":2448,"是真的":2449,"最差":2450,"最终":2451,"最喜欢":2452,"月2":2453,"有所":2454,"有一个":2455,"有时候":2456,"有意义":2457,"条件":2458,"来,":2459,"来源":2460,"根本":2461,"梦中":2462,"梦\r\n":2463,"欢乐":2464,"母亲":2465,"每一":2466,"毕业":2467,"水平":2468,"泪水":2469,"清楚":2470,"满足":2471,"演出":2472,"激动":2473,"热烈":2474,"热爱":2475,"爱自己":2476,"爱的人":2477,"犯罪":2478,"珍贵":2479,"甚至":2480,"电视":2481,"的地":2482,"的,不":2483,"的就是":2484,"的幸福":2485,"的努力":2486,"的日子":2487,"的理由":2488,"的方式":2489,"的价值":2490,"的安排":2491,"的意外":2492,"的标志":2493,"着你":2494,"确定":2495,"祝福":2496,"笑着":2497,"笑话":2498,"等到":2499,"篇文章":2500,"系统":2501,"给自己":2502,"老天":2503,"而改变":2504,"脚步":2505,"至于":2506,"苦难":2507,"荣耀":2508,"获得":2509,"要做":2510,"要求":2511,"计划":2512,"计较":2513,"说明":2514,"说话":2515,"说:“":2516,"责任":2517,"超过":2518,"身上":2519,"身体":2520,"这种":2521,"这句话":2522,"进入":2523,"追寻":2524,"造成":2525,"都没有":2526,"都不会":2527,"酒,":2528,"里\r\n":2529,"金钱":2530,"错的":2531,"面前":2532,"食物":2533,"自己想要":2534,"▁我爱":2535,"▁我的":2536,",你们":2537,"你的心":2538,",不代表":2539,"什么时候":2540,",而爱上":2541,"的事。":2542,"的事物":2543,"一个人的":2544,",就算":2545,",就能":2546,"快乐的":2547,",那些":2548,",那你":2549,"我的心":2550,"是一场":2551,"朋友是我的":2552,"无法改变":2553,"无法控制":2554,",也不要":2555,"重要,重要的是":2556,"成为一个":2557,"生命中的":2558,"。。。":2559,"这个世界":2560,"这个世界上":2561,"开始\r\n":2562,"▁不要只":2563,"爱你]":2564,"自己的错误":2565,"▁at":2566,"▁all":2567,"觉得我":2568,",而是因为":2569,"▁转发微博#":2570,"的事情\r\n":2571,"放弃的那一刻":2572,"选择,而爱上":2573,"ate":2574,",这是":2575,"▁st":2576,"一次的":2577,"可能会":2578,",一名":2579,"▁不管":2580,"怎么样":2581,"▁如果你想":2582,",它会":2583,"让你觉得":2584,"一样东西":2585,"thing":2586,"值得拥有":2587,"值得等待":2588,"坚持走":2589,"的那个人":2590,"即使是":2591,"ici":2592,"一句话":2593,"就像一":2594,"勇敢的":2595,"遇见你是":2596,",然而":2597,"very":2598,"一定会":2599,"ack":2600,",只能":2601,"rain":2602,"▁新年":2603,"之前,":2604,"命运的安排":2605,"有些事,":2606,"▁one":2607,"▁世界上最":2608,"”,改说“":2609,"▁know":2610,"主义者":2611,"▁have":2612,"▁与其":2613,"▁out":2614,"▁每天一句:":2615,",成为了朋友是我的":2616,"你是我无法控制":2617,"选择,而爱上你是我无法控制":2618,"遇见你是命运的安排":2619,",成为了朋友是我的选择,而爱上你是我无法控制":2620,"遇见你是命运的安排,成为了朋友是我的选择,而爱上你是我无法控制":2621,"遇见你是命运的安排,成为了朋友是我的选择,而爱上你是我无法控制的意外":2622,"'\r\n":2623,",使":2624,",再":2625,",又":2626,",哪":2627,",如":2628,",心":2629,",新":2630,",更":2631,",由":2632,",一个":2633,",关注\r\n":2634,",朋友":2635,",希望":2636,",现在":2637,",怎么":2638,",早安\r\n":2639,",其实":2640,",如果你":2641,",第一次":2642,",尽管":2643,",否则":2644,"0个":2645,"15":2646,"1月":2647,":不":2648,":\r\n":2649,";如果":2650,"?\r\n":2651,"AN":2652,"It":2653,"Ian":2654,"MG":2655,"ON":2656,"Of":2657,"You":2658,"[]":2659,"[泪":2660,"ain":2661,"bo":2662,"day":2663,"e:":2664,"ee":2665,"ip":2666,"iz":2667,"ior":2668,"ky":2669,"lin":2670,"man":2671,"ment":2672,"mile":2673,"ning":2674,"ood":2675,"pect":2676,"ro":2677,"rough":2678,"ta":2679,"ter":2680,"yy":2681,"”;不要":2682,"▁!":2683,"▁'":2684,"▁)":2685,"▁4":2686,"▁5":2687,"▁P":2688,"▁j":2689,"▁以":2690,"▁假":2691,"▁只":2692,"▁多":2693,"▁富":2694,"▁小":2695,"▁就":2696,"▁投":2697,"▁明":2698,"▁用":2699,"▁笑":2700,"▁自":2701,"▁谢":2702,"▁你的":2703,"▁好的":2704,"▁那些":2705,"▁...":2706,"▁那么":2707,"▁le":2708,"▁曾经":2709,"▁晚安\r\n":2710,"▁早上":2711,"▁距离":2712,"▁'s":2713,"▁un":2714,"▁up":2715,"▁微信":2716,"▁突然":2717,"▁遇见你是命运的安排,成为了朋友是我的选择,而爱上你是我无法控制的意外":2718,"。-":2719,"。他":2720,"。她":2721,"。大家":2722,"。更多":2723,"。如果你":2724,"。晚安":2725,"。有些事,":2726,"一個":2727,"一大":2728,"一张":2729,"一开始":2730,"一分钟":2731,"上,":2732,"上去":2733,"下去":2734,"下。\r\n":2735,"不停":2736,"不懂":2737,"不快乐":2738,"不爱你":2739,"不可能":2740,"不在乎":2741,"与你":2742,"专家":2743,"专注":2744,"两天":2745,"个单词":2746,"中有":2747,"中的一":2748,"为别人":2749,"为任何人":2750,"主要":2751,"主题":2752,"之旅":2753,"乐观":2754,"也在":2755,"也有":2756,"也能":2757,"也要":2758,"书写":2759,"了会":2760,"了我":2761,"了一个":2762,"了多少":2763,"事物":2764,"些人":2765,"交流":2766,"亲爱":2767,"人。":2768,"人人":2769,"人民":2770,"人能":2771,"今年":2772,"今日":2773,"令我":2774,"众不同":2775,"会很":2776,"会发生":2777,"伟大的":2778,"作家":2779,"你!":2780,"你;":2781,"你也":2782,"你做":2783,"你更":2784,"你的人":2785,"信念":2786,"倒不如":2787,"偷笑":2788,"入睡":2789,"全部":2790,"六十":2791,"内在":2792,"决于":2793,"几个":2794,"创意":2795,"力的":2796,"办法":2797,"加拿":2798,"动\r\n":2799,"勇于":2800,"却不能":2801,"去改变":2802,"又是":2803,"又有":2804,"取决于":2805,"另外":2806,"另一种":2807,"只需要":2808,"可爱":2809,"各种":2810,"各自":2811,"合适":2812,"同样":2813,"周年":2814,"哦,":2815,"嘻嘻":2816,"回到":2817,"回头":2818,"回答":2819,"回首":2820,"在其":2821,"地为":2822,"外表":2823,"多数":2824,"大人":2825,"天堂":2826,"女性":2827,"好。":2828,"好心情":2829,"始终":2830,"子。\r\n":2831,"字母":2832,"学家":2833,"宁愿":2834,"它会":2835,"它。\r\n":2836,"定义":2837,"实验":2838,"对你的":2839,"寻找":2840,"将就":2841,"小小的":2842,"少年":2843,"就要":2844,"巴西":2845,"市场":2846,"帮助":2847,"常用":2848,"年来":2849,"度过":2850,"得起":2851,"心没":2852,"忙,":2853,"总统":2854,"意识":2855,"感激":2856,"成真":2857,"成都":2858,"我就":2859,"我\r\n":2860,"战争":2861,"承担":2862,"把握":2863,"抱怨":2864,"摄影":2865,"支持":2866,"改天":2867,"放不":2868,"放开":2869,"文化":2870,"旅程":2871,"无可":2872,"无限":2873,"时代":2874,"时的":2875,"是:":2876,"是因为":2877,"是不是":2878,"是这样":2879,"是为了":2880,"是最好的":2881,"是如此":2882,"更强大":2883,"最有":2884,"最酸":2885,"有钱":2886,"有没有":2887,"服务":2888,"本来":2889,"果断":2890,"某个":2891,"查看":2892,"根据":2893,"每次":2894,"每一次":2895,"比你":2896,"没人":2897,"没心没":2898,"活的":2899,"深深":2900,"激情":2901,"点,":2902,"点的":2903,"爱。":2904,"爱的人,":2905,"父亲":2906,"爸爸":2907,"独立":2908,"生人":2909,"生存":2910,"用心":2911,"的力":2912,"的历":2913,"的好":2914,"的情":2915,"的最":2916,"的温":2917,"的美":2918,"的越":2919,"的道":2920,"的.\r\n":2921,"的工作":2922,"的问题":2923,"的距离":2924,"的风景":2925,"的感情":2926,"的存在":2927,"的结局":2928,"的自己\r\n":2929,"相爱":2930,"睡多久":2931,"禁止":2932,"福音":2933,"穿越":2934,"竟然":2935,"第一天":2936,"等于":2937,"管理":2938,"精选":2939,"红色":2940,"经意":2941,"给我们":2942,"网站":2943,"美元":2944,"而烦恼":2945,"耶和":2946,"背后":2947,"自尊":2948,"自私":2949,"自身":2950,"至少":2951,"般的":2952,"节日":2953,"若不":2954,"莫过于":2955,"行为":2956,"表现":2957,"要有":2958,"要走":2959,"要学会":2960,"解释":2961,"认真":2962,"让他们":2963,"议论":2964,"证明":2965,"试图":2966,"语言":2967,"说出":2968,"说出来":2969,"调查":2970,"赢家":2971,"走进":2972,"超级":2973,"跟随":2974,"路\r\n":2975,"转身":2976,"过得":2977,"过来":2978,"过日子":2979,"迎接":2980,"还可以":2981,"这张":2982,"这部":2983,"那就":2984,"都不是":2985,"里面":2986,"野鸡":2987,"错的人":2988,"阻止":2989,"需求":2990,"青春":2991,"风雨":2992,"我们不":2993,"一个你爱":2994,"的人都":2995,"的人你看":2996,"▁我从":2997,"▁我知道":2998,"▁我相信":2999,",你所":3000,",你要":3001,",你拥有":3002,",你会发现":3003,"你的光":3004,",不会":3005,",不能":3006,"就是一":3007,",我不想":3008,"没有什么":3009,"什么是":3010,"不是因为":3011,"喜欢请关注\r\n":3012,"世界,":3013,"世界的":3014,"▁tim":3015,"关注@":3016,"一个人,你":3017,"的,有":3018,"----":3019,"不会知道":3020,"ank":3021,"ong":3022,"他们想":3023,"他们不能接受":3024,"永远也":3025,"永远都是":3026,"的一件事情":3027,",那只能":3028,"了,因为":3029,"▁如果没有":3030,"是一切":3031,"是一份礼物":3032,"的时候,我们":3033,",也是":3034,"重要。":3035,"。。。。":3036,"。。更多精彩语录请关注[左抱抱]\r\n":3037,"成功\r\n":3038,"这个句子":3039,",因为它":3040,"res":3041,"▁不要让":3042,"自己的心":3043,"还是要":3044,"▁转发微博。【":3045,"微笑\r\n":3046,"微笑。\r\n":3047,"的事情,":3048,"的事情。\r\n":3049,"现在\r\n":3050,"放弃。":3051,"真的很":3052,"美国人":3053,"est":3054,"llll":3055,"▁smile":3056,"▁what":3057,"可能是":3058,"▁生活中的":3059,"ist":3060,"▁man":3061,"▁you.":3062,"找到了":3063,"找到合适":3064,"一点,":3065,"发现,":3066,"▁当你在":3067,"▁ch":3068,"▁can":3069,"失败了":3070,"孩子们":3071,"有多坚强":3072,"翻译:":3073,",不要为任何人":3074,"ome":3075,"▁by":3076,"的东西。":3077,"......\r\n":3078,"并不重要,重要的是":3079,"了一辈子":3080,"完美的":3081,"完美时刻":3082,"最好的朋友":3083,"这是我的":3084,"。[爱你]":3085,"阳光]":3086,",每一":3087,"▁lif":3088,"曾经拥有":3089,"的心情":3090,"别人的看法":3091,"~~~":3092,"内心深处":3093,",还能":3094,"▁Th":3095,"充满了":3096,"来说,你":3097,"做的就是":3098,"最美妙":3099,"▁很多人":3100,"▁很多时候,":3101,"创造力":3102,"力量\r\n":3103,"活在当下":3104,"▁每个人都":3105,"做过的事":3106,"推荐关注\r\n":3107,"足够的":3108,"▁need":3109,"做自己,不要为任何人":3110,"更好的人":3111,"每天都在":3112,"中国的粉丝们":3113,"做的事,这就是":3114,"哭泣,":3115,"在那里":3116,"浪费时间":3117,"2012年":3118,"▁not":3119,"怎么看待":3120,"▁And":3121,"▁总有一天":3122,"了才知道。有些事,":3123,"▁any":3124,"情人节":3125,"自己的错误是":3126,"[泪]":3127,"”;不要老":3128,"▁微信\r\n":3129,"加拿大":3130,"意识到":3131,"做自己,不要为任何人而改变":3132,"!(":3133,"!太":3134,"!来自\r\n":3135,"!这是":3136,"!虽然":3137,"!加油":3138,"\"\r\n":3139,"'m":3140,"(美国":3141,"):":3142,")。\r\n":3143,",“":3144,",为":3145,",从":3146,",先":3147,",即":3148,",听":3149,",她":3150,",将":3151,",带":3152,",很":3153,",得":3154,",总":3155,",打":3156,",明":3157,",爱":3158,",独":3159,",直":3160,",祝":3161,",结":3162,",什么":3163,",别人":3164,",需要":3165,",转发":3166,",成功":3167,",大家":3168,",享受":3169,",醒来":3170,",好好":3171,",期待":3172,",活在":3173,",眼泪":3174,",虽然":3175,",真爱":3176,"-信":3177,"-号\r\n":3178,"-18":3179,".\"":3180,".3":3181,".我":3182,".来自\r\n":3183,".)\r\n":3184,"1.":3185,"16":3186,"1:":3187,"25":3188,"26":3189,"3:":3190,"43":3191,"4日":3192,"50个":3193,"65":3194,"84":3195,"99":3196,":#":3197,":不要":3198,":今天":3199,";不":3200,";在":3201,";有":3202,";而":3203,";长大":3204,";2.":3205,"=\r\n":3206,"?//@":3207,"AL":3208,"Brain":3209,"Dior":3210,"Ed":3211,"Mar":3212,"Ne":3213,"P8":3214,"PS":3215,"St":3216,"ab":3217,"ag":3218,"aw":3219,"a的":3220,"ber":3221,"cc":3222,"ce":3223,"com":3224,"ea":3225,"eve":3226,"fici":3227,"http://t.cn/":3228,"hal":3229,"ham":3230,"ike":3231,"lo":3232,"lat":3233,"my":3234,"pe":3235,"row":3236,"sel":3237,"us":3238,"was":3239,"xpect":3240,"y_":3241,"~【":3242,"“大":3243,"”的":3244,"”。\r\n":3245,"▁3":3246,"▁:":3247,"▁x":3248,"▁”":3249,"▁】":3250,"▁千":3251,"▁发":3252,"▁因":3253,"▁外":3254,"▁如":3255,"▁家":3256,"▁尔":3257,"▁常":3258,"▁平":3259,"▁影":3260,"▁打":3261,"▁把":3262,"▁斯":3263,"▁无":3264,"▁然":3265,"▁神":3266,"▁给":3267,"▁老":3268,"▁被":3269,"▁说":3270,"▁请":3271,"▁越":3272,"▁這":3273,"▁通":3274,"▁香":3275,"▁自己":3276,"▁//":3277,"▁....":3278,"▁he":3279,"▁时间":3280,"▁中国":3281,"▁任何":3282,"▁可能":3283,"▁en":3284,"▁[心]":3285,"▁......":3286,"▁美丽":3287,"▁开心":3288,"▁即使":3289,"▁)\r\n":3290,"▁信任":3291,"▁让我们":3292,"▁晚安":3293,"▁第一次":3294,"▁所谓":3295,"▁面对":3296,"▁儿子":3297,"▁感情":3298,"▁谢谢":3299,"▁3.":3300,"▁各位":3301,"▁这样的":3302,"▁三个":3303,"▁老师":3304,"▁You":3305,"▁翻译:":3306,"▁~~~":3307,"、高":3308,"。)":3309,"。T":3310,"。一":3311,"。上":3312,"。也":3313,"。如":3314,"。请":3315,"。很多":3316,"。❤喜欢请收听\r\n":3317,"》,":3318,"】指":3319,"一,":3320,"一事":3321,"一双":3322,"一座":3323,"一手":3324,"一般":3325,"一遍":3326,"上了":3327,"上传":3328,"上天":3329,"上是":3330,"上\r\n":3331,"上一个人":3332,"上看到":3333,"下次":3334,"下降":3335,"下面":3336,"下一手":3337,"不,":3338,"不住":3339,"不决":3340,"不及":3341,"不失":3342,"不已":3343,"不开":3344,"不必":3345,"不用":3346,"不觉":3347,"不完美":3348,"不容易":3349,"不代表":3350,"不愿意":3351,"不属于":3352,"不快乐,":3353,"与人":3354,"与坚持":3355,"与众不同":3356,"专业":3357,"世间":3358,"两种":3359,"中,我们":3360,"中看到":3361,"为之":3362,"主\r\n":3363,"丽·":3364,"之一":3365,"也无法":3366,"也不能":3367,"也只不过":3368,"书\r\n":3369,"了就":3370,"了太多":3371,"了以后":3372,"事\r\n":3373,"亮]":3374,"人家":3375,"今晚":3376,"他会":3377,"他带":3378,"他竟然":3379,"代价":3380,"代替":3381,"以前":3382,"以及":3383,"以外":3384,"们的":3385,"价还":3386,"任务":3387,"会失去":3388,"会一直":3389,"会变成":3390,"会是什么":3391,"伟大":3392,"伤的":3393,"体会":3394,"体验":3395,"何必":3396,"余生":3397,"作品":3398,"你得":3399,"你想":3400,"你我":3401,"你最":3402,"你什么":3403,"你知道":3404,"你自己的":3405,"你看到":3406,"你拥抱":3407,"保留":3408,"保证":3409,"做个":3410,"做些":3411,"做你":3412,"做我":3413,"做的,":3414,"做决定":3415,"停留":3416,"偶尔":3417,"克尔":3418,"克\r\n":3419,"克号\r\n":3420,"免费":3421,"公布":3422,"关的":3423,"其中":3424,"再次":3425,"再见":3426,"冷笑话":3427,"几天":3428,"出一":3429,"出我的":3430,"击倒":3431,"击\r\n":3432,"分别":3433,"则是":3434,"别的":3435,"到底":3436,"到达":3437,"前世":3438,"动物":3439,"区别":3440,"医院":3441,"十二":3442,"十天":3443,"博文":3444,"友情":3445,"发出":3446,"取代":3447,"口英语":3448,"古希":3449,"只想":3450,"叫声":3451,"可惜":3452,"名字":3453,"向前":3454,"吧。":3455,"听力":3456,"味道":3457,"和我":3458,"和其他":3459,"哪里":3460,"啊!":3461,"啊?":3462,"啊啊":3463,"善待":3464,"回到了":3465,"国,":3466,"图片":3467,"在中":3468,"在心":3469,"在等":3470,"在路":3471,"在这":3472,"在别人":3473,"在中国":3474,"在最不":3475,"地区":3476,"地去":3477,"场\r\n":3478,"增加":3479,"士多":3480,"处理":3481,"外院":3482,"多,":3483,"大脑":3484,"大\r\n":3485,"天员":3486,"太开":3487,"太远":3488,"太福音":3489,"失恋":3490,"头脑":3491,"她的":3492,"好了":3493,"好有":3494,"好过":3495,"好。\r\n":3496,"好了。":3497,"始于":3498,"婚礼":3499,"存在于":3500,"学的":3501,"它,你":3502,"安。":3503,"安静":3504,"定的":3505,"实在":3506,"家人":3507,"家里":3508,"富有":3509,"对于":3510,"对自己":3511,"对的人":3512,"小,":3513,"小到":3514,"小孩":3515,"少,":3516,"尔\r\n":3517,"就好":3518,"就能":3519,"就没有":3520,"就不要":3521,"就不会":3522,"就关注\r\n":3523,"就出去":3524,"尽在\r\n":3525,"展示":3526,"岁月":3527,"岁的":3528,"布斯":3529,"带有":3530,"帮我":3531,"年,":3532,"并没有":3533,"建议":3534,"开放":3535,"开朗":3536,"开了。\r\n":3537,"强者":3538,"当时":3539,"形容":3540,"很有":3541,"很容易":3542,"得更":3543,"得最":3544,"得有":3545,"得多\r\n":3546,"微风":3547,"微-信":3548,"心疼":3549,"忘不了":3550,"怀疑":3551,"思维":3552,"性\r\n":3553,"总说":3554,"恋爱":3555,"悲观":3556,"想到":3557,"想不到":3558,"想太多":3559,"愿望":3560,"成。":3561,"我会":3562,"我看":3563,"我爱你":3564,"我希望":3565,"房间":3566,"所为":3567,"所能":3568,"所在\r\n":3569,"所当然":3570,"手所":3571,"手报":3572,"手指":3573,"打击":3574,"承认":3575,"把自己":3576,"投资":3577,"报的":3578,"抱得更":3579,"拍#":3580,"拍摄":3581,"拔野鸡":3582,"拿着":3583,"拿走":3584,"掌控":3585,"掌握":3586,"推动":3587,"教学":3588,"整天":3589,"新年":3590,"新的一天":3591,"新手报":3592,"方面":3593,"旅游":3594,"无其":3595,"无助":3596,"无意义":3597,"无所谓":3598,"早起":3599,"时,我":3600,"时不要":3601,"明星":3602,"明确":3603,"昨日":3604,"是为":3605,"是过":3606,"是,当":3607,"是因为我":3608,"显示":3609,"晚点":3610,"景,":3611,"更。\r\n":3612,"更重要":3613,"更美好":3614,"最大":3615,"最近":3616,"最难":3617,"最高":3618,"月10":3619,"月亮]":3620,"有,":3621,"有了":3622,"有福":3623,"有限":3624,"有一个人":3625,"有一次":3626,"有机会":3627,"朝它":3628,"本书":3629,"本身":3630,"来临":3631,"来到":3632,"来的":3633,"来过":3634,"来\r\n":3635,"杯,不会":3636,"林\r\n":3637,"某天":3638,"样东西":3639,"梦里":3640,"欢喜":3641,"正直":3642,"正面":3643,"此刻":3644,"死于":3645,"每一个":3646,"每件事":3647,"比亚":3648,"比赛":3649,"比较":3650,"比昨天":3651,"毕竟":3652,"水果":3653,"永不":3654,"没必要":3655,"法和":3656,"注:":3657,"泰克号\r\n":3658,"消费":3659,"深的":3660,"漫长":3661,"潮英语":3662,"点;":3663,"点儿":3664,"点。\r\n":3665,"热情":3666,"爱人":3667,"爱\r\n":3668,"爱。\r\n":3669,"爱一个人":3670,"猜猜":3671,"现代":3672,"现出":3673,"现场":3674,"球迷":3675,"理想":3676,"理所当然":3677,"生,":3678,"生死":3679,"生。\r\n":3680,"用来":3681,"用任何":3682,"男女":3683,"男性":3684,"的友":3685,"的基":3686,"的天":3687,"的时":3688,"的歌":3689,"的特":3690,"的答":3691,"的译":3692,"的车":3693,"的我们":3694,"的生命":3695,"的都是":3696,"的微笑":3697,"的,不是":3698,"的未来":3699,"的阳光":3700,"的时刻":3701,"的回忆":3702,"的并不是":3703,"的星星":3704,"的恐惧":3705,"的方向":3706,"的过程":3707,"的外表":3708,"的没心没":3709,"目前":3710,"直觉":3711,"相当":3712,"看见":3713,"看门":3714,"看星星":3715,"看的太":3716,"真实":3717,"真是":3718,"眼云":3719,"着。":3720,"神秘":3721,"离别":3722,"称为":3723,"立\r\n":3724,"笑起来":3725,"答应":3726,"经验":3727,"给他们":3728,"绝对":3729,"缘分":3730,"网\r\n":3731,"美剧":3732,"美女":3733,"美德":3734,"美街":3735,"翻唱":3736,"耀眼":3737,"而已":3738,"而忙,":3739,"联系":3740,"肯定":3741,"胜利":3742,"胜过":3743,"能走":3744,"能量":3745,"能成为":3746,"自《":3747,"自\r\n":3748,"般的爱情":3749,"花朵":3750,"花\r\n":3751,"苦一":3752,"苦一辈子":3753,"草,":3754,"落落":3755,"落\r\n":3756,"蛋]":3757,"行\r\n":3758,"被忘记":3759,"要是":3760,"解脱":3761,"說\r\n":3762,"讨价还":3763,"让它":3764,"让步":3765,"记性":3766,"评论":3767,"试试":3768,"诚实":3769,"语法":3770,"语\r\n":3771,"说爱":3772,"说过":3773,"读了":3774,"购买":3775,"走走":3776,"起起":3777,"超越":3778,"过。":3779,"过分":3780,"过的东西":3781,"还在":3782,"还能":3783,"还没有":3784,"还记得":3785,"还不如":3786,"这次":3787,"这就是":3788,"进去":3789,"进行":3790,"连续":3791,"透反而":3792,"道德":3793,"都看":3794,"都不知道":3795,"配拥有":3796,"酒杯":3797,"里最":3798,"重庆":3799,"重量":3800,"长时间":3801,"间的":3802,"难以":3803,"难免":3804,"难道":3805,"面\r\n":3806,"鞋子":3807,"音部":3808,"频繁":3809,"风格":3810,"飞行":3811,"香,":3812,"..\r\n":3813,"我们很":3814,"我们有":3815,"我们自己":3816,"我们可以":3817,"自己很":3818,"自己是":3819,"自己最":3820,"一个你":3821,"一个\r\n":3822,"一个伟大的":3823,"的人。你":3824,"▁我对":3825,"▁我这":3826,"▁我今天":3827,"▁我不知道":3828,"▁我一直在":3829,",你将":3830,",你看":3831,",你永远":3832,",你仍然":3833,",你也可以":3834,",你还是要":3835,"你的世界":3836,"你的眼睛":3837,"你的一生":3838,"你的笑容":3839,"生活。\r\n":3840,",不求":3841,",不过":3842,"就是这样":3843,"就是让自己":3844,"就是我,":3845,"因为我们":3846,",我必":3847,",我想":3848,",我可能":3849,",但不是":3850,",但总会":3851,",而我":3852,",而是一":3853,"不是一个":3854,"不是你的":3855,"喜欢你":3856,"喜欢自己":3857,"的事儿":3858,"的事\r\n":3859,"的事;长大":3860,"可以不":3861,"可以和":3862,"可以在":3863,"可以用":3864,"可以选择":3865,"ink":3866,"▁你是":3867,"▁你知道":3868,"era":3869,"erhal":3870,"的,是":3871,",就不要":3872,",就关注\r\n":3873,",就必须":3874,",就一定":3875,"//@全球":3876,"不会再":3877,"不会很快":3878,"的一种":3879,"的一件事":3880,"ous":3881,"快乐。":3882,"快乐。\r\n":3883,",那叫":3884,",那就是":3885,"需要保持":3886,"▁有人":3887,"....\r\n":3888,"▁如果不":3889,"▁如果我":3890,"的时候会":3891,"的时候,我":3892,"hed":3893,"hen":3894,"只是我":3895,"幸福是件很":3896,"朋友们":3897,"英语#":3898,"转发\r\n":3899,",也不会":3900,"重要的":3901,"重要的人":3902,"今天的":3903,"生命是一份礼物":3904,"▁在你":3905,"▁在这个世界上":3906,"▁不要因为":3907,"不能改变":3908,"爱情,":3909,"时间的":3910,"梦想,":3911,"梦想而忙,":3912,"都是因为":3913,"自己的感觉":3914,"▁ag":3915,"▁//@冷笑话":3916,",有些人":3917,"▁当我":3918,"▁当我们":3919,"努力工作":3920,"觉得自己":3921,"的人,是":3922,"的人,都是":3923,"的人,他竟然":3924,",我们必须":3925,",我们需要保持":3926,"失去的,":3927,"失去希望":3928,"希望自己":3929,"微笑吧,":3930,"的事情就是":3931,"相信你":3932,"相信我":3933,"相信自己":3934,"相信自己,":3935,"选择;":3936,"美国总统":3937,",这些":3938,",这样":3939,",这种":3940,"ese":3941,"▁sth":3942,"▁see":3943,",是因为":3944,"▁we":3945,"▁wor":3946,"▁who":3947,"的是,我":3948,"arl":3949,"arn":3950,"ary":3951,"orning":3952,"▁生活中":3953,",一定":3954,"只有你":3955,"只有一个人":3956,"是我不想":3957,"看到了":3958,"▁my":3959,"找到一个":3960,"起来的":3961,"事情会":3962,"[心][心]":3963,"一切都会":3964,"发生在":3965,"发生的":3966,",它是":3967,"已经拥有":3968,"为了梦想而忙,":3969,"那么多":3970,"明天\r\n":3971,",要学会":3972,"决定我们":3973,"出来的":3974,"忘记一个人":3975,"▁人生最大的":3976,"▁人生就像一":3977,"▁人生充满了":3978,"学习了":3979,"学习英语":3980,"接受生活":3981,"100":3982,"▁from":3983,"其实是":3984,"翻译】":3985,"omerhal":3986,"▁bit":3987,"想做的事":3988,"简单是件很":3989,"简单的事;长大":3990,"英文语录":3991,"认为对":3992,",让我们":3993,",让自己":3994,"▁this":3995,"▁through":3996,"▁per":3997,"一些人,":3998,"ase":3999,"ason":4000,"给你带来":4001,"美好,":4002,"醒来。\r\n":4003,"为什么当初":4004,"也许就是":4005,"忘了梦想":4006,"这里。\r\n":4007,"那个特别":4008,"▁Ch":4009,"在你心里":4010,"痛苦的":4011,"这么多":4012,"▁off":4013,"!!\r\n":4014,",并非":4015,"不想失去":4016,"遇见,不能":4017,"怎样,你还是要":4018,"都不太":4019,"都有一个":4020,"▁gu":4021,"▁爱是":4022,"▁it's":4023,"好好享受":4024,",才能":4025,",才要":4026,"▁every":4027,"。---":4028,"到了这里。\r\n":4029,"结束了":4030,"▁没有人":4031,"▁这个世界上":4032,"告诉你":4033,"唯一需要":4034,"把你抱得更":4035,"的爱国":4036,"第一步":4037,"继续生活":4038,"时候,幸福是件很":4039,"▁别让":4040,"最美的":4041,"最美好的":4042,"____":4043,"▁要么":4044,"不得不":4045,"你有没有":4046,"所谓的":4047,"抱抱]":4048,"方法\r\n":4049,"最好的一面":4050,"每个人都":4051,"的感觉\r\n":4052,"不再是":4053,"做过的事情":4054,"多么艰难":4055,"对我来说":4056,"温暖的":4057,"▁我想知道":4058,"---更多精彩语录请关注[左抱抱]\r\n":4059,"▁never":4060,"▁现在是":4061,"上帝\r\n":4062,"后,简单是件很":4063,"在这里\r\n":4064,"每日一句":4065,"沉默是":4066,",我就在这里":4067,",也不配拥有":4068,",但是我们要":4069,">>>":4070,"▁只要你":4071,"▁真正的朋友":4072,"一段时间":4073,"不断地":4074,"不知不觉":4075,"同学们":4076,"感受到":4077,"成熟的标志":4078,"浪费它,你":4079,"耐心。因为":4080,"▁生活的艺术":4081,"▁http://t.cn/zY":4082,",没人能":4083,"beat":4084,"▁永远不要":4085,"。喜欢请关注\r\n":4086,"周围的人":4087,"学英语好心情":4088,"心理学":4089,"首歌,":4090,",我也相信":4091,"准备好了,":4092,",因它会":4093,"akes":4094,"关键在于":4095,"后来忙":4096,"大量的":4097,"左右,":4098,"整个世界":4099,"月31日":4100,"活得漂亮":4101,"的你,也不配拥有":4102,"的男人,":4103,"给予的":4104,"重新开始":4105,"一个新的开始\r\n":4106,"▁我觉得生命是一份礼物":4107,",不管怎样,你还是要":4108,",但它值得等待":4109,"▁mean":4110,"真正的幸福,我们需要保持":4111,",想想为什么当初":4112,"VIP":4113,"▁No":4114,"《吸血鬼日记》":4115,"最差的你,也不配拥有":4116,"的方式\r\n":4117,"▁不要只追求":4118,"放弃的那一刻,想想为什么当初":4119,"坚持走到了这里。\r\n":4120,"勇敢的做自己,不要为任何人而改变":4121,"Offici":4122,"▁just":4123,"▁假如":4124,"▁投\r\n":4125,"一开始为了梦想而忙,":4126,"个单词,":4127,"倒不如的没心没":4128,"偷笑]":4129,"又有什么":4130,"嘻嘻]":4131,"放不下":4132,"有钱了,":4133,"独立思考":4134,"精选:":4135,"耶和华":4136,"背后议论":4137,"一个你爱的人,他竟然":4138,",我不想浪费它,你":4139,"▁time":4140,"不会知道下一手":4141,"他们不能接受最差的你,也不配拥有":4142,",那只能说明":4143,"▁smile.":4144,"找到合适的人":4145,"并不重要,重要的是你":4146,"最美妙的一件事":4147,"Brainwas":4148,"self":4149,"不快乐,倒不如的没心没":4150,"会是什么,要学会":4151,"你拥抱一个你爱的人,他竟然":4152,"友情是":4153,"士多德":4154,"外院\r\n":4155,"太开心]":4156,"微-信-号\r\n":4157,"是,当你拥抱一个你爱的人,他竟然":4158,"杯,不会苦一辈子":4159,"看门人":4160,"看星星,就":4161,"看的太透反而":4162,"美街拍#":4163,"讨价还价":4164,"起起落落":4165,"▁我今天学习了":4166,",但总会苦一":4167,"▁sth.":4168,"▁人生就像一杯,不会苦一辈子":4169,"▁人生充满了起起落落":4170,"omerhalder":4171,"简单的事;长大后,简单是件很":4172,"把你抱得更紧":4173,"时候,幸福是件很简单的事;长大后,简单是件很":4174,"▁生活的艺术在于":4175,"学英语好心情,关注\r\n":4176,"▁我觉得生命是一份礼物,我不想浪费它,你":4177,"真正的幸福,我们需要保持耐心。因为":4178,"放弃的那一刻,想想为什么当初坚持走到了这里。\r\n":4179,"一开始为了梦想而忙,后来忙":4180,"不会知道下一手会是什么,要学会":4181,"他们不能接受最差的你,也不配拥有最好的":4182,"最美妙的一件事是,当你拥抱一个你爱的人,他竟然":4183,"Brainwashed":4184,"看的太透反而不快乐,倒不如的没心没":4185,"▁人生就像一杯,不会苦一辈子,但总会苦一":4186,"时候,幸福是件很简单的事;长大后,简单是件很幸福":4187,"▁我觉得生命是一份礼物,我不想浪费它,你不会知道下一手会是什么,要学会":4188,"最美妙的一件事是,当你拥抱一个你爱的人,他竟然把你抱得更紧":4189,"▁我觉得生命是一份礼物,我不想浪费它,你不会知道下一手会是什么,要学会接受生活":4190,"!在":4191,"!我":4192,"!這":4193,"!//@":4194,"!生命":4195,"!哈哈":4196,"!你们":4197,"!让我们":4198,"!——《":4199,"#新手报":4200,"%的":4201,"'re":4202,"'ve":4203,"(m":4204,"(t":4205,"(享":4206,"(古希":4207,")!":4208,")(":4209,")。":4210,")【":4211,")是":4212,")来自\r\n":4213,"+一个":4214,",万":4215,",上":4216,",举":4217,",其":4218,",出":4219,",刚":4220,",反":4221,",发":4222,",受":4223,",另":4224,",吃":4225,",后":4226,",嘴":4227,",多":4228,",太":4229,",子":4230,",学":4231,",干":4232,",忙":4233,",手":4234,",指":4235,",改":4236,",毁":4237,",為":4238,",熟":4239,",生":4240,",的":4241,",相":4242,",老":4243,",被":4244,",诚":4245,",走":4246,",超":4247,",转":4248,",过":4249,",除":4250,",首":4251,",喜欢":4252,",永远":4253,",今天":4254,",改变":4255,",生命":4256,",一起":4257,",未来":4258,",都会":4259,",其他":4260,",即使":4261,",学会":4262,",得到":4263,",遇见":4264,",他的":4265,",保持":4266,",许多":4267,",信任":4268,",早上":4269,",终于":4270,",都要":4271,",仍然":4272,",沉默":4273,",英国":4274,",比如":4275,",下的":4276,",其实我":4277,",回家":4278,",甚至":4279,",亲爱":4280,",说出来":4281,",始于":4282,",活得漂亮":4283,"-M":4284,"-d":4285,"-th":4286,".【":4287,".你":4288,".爱":4289,"/她":4290,"/你是否":4291,"/Brainwashed":4292,"0年":4293,"1号":4294,"1小时":4295,"24":4296,"27":4297,"2:":4298,"31":4299,"32":4300,"35":4301,"37":4302,"3h":4303,"30%":4304,"360":4305,"42":4306,"47":4307,"4个":4308,"5.":4309,"57":4310,"5月31日":4311,"62":4312,"63":4313,"6日":4314,"6月":4315,"6小时":4316,"85":4317,"86":4318,"8日":4319,"97":4320,":\"":4321,":4":4322,":B":4323,":H":4324,":M":4325,":从":4326,":在":4327,":是":4328,":这":4329,":我们":4330,":一个":4331,":中国":4332,":微笑":4333,":哈哈":4334,":这是":4335,":回复@":4336,":关于":4337,":爱自己":4338,":1.":4339,":.爱":4340,";他":4341,";但":4342,";若":4343,";因为":4344,";即使":4345,";当你":4346,";生命中":4347,";3.":4348,"?【":4349,"@D":4350,"@丽":4351,"@小":4352,"@林":4353,"BA":4354,"BC":4355,"Bill":4356,"CL":4357,"Cre":4358,"Cam":4359,"DJ":4360,"EO":4361,"Good":4362,"Hu":4363,"Hey":4364,"HEd":4365,"IN":4366,"IO":4367,"IS":4368,"If":4369,"I'm":4370,"JN":4371,"Jo":4372,"J3h":4373,"LA":4374,"MV":4375,"Mr":4376,"Mic":4377,"NE":4378,"NY":4379,"Nor":4380,"OH":4381,"OL":4382,"OP":4383,"OMG":4384,"PO":4385,"Pong":4386,"RE":4387,"Rust":4388,"SI":4389,"SAN":4390,"Somerhalder":4391,"S63":4392,"TE":4393,"THEd":4394,"UJ3h":4395,"We":4396,"WP8":4397,"WJN":4398,"[原":4399,"[太阳]":4400,"[蛋]":4401,"[偷笑]":4402,"[嘻嘻]":4403,"]关注\r\n":4404,"]//@全球":4405,"_:":4406,"_Offici":4407,"ai":4408,"ait":4409,"ale":4410,"aid":4411,"by":4412,"bam":4413,"ca":4414,"cho":4415,"cent":4416,"do":4417,"ds":4418,"ding":4419,"eb":4420,"ex":4421,"eat":4422,"eel":4423,"fan":4424,"fuck":4425,"ger":4426,"gas":4427,"gres":4428,"hg":4429,"here":4430,"i,":4431,"ies":4432,"ial":4433,"iver":4434,"iac":4435,"ild":4436,"ibo":4437,"igas":4438,"jam":4439,"ler":4440,"l26":4441,"lUJ3h":4442,"mo":4443,"mp":4444,"mer":4445,"na":4446,"no":4447,"o_":4448,"ose":4449,"oore":4450,"ook":4451,"pr":4452,"pon":4453,"ron":4454,"ris":4455,"ric":4456,"s!":4457,"sh":4458,"te":4459,"ty":4460,"ton":4461,"tle":4462,"ud":4463,"ug":4464,"uk":4465,"ulat":4466,"y)":4467,"yst":4468,"~\r\n":4469,"·布":4470,"—《":4471,"“你":4472,"“哈":4473,"“女":4474,"”“":4475,"”一":4476,"”,而是":4477,"▁+":4478,"▁7":4479,"▁?":4480,"▁O":4481,"▁V":4482,"▁i":4483,"▁v":4484,"▁y":4485,"▁—":4486,"▁❤":4487,"▁【":4488,"▁万":4489,"▁为":4490,"▁主":4491,"▁也":4492,"▁习":4493,"▁了":4494,"▁事":4495,"▁亲":4496,"▁使":4497,"▁像":4498,"▁克":4499,"▁典":4500,"▁再":4501,"▁写":4502,"▁到":4503,"▁前":4504,"▁华":4505,"▁即":4506,"▁古":4507,"▁吃":4508,"▁同":4509,"▁周":4510,"▁哈":4511,"▁哪":4512,"▁困":4513,"▁坏":4514,"▁夜":4515,"▁够":4516,"▁娜":4517,"▁学":4518,"▁德":4519,"▁心":4520,"▁忙":4521,"▁恶":4522,"▁感":4523,"▁拉":4524,"▁据":4525,"▁提":4526,"▁数":4527,"▁日":4528,"▁月":4529,"▁杰":4530,"▁步":4531,"▁没":4532,"▁洛":4533,"▁海":4534,"▁深":4535,"▁清":4536,"▁火":4537,"▁热":4538,"▁物":4539,"▁珍":4540,"▁睡":4541,"▁石":4542,"▁站":4543,"▁等":4544,"▁紧":4545,"▁累":4546,"▁翻":4547,"▁联":4548,"▁苦":4549,"▁莫":4550,"▁见":4551,"▁视":4552,"▁警":4553,"▁记":4554,"▁诺":4555,"▁资":4556,"▁转":4557,"▁远":4558,"▁送":4559,"▁都":4560,"▁随":4561,"▁青":4562,"▁面":4563,"▁预":4564,"▁就是":4565,"▁别人":4566,"▁.\r\n":4567,"▁他们":4568,"▁微博":4569,"▁快乐":4570,"▁英语":4571,"▁成为":4572,"▁不能":4573,"▁安\r\n":4574,"▁放弃":4575,"▁真的":4576,"▁选择":4577,"▁一次":4578,"▁所以":4579,"▁总是":4580,"▁想要":4581,"▁已经":4582,"▁未来":4583,"▁10":4584,"▁其实":4585,"▁英文":4586,"▁ke":4587,"▁享受":4588,"▁最后":4589,"▁12":4590,"▁为什么":4591,"▁学会":4592,"▁就像":4593,"▁太多":4594,"▁心里":4595,"▁所有的":4596,"▁世上":4597,"▁早安":4598,"▁保持":4599,"▁ra":4600,"▁'t":4601,"▁北京":4602,"▁地址\r\n":4603,"▁活在":4604,"▁虽然":4605,"▁if":4606,"▁后悔":4607,"▁奇迹":4608,"▁真爱":4609,"▁孤单":4610,"▁还有":4611,"▁因为我":4612,"▁中国的":4613,"▁粉丝们":4614,"▁中文":4615,"▁经济":4616,"▁艰难":4617,"▁两个人":4618,"▁伤痛":4619,"▁目标":4620,"▁视频":4621,"▁随着":4622,"▁2013":4623,"▁完全":4624,"▁平凡":4625,"▁两人":4626,"▁单身":4627,"▁篇文章":4628,"▁专注":4629,"▁查看":4630,"▁激情":4631,"▁关注@":4632,"▁完美的":4633,"▁推荐关注\r\n":4634,"▁2012年":4635,"▁加拿大":4636,"▁=\r\n":4637,"▁布斯":4638,"▁努力工作":4639,"▁勇敢的做自己,不要为任何人而改变":4640,"、最":4641,"、队":4642,"、自由":4643,"、音乐":4644,"、有的":4645,"、自信":4646,"。\"":4647,"。《":4648,"。于":4649,"。别":4650,"。它":4651,"。就":4652,"。是":4653,"。爱":4654,"。。\r\n":4655,"。不是":4656,"。关注\r\n":4657,"。朋友":4658,"。不能":4659,"。爱情":4660,"。也许":4661,"。属于":4662,"。晚安\r\n":4663,"。有时":4664,"。谢谢":4665,"。3.":4666,"。抓住":4667,"。比如":4668,"。不能接受":4669,"。早\r\n":4670,"。It":4671,"。什么是":4672,"。这是我的":4673,"。耶和华":4674,"《神":4675,"《老":4676,"》:":4677,"》。\r\n":4678,"》第二":4679,"【果":4680,"【请":4681,"】你":4682,"】[心]":4683,"一人":4684,"一份":4685,"一半":4686,"一场":4687,"一夜":4688,"一日":4689,"一时":4690,"一朵":4691,"一眼":4692,"一草":4693,"一言":4694,"一路":4695,"一部":4696,"一。\r\n":4697,"一部分":4698,"三次":4699,"三道":4700,"上午":4701,"上多":4702,"上学":4703,"上获":4704,"上一个":4705,"上,你":4706,"上生活":4707,"上我的":4708,"上计较":4709,"上认真":4710,"下周":4711,"下一刻":4712,"不入":4713,"不动":4714,"不合":4715,"不喜":4716,"不展":4717,"不愿":4718,"不相":4719,"不着":4720,"不而":4721,"不胜":4722,"不许":4723,"不该":4724,"不说":4725,"不透":4726,"不了,":4727,"不觉得":4728,"不值得":4729,"不了。\r\n":4730,"不开心":4731,"不好,":4732,"不仅仅":4733,"不的努力":4734,"不错的":4735,"不做的事,这就是":4736,"不重要的人":4737,"与其":4738,"与别人":4739,"与他们":4740,"与别人的看法":4741,"与直觉":4742,"业家":4743,"两只":4744,"个小":4745,"个月":4746,"个词":4747,"个理由":4748,"个方向":4749,"个结局":4750,"个字母":4751,"中,":4752,"中心":4753,"中要":4754,"中的人":4755,"中有多":4756,"中学习英语":4757,"临在":4758,"为一":4759,"为爱":4760,"为谁":4761,"为难":4762,"为你的":4763,"举办":4764,"么?":4765,"之下":4766,"之为":4767,"之光":4768,"之外":4769,"之行":4770,"之道":4771,"之际":4772,"乎所有":4773,"乐趣":4774,"乐队":4775,"乐\r\n":4776,"也很":4777,"也是一":4778,"习语":4779,"书本":4780,"书的":4781,"买了":4782,"买到":4783,"乱了":4784,"了.":4785,"了你":4786,"了再":4787,"了呢":4788,"了好":4789,"了无":4790,"了,不":4791,"了,就":4792,"了朋友":4793,"了一天":4794,"了很多":4795,"了...\r\n":4796,"了你。\r\n":4797,"了进入":4798,"了,你会发现":4799,"了博文":4800,"事做":4801,"事是":4802,"事的":4803,"事,我不":4804,"二十年":4805,"于原":4806,"于未来":4807,"于千万":4808,"云图":4809,"五个":4810,"五大":4811,"五月":4812,"五种":4813,"亚里":4814,"交会":4815,"交友":4816,"交给":4817,"交网站":4818,"享有":4819,"人与":4820,"人会":4821,"人却":4822,"人地":4823,"人帮":4824,"人心":4825,"人更":4826,"人有":4827,"人要":4828,"人。\r\n":4829,"人,但是":4830,"人醒来":4831,"人怎样":4832,"人啊\r\n":4833,"人来说":4834,"仅是":4835,"今后":4836,"今生":4837,"从你":4838,"从来":4839,"从许多":4840,"从梦中":4841,"从书本":4842,"他,":4843,"他在":4844,"他妈":4845,"他有":4846,"他\r\n":4847,"他人的":4848,"他/她":4849,"付我":4850,"付出了":4851,"令你":4852,"令自己":4853,"以智":4854,"们心疼":4855,"价一个人":4856,"优越":4857,"会使":4858,"会在":4859,"会更":4860,"会觉得":4861,"会让你":4862,"会坚强":4863,"会遇见":4864,"会容易":4865,"会让我们":4866,"会爱上":4867,"会感动":4868,"会让你的":4869,"伤悲":4870,"伤。\r\n":4871,"但是":4872,"低时":4873,"住在你心里":4874,"何时":4875,"作和":4876,"作文":4877,"作曲":4878,"作回忆":4879,"你听":4880,"你对":4881,"你就":4882,"你眼":4883,"你被":4884,"你要":4885,"你请":4886,"你走":4887,"你没有":4888,"你不是":4889,"你喜欢":4890,"你可以":4891,"你需要":4892,"你成为":4893,"你不能":4894,"你的人,":4895,"你真正":4896,"你一直":4897,"你决定":4898,"你自己,":4899,"你原来":4900,"你是谁":4901,"你的人生":4902,"你生活的":4903,"你生命中的":4904,"你本来":4905,"你”;不要老":4906,"你,不管怎样,你还是要":4907,"使命":4908,"便应":4909,"保罗":4910,"信号":4911,"信和":4912,"信骗":4913,"信心\r\n":4914,"倒计":4915,"倾向":4916,"倾听":4917,"倾诉":4918,"做,":4919,"做梦":4920,"做鬼":4921,"做别人":4922,"做很多":4923,"做人的":4924,"做一些":4925,"做那个":4926,"做出了":4927,"做你想做":4928,"做了才知道。有些事,":4929,"做的事情就是":4930,"停下":4931,"停留在":4932,"偶然":4933,"偷偷":4934,"儿有":4935,"儿童":4936,"充分":4937,"先开":4938,"光,":4939,"光。":4940,"光明":4941,"克服":4942,"克》第二":4943,"免许多":4944,"入,我":4945,"全力":4946,"全国":4947,"全新的":4948,"公共":4949,"公平":4950,"公里":4951,"共度":4952,"兴趣":4953,"其它":4954,"其广":4955,"具有":4956,"典礼":4957,"内容":4958,"再度":4959,"再来":4960,"再成熟":4961,"军区":4962,"冷。":4963,"冷\r\n":4964,"几率":4965,"出卖":4966,"出发":4967,"出版":4968,"出。\r\n":4969,"出第一步":4970,"分之":4971,"分开":4972,"分手":4973,"分目":4974,"分配":4975,"则要":4976,"刚在":4977,"创业":4978,"初中":4979,"初恋":4980,"利亚":4981,"利用":4982,"别再":4983,"别让":4984,"到一":4985,"到位":4986,"到此":4987,"到目":4988,"到这":4989,"到那":4990,"到\r\n":4991,"到一起":4992,"到让你":4993,"到的人,都是":4994,"制作":4995,"制度":4996,"制造":4997,"前进":4998,"前面":4999,"前\r\n":5000,"剧本":5001,"力而":5002,"力下降":5003,"力所能":5004,"功\r\n":5005,"加入":5006,"加班":5007,"助于":5008,"助己":5009,"助手":5010,"勇往":5011,"包容":5012,"北卡":5013,"十八":5014,"午夜":5015,"午餐":5016,"华丽":5017,"华里,":5018,"博主":5019,"博客":5020,"即便":5021,"却知道":5022,"去何":5023,"去吧":5024,"去年":5025,"去看":5026,"去评":5027,"去过":5028,"去退":5029,"去相信":5030,"去等待":5031,"去尝试":5032,"去看看":5033,"去认识":5034,"去争取":5035,"又很":5036,"又要":5037,"及时":5038,"反对":5039,"发呆":5040,"发气":5041,"发的":5042,"发出来":5043,"取每":5044,"取舍":5045,"取知识":5046,"变强":5047,"口。\r\n":5048,"句型":5049,"句\r\n":5050,"另一条":5051,"另一个人的":5052,"只的":5053,"只需":5054,"只须":5055,"只代表":5056,"叫我":5057,"可及":5058,"可是":5059,"可不是":5060,"可爱的":5061,"吃点":5062,"各地":5063,"合理":5064,"同一":5065,"名的":5066,"后和":5067,"后果":5068,"后,你会发现":5069,"向任何人":5070,"否定":5071,"否认":5072,"吧?":5073,"吧[":5074,"吧。\r\n":5075,"吧,我":5076,"吧。。":5077,"吧,要":5078,"吧,因为你":5079,"听从":5080,"听过":5081,"听起来":5082,"吸引":5083,"呆着":5084,"员工":5085,"周四":5086,"周日":5087,"和对":5088,"和平":5089,"和率":5090,"和我的":5091,"和创造力":5092,"和教学":5093,"和沉默是":5094,"品脱":5095,"品质":5096,"哈:":5097,"哥哥":5098,"唯有":5099,"唱到":5100,"唱来":5101,"唱的":5102,"商,":5103,"啊。":5104,"喜乐":5105,"喜爱":5106,"器官":5107,"器:微笑":5108,"回想":5109,"回给你":5110,"因此":5111,"因一次":5112,"国之":5113,"国外":5114,"在:":5115,"在上":5116,"在了":5117,"在亚":5118,"在人":5119,"在想":5120,"在林":5121,"在街":5122,"在谈":5123,"在一个":5124,"在微博":5125,"在生命":5126,"在最后":5127,"在12":5128,"在担心":5129,"在人生":5130,"在情绪":5131,"在做事":5132,"在背后议论":5133,"地外":5134,"地看":5135,"地道":5136,"地\r\n":5137,"地挑战":5138,"地,用":5139,"场景":5140,"场比赛":5141,"坏\r\n":5142,"境地":5143,"境界":5144,"境,你":5145,"士\r\n":5146,"处的":5147,"外,还":5148,"多个":5149,"多远":5150,"多难":5151,"够了\r\n":5152,"大事":5153,"大声":5154,"大师":5155,"大道":5156,"大队":5157,"大雨":5158,"大的人":5159,"大部分":5160,"大,大":5161,"大多数":5162,"天拍":5163,"天的":5164,"天\r\n":5165,"天生的":5166,"太深":5167,"太短":5168,"太想念":5169,"太思考":5170,"头笑着":5171,"奇怪":5172,"奇\r\n":5173,"奥斯":5174,"奥丽·":5175,"女,":5176,"女人,":5177,"她就":5178,"好”":5179,"好友":5180,"好吃":5181,"好奇":5182,"好的\r\n":5183,"好好的":5184,"好起来":5185,"好一点":5186,"好梦\r\n":5187,"如同":5188,"如生的":5189,"如同一个":5190,"子:":5191,"子。":5192,"子图":5193,"字典":5194,"学生":5195,"学英文":5196,"学生的":5197,"宁可":5198,"宁静":5199,"它。":5200,"它就":5201,"它打":5202,"它成为":5203,"它怎样":5204,"它,成功":5205,"安定":5206,"安装":5207,"定。":5208,"宝宝":5209,"宝\r\n":5210,"实行":5211,"客\r\n":5212,"害的":5213,"家的":5214,"家\r\n":5215,"对?":5216,"对中":5217,"对它":5218,"对此":5219,"对象":5220,"对世界":5221,"对别人":5222,"对过去":5223,"对某个人":5224,"寻求":5225,"将不":5226,"将有":5227,"将永远":5228,"将过去":5229,"将他带":5230,"小学":5231,"小说":5232,"小龙":5233,"小子\r\n":5234,"少些":5235,"少数":5236,"尔.":5237,"尚:":5238,"就得":5239,"就有":5240,"就能改变":5241,"就不要放弃":5242,"就睡多久":5243,"尽情":5244,"尽量":5245,"尽可能":5246,"尽全力":5247,"山顶":5248,"山奇\r\n":5249,"工业":5250,"工人":5251,"工具":5252,"巨星":5253,"巨大的":5254,"巨人,":5255,"巨人醒来":5256,"差不多":5257,"巴特":5258,"带上":5259,"带给":5260,"带。\r\n":5261,"带给你":5262,"干,":5263,"干\r\n":5264,"平安":5265,"年4":5266,"年9":5267,"年内":5268,"年。\r\n":5269,"年华里,":5270,"并写":5271,"并不能":5272,"庆幸":5273,"应对":5274,"应用":5275,"应付我":5276,"底线":5277,"底\r\n":5278,"座右":5279,"建立":5280,"建造":5281,"开,":5282,"开头":5283,"开,你":5284,"当成":5285,"当的":5286,"当一切":5287,"当一点":5288,"当巨人醒来":5289,"录音":5290,"往事":5291,"很棒":5292,"很短":5293,"很累":5294,"很失败":5295,"很特别":5296,"很小,":5297,"很开朗":5298,"很大,大":5299,"得多":5300,"得很":5301,"得我":5302,"得救":5303,"得时候":5304,"得不到":5305,"得太多":5306,"得进来":5307,"得忘了梦想":5308,"得真正的幸福,我们需要保持耐心。因为":5309,"心安":5310,"心底":5311,"心无":5312,"心灵":5313,"心的人":5314,"心的,":5315,"心动的":5316,"心动\r\n":5317,"心爱的人,":5318,"心的是,我":5319,"必有":5320,"必背":5321,"忍不住":5322,"志愿":5323,"忧。\r\n":5324,"忧伤的":5325,"快樂":5326,"念头":5327,"怀念":5328,"怀抱":5329,"怕只是":5330,"性恋":5331,"总有":5332,"总结":5333,"总能":5334,"恨我":5335,"恨不得":5336,"恶都":5337,"悔恨":5338,"情下":5339,"情愿":5340,"想一":5341,"想去":5342,"想见":5343,"想达":5344,"想一个人":5345,"想到的":5346,"想睡多久":5347,"意志":5348,"意见":5349,"意\r\n":5350,"意想不到":5351,"感。":5352,"感,但":5353,"愿以":5354,"成的":5355,"我到":5356,"我吃":5357,"我爱":5358,"我要":5359,"我走":5360,"我还":5361,"我。\r\n":5362,"我知道":5363,"我不会":5364,"我觉得":5365,"我还是":5366,"我。你":5367,"我都不":5368,"我内心":5369,"我,我就":5370,"我不在乎":5371,"我手所":5372,"我最好的一面":5373,"我,那只能说明":5374,"或不知道":5375,"所\r\n":5376,"所决定":5377,"所爱,":5378,"手,":5379,"手不":5380,"手娜":5381,"手,一":5382,"手同行":5383,"才照":5384,"才开始":5385,"才明白":5386,"打着":5387,"打破":5388,"打电话":5389,"找口":5390,"把我们":5391,"把什么":5392,"投影":5393,"报告":5394,"报复":5395,"担当一点":5396,"拉克":5397,"拍\r\n":5398,"指向":5399,"指引":5400,"指的是":5401,"掌]":5402,"接住":5403,"收视":5404,"收到的":5405,"改善":5406,"改正":5407,"放军":5408,"救的":5409,"教人怎样":5410,"数着":5411,"文件":5412,"文学":5413,"文\r\n":5414,"文应该":5415,"断地挑战":5416,"斯·":5417,"斯\r\n":5418,"新一":5419,"新浪":5420,"方便":5421,"无怨":5422,"无数":5423,"无的":5424,"无知":5425,"无缺":5426,"无需":5427,"日出":5428,"日前":5429,"日常":5430,"旦破":5431,"早餐":5432,"早好\r\n":5433,"时报":5434,"时记忆":5435,"时,那些":5436,"明。":5437,"明智":5438,"星期":5439,"春运":5440,"昨晚":5441,"是真":5442,"是色":5443,"是跟":5444,"是时候":5445,"是不够":5446,"是完全":5447,"是确定":5448,"是怎么样":5449,"是无可":5450,"是教人怎样":5451,"显然":5452,"显龙":5453,"曲\r\n":5454,"更要":5455,"更坚强":5456,"更好\r\n":5457,"更失望":5458,"替代":5459,"最低":5460,"最棒":5461,"最神":5462,"最需要":5463,"最应该":5464,"最美好":5465,"最伤心":5466,"最简单的":5467,"月\r\n":5468,"有余":5469,"有深":5470,"有着":5471,"有,所以":5472,"有许多":5473,"有过的东西":5474,"有担当一点":5475,"服的。":5476,"望必须":5477,"朝你":5478,"期限":5479,"末日":5480,"本\r\n":5481,"机器":5482,"权利":5483,"权威":5484,"李小龙":5485,"李显龙":5486,"来爱你":5487,"来看看":5488,"来表示":5489,"杯子":5490,"林肯":5491,"林其广":5492,"果然":5493,"某事":5494,"某种":5495,"某一天":5496,"某人,":5497,"标准":5498,"样子。\r\n":5499,"格拉":5500,"梦境":5501,"梦见":5502,"模式":5503,"模样":5504,"次的":5505,"欢欣":5506,"欺的,":5507,"歌手娜":5508,"正日":5509,"段台词":5510,"母。":5511,"母鸡":5512,"比冷":5513,"比\r\n":5514,"比你的":5515,"比别人":5516,"比任何":5517,"毛病":5518,"毛的人":5519,"民主义":5520,"永生":5521,"求婚":5522,"求职":5523,"求在我":5524,"求得真正的幸福,我们需要保持耐心。因为":5525,"沉睡":5526,"沙热烈":5527,"没能":5528,"没了自己":5529,"治国,":5530,"法、":5531,"波:":5532,"注明":5533,"泰尔":5534,"洛克》第二":5535,"活动":5536,"活\r\n":5537,"派,":5538,"流泪":5539,"流行":5540,"流言":5541,"消失":5542,"消极":5543,"清醒":5544,"游。\r\n":5545,"源于":5546,"满意":5547,"演唱":5548,"潮流":5549,"点!":5550,"点也是":5551,"点点的":5552,"点击\r\n":5553,"然泪":5554,"然心动\r\n":5555,"照顾":5556,"爱她":5557,"爱的时候":5558,"爱唯美":5559,"爱了以后":5560,"父母。":5561,"片子":5562,"版本":5563,"版\r\n":5564,"版】[心]":5565,"物质":5566,"特的":5567,"犯错":5568,"犯错误":5569,"球的":5570,"球队":5571,"甜\r\n":5572,"甜的,":5573,"甜的\r\n":5574,"生病":5575,"生\r\n":5576,"生至少":5577,"用助":5578,"用的":5579,"用这":5580,"用\r\n":5581,"用一切":5582,"用一辈子":5583,"由于":5584,"电站":5585,"电信骗":5586,"男友":5587,"男子":5588,"留下":5589,"留着":5590,"留足":5591,"留作回忆":5592,"疯子\r\n":5593,"疼痛":5594,"痛楚":5595,"痛。\r\n":5596,"痛心的是,我":5597,"百万":5598,"的7":5599,"的?":5600,"的“":5601,"的丧":5602,"的医":5603,"的味":5604,"的喜":5605,"的希":5606,"的性":5607,"的恶":5608,"的新":5609,"的棒":5610,"的每":5611,"的留":5612,"的的":5613,"的红":5614,"的让":5615,"的起":5616,"的轻":5617,"的间":5618,"的难":5619,"的面":5620,"的一个":5621,"的知道":5622,"的快乐":5623,"的英语":5624,"的过去":5625,"的可能":5626,"的。(":5627,"的学习":5628,"的你\r\n":5629,"的电影":5630,"的自由":5631,"的内心":5632,"的仅仅":5633,"的理解":5634,"的发展":5635,"的能力":5636,"的到来":5637,"的国家":5638,"的困难":5639,"的伤痛":5640,"的城市":5641,"的童话":5642,"的天空":5643,"的旅行":5644,"的精神":5645,"的每一":5646,"的食物":5647,"的无所谓":5648,"的去评":5649,"的品质":5650,"的宁静":5651,"的山顶":5652,"的巨人,":5653,"目,":5654,"目光":5655,"目的。":5656,"直接":5657,"直面":5658,"相见":5659,"相。\r\n":5660,"看完":5661,"看懂":5662,"看着":5663,"看你的":5664,"看不见":5665,"看他有":5666,"真理":5667,"眼里":5668,"眼,却":5669,"眼中的":5670,"着要":5671,"着你的":5672,"睡着":5673,"睡不着":5674,"知足":5675,"短信":5676,"短短":5677,"短,什么":5678,"石油":5679,"破碎":5680,"确认":5681,"碎使你更":5682,"社交网站":5683,"祝大家":5684,"福第一":5685,"离去":5686,"种人在":5687,"称,":5688,"程度":5689,"空间":5690,"空。\r\n":5691,"童鞋":5692,"笑,":5693,"笑的时候":5694,"笑;你":5695,"笑得时候":5696,"等被":5697,"等\r\n":5698,"答,":5699,"管他":5700,"管它怎样":5701,"米比亚":5702,"粉http://t.cn/z":5703,"精力":5704,"紧,":5705,"紧要":5706,"累,没人能":5707,"繁华":5708,"红酒,":5709,"约了我":5710,"纳米比亚":5711,"练有的":5712,"经常":5713,"结婚":5714,"结论":5715,"给出":5716,"给你的":5717,"给别人":5718,"给更好的人":5719,"统统":5720,"维尔":5721,"维斯":5722,"罗斯":5723,"罪恶":5724,"美儿":5725,"美语":5726,"老成":5727,"者的":5728,"者\r\n":5729,"者认为":5730,"而且":5731,"而变":5732,"而是":5733,"而言":5734,"而生活":5735,"而生存":5736,"而哭泣,":5737,"而活\r\n":5738,"背景,":5739,"能、":5740,"能使":5741,"能将":5742,"能骗":5743,"能\r\n":5744,"能一起":5745,"能感觉":5746,"能让你":5747,"能把你":5748,"能做的":5749,"脱离":5750,"自来":5751,"至19":5752,"致的":5753,"舍弃":5754,"花开":5755,"英赛":5756,"行善":5757,"表明":5758,"表演":5759,"表面":5760,"表了博文":5761,"被禁止":5762,"要么":5763,"要像":5764,"要去":5765,"要梦想":5766,"要努力":5767,"要精彩":5768,"要遇到":5769,"要回头":5770,"要比你":5771,"要做的就是":5772,"要掌控":5773,"见过":5774,"解放军":5775,"言人":5776,"认真的":5777,"讨你,":5778,"让每个":5779,"让每个人都":5780,"让不重要的人":5781,"记>":5782,"记录":5783,"记的":5784,"记\r\n":5785,"讲话":5786,"许愿":5787,"论是":5788,"论什么时候":5789,"设身":5790,"词\r\n":5791,"诗篇":5792,"诗人,":5793,"诚实的":5794,"话就":5795,"该怎么":5796,"说。\r\n":5797,"说你不":5798,"说的话":5799,"说,我不":5800,"说对不起":5801,"说不出":5802,"说三道":5803,"诺言":5804,"读懂":5805,"课的":5806,"课程":5807,"谈恋":5808,"谈话":5809,"谈安定":5810,"象你的心":5811,"负重":5812,"败了,不":5813,"购物":5814,"资本":5815,"资源":5816,"赢得":5817,"走了":5818,"走出我的":5819,"走,那叫":5820,"赶走":5821,"起了":5822,"起诉":5823,"起\r\n":5824,"越是":5825,"足以":5826,"跟我":5827,"身上的":5828,"车。\r\n":5829,"车电话":5830,"轻信":5831,"轻学英语":5832,"边缘":5833,"过后":5834,"过客":5835,"过着":5836,"过\r\n":5837,"过。\r\n":5838,"过我,":5839,"过什么,":5840,"近在":5841,"近。\r\n":5842,"还不":5843,"还得":5844,"还想":5845,"还童":5846,"还不够":5847,"这一":5848,"这会":5849,"这是一":5850,"这篇文章":5851,"这段台词":5852,"进口":5853,"进步":5854,"远的距离":5855,"迷了":5856,"迷恋":5857,"追美剧":5858,"适应":5859,"适当的":5860,"透明":5861,"通常":5862,"通道":5863,"速发展":5864,"道#":5865,"道别":5866,"道路":5867,"遗。\r\n":5868,"那就是":5869,"部的":5870,"部电影":5871,"都上":5872,"都跟":5873,"都不要":5874,"都需要":5875,"都无法":5876,"都必须":5877,"都应该":5878,"都为你":5879,"都结束":5880,"都变得":5881,"都没能":5882,"酸甜":5883,"释怀":5884,"释放":5885,"里奇":5886,"里。\r\n":5887,"重复":5888,"量化":5889,"金正日":5890,"钟表":5891,"钱无法":5892,"错,但":5893,"错的,":5894,"错了才知道。有些事,":5895,"键是":5896,"长在":5897,"门运":5898,"门\r\n":5899,"门会让你的":5900,"问\r\n":5901,"问:“":5902,"问,不代表":5903,"问心无":5904,"降临":5905,"降低":5906,"限量":5907,"随时":5908,"随风":5909,"随他们":5910,"难受":5911,"难,但":5912,"难,有":5913,"集\r\n":5914,"青年":5915,"静音":5916,"靠近":5917,"面,却":5918,"音响":5919,"顶时":5920,"项调查":5921,"顺着":5922,"顾一切":5923,"预见":5924,"领人":5925,"频道":5926,"题目":5927,"风得":5928,"风行":5929,"风尚:":5930,"飞起来":5931,"飞开了。\r\n":5932,"马上":5933,"马的":5934,"高考":5935,"高频":5936,"鸡蛋":5937,"黑的大":5938,"鼓励":5939,"鼓舞":5940,"鼓掌]":5941,"龙头":5942,"龙的存在":5943,"我们没有":5944,"我们还是":5945,"我们必须":5946,"我们是否":5947,"我们心中":5948,"自己学":5949,"自己生活":5950,"自己长大":5951,"自己失去了":5952,"一个会":5953,"一个全":5954,"一个机会":5955,"一个地方":5956,"一个时刻":5957,"一个简单的":5958,"一个转身":5959,"的人们":5960,"的人多":5961,"的人是":5962,"的人,不":5963,"的人,而是":5964,"的人除了":5965,"的人,就像":5966,"的人,就算":5967,"的人有福":5968,"▁我不":5969,"▁我也":5970,"▁我将":5971,"▁我恨":5972,"▁我请":5973,"▁我希望":5974,"▁我总是":5975,"▁我以为":5976,"▁我就是我,":5977,"▁我在这里\r\n":5978,"▁我会坚强":5979,",你就是":5980,",你是我":5981,",你就会":5982,"你的。":5983,"你的\r\n":5984,"你的。\r\n":5985,"你的生命":5986,"你的周围":5987,"你的幻想":5988,"你的代价":5989,"你的爱人":5990,"生活和":5991,"生活是":5992,"生活,不是":5993,"生活给你":5994,"生活就会":5995,"生活讨价还价":5996,",不懂":5997,",不曾":5998,",不在于":5999,",不在乎":6000,",不能改变":6001,"就是个":6002,",我为":6003,",我爱":6004,",我要":6005,",我爱你":6006,",我那些":6007,",我都会":6008,",我活的":6009,",我只想":6010,"没有朋友":6011,"没有一点":6012,"没有鞋子":6013,"什么就":6014,"什么,而":6015,"时候你的":6016,"不要老":6017,"不要错过":6018,"如果他们":6019,",但却":6020,",但绝":6021,",但这":6022,",但是我":6023,",但这是":6024,",但有钱了,":6025,",而要":6026,",而非":6027,",而不知道":6028,",而其他":6029,"不是你本来":6030,"不是数着":6031,"喜欢,":6032,"喜欢\r\n":6033,"喜欢就是":6034,"喜欢那些":6035,"喜欢你\r\n":6036,"知道自己想要":6037,"知道得太多":6038,"的事是":6039,"的事,是":6040,"世界:":6041,"世界来说,你":6042,"世界末日":6043,"可以多":6044,"可以把":6045,"可以拿":6046,"可以改变":6047,"可以给你":6048,"可以从许多":6049,"可以飞起来":6050,"关注你,":6051,"一个人是":6052,"一个人。\r\n":6053,"一个人有多":6054,"一个人,只是":6055,"一个人呆着":6056,"ins":6057,"int":6058,"▁你需要":6059,"▁你无法":6060,"▁你已经":6061,"▁你永远不会":6062,"▁你每天都在":6063,"erry":6064,"别人怎么":6065,"别人对你的":6066,"的,\r\n":6067,"的,更要":6068,"的,我们必须":6069,",就会":6070,",就得":6071,",就放":6072,",就越":6073,",就放弃":6074,",就不知道":6075,"//@经典":6076,"不会在":6077,"不会害怕":6078,"ane":6079,"ant":6080,"ance":6081,"onver":6082,"oney":6083,"他们必":6084,"永远的":6085,"永远不要":6086,"永远无法":6087,"永远都在":6088,"永远都不会":6089,"的一次":6090,"的一生":6091,"的一句话":6092,"的一首歌":6093,"out":6094,"ould":6095,"ouse":6096,"oupon":6097,"微博并":6098,"快乐、":6099,"快乐的人":6100,"快乐![":6101,"快乐的事情。\r\n":6102,",那只不过":6103,"需要一个":6104,"需要勇气":6105,"▁有时":6106,"▁有没有":6107,"▁有爱的":6108,"▁有的人你看":6109,"了,可":6110,"了,爱":6111,"了,大家":6112,"了,然后":6113,"了,才明白":6114,"我的世界":6115,"我的生命":6116,"我的眼泪":6117,"▁如果他":6118,"▁如果有人":6119,"是一位":6120,"是一名":6121,"是一朵":6122,"的时候\r\n":6123,"的时候,不要":6124,"的时候出现":6125,"hell":6126,"拥有一个":6127,"拥有的东西":6128,"拥有你从未":6129,"只是通":6130,"只是一个":6131,"只是用来":6132,"只是给更好的人":6133,"幸福安":6134,"幸福的":6135,"朋友,":6136,"朋友\r\n":6137,"朋友的价值":6138,"英语推荐":6139,"▁人的":6140,"▁人与人":6141,"无法再":6142,"无法解决":6143,"无法承受":6144,",也别":6145,",也没有":6146,",也不想":6147,"重要\r\n":6148,"重要的事情":6149,"重要的。":6150,"重要的不是":6151,"重要的心情":6152,"今天开始":6153,"今天是我":6154,"今天,期待":6155,"改变\r\n":6156,"改变,不能改变":6157,"成为数":6158,"成为你的":6159,"成为什么样":6160,"成为第一个":6161,"。。......":6162,"。。。【":6163,"成功了":6164,"成功,不要":6165,"这个决定":6166,"开始,":6167,"开始了,":6168,"开始新的":6169,"开始了!":6170,",因为别人":6171,",因为只有你":6172,"ree":6173,"ren":6174,"ret":6175,"ream":6176,"▁在我":6177,"▁在我们":6178,"▁在这个":6179,"▁在你想要":6180,"▁在这世上":6181,"▁在找到合适的人":6182,"▁不要去":6183,"▁不要等待":6184,"▁不要着,":6185,"▁不要根据":6186,"▁不要失去希望":6187,"▁不要轻信":6188,"▁不要知道得太多":6189,"不能服":6190,"不能应付我":6191,"爱你,所以":6192,"爱情\r\n":6193,"爱情故事":6194,"爱情的世界":6195,"爱情结束了":6196,"梦想\r\n":6197,"都是影子":6198,"都是小事":6199,"自己的生活":6200,"自己的,不要":6201,"自己的方式":6202,"自己的内心":6203,"▁al":6204,"▁app":6205,"▁acc":6206,"▁//@2013":6207,"▁//@THEd":6208,"▁//@波:":6209,"▁//@的童话":6210,",有你的":6211,",有一点点":6212,"▁当有人":6213,"中国人":6214,"中国\r\n":6215,"中国人民":6216,"努力。":6217,"努力!\r\n":6218,"还是可以":6219,"过去\r\n":6220,"过去发生":6221,"过去,它":6222,"过去,不如":6223,"过去的历":6224,"那些最":6225,"那些对你":6226,"那些不愿":6227,"的人,就是":6228,"的人,其实":6229,"的人,到哪":6230,",而是没有人":6231,"itor":6232,"ities":6233,"希望\r\n":6234,"微笑着":6235,"微笑的人,":6236,"微笑活在当下":6237,"的事情上":6238,"相信她":6239,"相信它,成功":6240,"任何东西":6241,"任何事情":6242,"放弃\r\n":6243,"真的是":6244,"选择,":6245,"选择去做":6246,"ated":6247,"美国作家":6248,"▁sh":6249,"▁son":6250,"▁say":6251,"▁some":6252,"▁syst":6253,"了。我":6254,"了。——":6255,"了。也许":6256,",是你":6257,",是一个":6258,",是为了":6259,",是因为你":6260,",是在最后":6261,"▁wis":6262,"▁wing":6263,"▁will":6264,"▁wait":6265,"的是你":6266,"真正喜欢":6267,"真正拥有":6268,"orities":6269,"▁生活就是":6270,"▁生活是一":6271,"▁生活就像":6272,"▁生活有时":6273,"▁生活是一场":6274,"。(言\r\n":6275,"。(美国总统":6276,",一切":6277,",一直":6278,",一点点的":6279,",一种人在":6280,"▁不求":6281,"▁不知":6282,"▁不过":6283,"很多次":6284,"很多问题":6285,"看到你的":6286,"看到的\r\n":6287,"看到什么样":6288,"看到的,有":6289,",却了一辈子":6290,"enjam":6291,"isc":6292,"ish":6293,"▁hit":6294,"▁http://t.cn/":6295,"▁how":6296,"▁hur":6297,"▁here":6298,"▁muc":6299,"▁more":6300,"▁morning":6301,"总是值得等待":6302,"总是有,所以":6303,"想要的":6304,"找到这样":6305,"起来的。":6306,"▁如果你要":6307,"▁如果你想要":6308,"▁如果你放不下":6309,"▁如果你在背后议论":6310,"ve-th":6311,"▁每日":6312,"只要活着":6313,"的。比如":6314,"▁我们都有":6315,"▁我们的生命":6316,"你,是一种":6317,"一切会容易":6318,"一切,但有钱了,":6319,"发生了太多":6320,"在于你自己":6321,"工作人员":6322,"感觉有点":6323,"...还是":6324,",它们":6325,",它却":6326,",它也会":6327,",它总会":6328,"tter":6329,"▁(微-信-号\r\n":6330,"▁(学英语好心情,关注\r\n":6331,"已经感觉":6332,"已经失去的,":6333,"必须去做":6334,"必须有,":6335,"来自美国":6336,"▁这是":6337,"▁这是我":6338,"▁这是我的":6339,"一点时间":6340,"为了求得真正的幸福,我们需要保持耐心。因为":6341,"让你看到的\r\n":6342,"那么短,什么":6343,"▁they":6344,"一直都":6345,"人,手":6346,"坚强,眼泪":6347,"应该是":6348,"应该努力":6349,",要有勇气":6350,",要看他有":6351,"▁St":6352,"▁Sw":6353,"▁She":6354,"▁Sho":6355,"▁Sch":6356,"▁S-M":6357,"。——自《":6358,"。——山奇\r\n":6359,"一样\r\n":6360,"一样。\r\n":6361,"决定就能改变":6362,"出来的\r\n":6363,"出来,但我":6364,"发现原来":6365,"发现自己的错误是":6366,"忘记了":6367,"忘记你":6368,"忘记。不能":6369,",不是“":6370,",但是最终":6371,"▁人生也许就是":6372,"▁人生重要的事情":6373,"▁当你停止":6374,"▁当你再成熟":6375,"200":6376,"2010":6377,"▁@OMG":6378,"▁call":6379,"▁care":6380,"失败。\r\n":6381,"失败的恐惧":6382,"接受,改变":6383,"未来。\r\n":6384,"未来,因它会":6385,"10分钟":6386,"ed,":6387,"editor":6388,"thorities":6389,"▁day":6390,"▁fall":6391,"▁fight":6392,"▁feel":6393,"哈哈哈":6394,"无论你是否":6395,"有多么":6396,"有多长":6397,"精彩许多":6398,"都会累,没人能":6399,",不要浪费时间":6400,",不要想睡多久":6401,",不要忘记。不能":6402,"▁but":6403,"▁old":6404,"。我会":6405,"。我真的":6406,"想做,会":6407,"想做却不能":6408,"想做。这是我的":6409,"想做什么就":6410,"的东西总是有,所以":6411,"等待老天":6412,"认为我":6413,"▁有时候,我":6414,"▁有时候,我们":6415,",让它成为":6416,"leep":6417,"▁一句":6418,"▁一旦":6419,"▁一生至少":6420,"日子都变得":6421,"机会。":6422,"问题。":6423,"问题的":6424,"问题。\r\n":6425,"问题都是":6426,"▁there":6427,"▁think":6428,"aya":6429,"aybe":6430,"▁pl":6431,"▁par":6432,"▁pres":6433,"中的伤痛":6434,"你们\r\n":6435,"并不值得":6436,"并不意味着":6437,"的那个":6438,"的那样":6439,"美丽\r\n":6440,"ask":6441,"asy":6442,"。你就是":6443,"了一眼,却":6444,"在乎人地":6445,"尝试才是":6446,"时,奇迹":6447,"时,善待":6448,"时,随他们":6449,"给你上一":6450,"美好事物":6451,"醒来都要":6452,"own":6453,"ower":6454,"▁喜欢就关注\r\n":6455,"为什么还":6456,"也许会":6457,"其他地方":6458,"勇气。\r\n":6459,"原文\r\n":6460,"学会了":6461,"得到的":6462,"得到你想要":6463,"得到的,更要":6464,"忘了答应":6465,"最好的总会":6466,"那个对":6467,"那个错的人":6468,",在我":6469,"aldo":6470,"ice":6471,"ick":6472,"icky":6473,"▁Bu":6474,"▁Bar":6475,"▁Bab":6476,"▁Benjam":6477,"▁Co":6478,"▁Cu":6479,"▁[b":6480,"▁[太阳]":6481,"。[太阳]":6482,"。[阳光]":6483,"。[抱抱]":6484,"。但是":6485,"。但是,":6486,"一下吧":6487,"一下。\r\n":6488,"一句“":6489,"伤心,不是因为":6490,"在你身边":6491,"地方就有":6492,"就会发生":6493,"就会发现":6494,"离开你的生活":6495,"阳光\r\n":6496,"阳光才照":6497,"▁有些事情":6498,"▁有些事,我不":6499,"意味着永远":6500,"意味着两个人":6501,"!!!!":6502,",并决心":6503,",每个人":6504,",每一天":6505,",每一次":6506,",每一次的":6507,"odel":6508,"▁live":6509,"▁对世界来说,你":6510,"分享。":6511,"勇敢地":6512,"勇敢,谁":6513,"勇敢,心":6514,"地址:":6515,"地址:http://t.cn/z":6516,"太多。\r\n":6517,"心里面,却":6518,"昨天,活在":6519,"错误的":6520,",当我们":6521,",当了,你会发现":6522,"▁God":6523,"▁Gun":6524,"。【口英语":6525,"一定程度":6526,"不了你,":6527,"不了决定":6528,"容易失去":6529,"早安!":6530,"的心,一个":6531,"自由的人除了":6532,"追求成功":6533,"追求一草":6534,"都有一些":6535,",只是不":6536,",所以我":6537,",所以只要活着":6538,"ace":6539,"ach":6540,"ecret":6541,"▁Aok":6542,"▁AMG":6543,"▁get":6544,"▁爱情就像":6545,"▁爱情是,":6546,"▁it.":6547,"你不想做却不能":6548,"吗?我":6549,"在我身边":6550,"女孩浪漫":6551,"好好地":6552,"如何用":6553,"时刻表":6554,"期待。":6555,"让自己变得":6556,"许多人":6557,"许多你不想做却不能":6558,",才有":6559,"▁expect":6560,"▁生命中":6561,"▁生命中有":6562,"▁生命必须有,":6563,"。--《":6564,"。--泰尔":6565,"为你做":6566,"为你承担":6567,"你自己。":6568,"原来爱情的世界":6569,"回忆,":6570,"总会找到":6571,"总会让步":6572,"感谢你":6573,"挑战,世界":6574,"结束而哭泣,":6575,"让我笑起来":6576,"长大越":6577,"长大了才知道":6578,"的一切\r\n":6579,"的一切。\r\n":6580,",以至于":6581,",还不如":6582,"0000":6583,"001:":6584,"▁The":6585,"▁新的一天":6586,"▁没有比":6587,"不过是":6588,"也不好":6589,"也不值得拥有":6590,"告诉孩子":6591,"告诉你,我":6592,"害怕失去":6593,"属于你的":6594,"属于你;":6595,"成长,":6596,"时光\r\n":6597,"时光。\r\n":6598,"晚安外院\r\n":6599,"珍惜。属于":6600,"的爱,她":6601,"的话,":6602,"继续向前":6603,"说“”,":6604,"身边\r\n":6605,"部分的":6606,"的一天\r\n":6607,",他说":6608,"rive-th":6609,"▁做你想做":6610,"▁别了":6611,"▁大挑战,世界":6612,"不同的结局":6613,"之间的":6614,"之间左右":6615,"事,原来":6616,"人生中":6617,"仅仅在于你自己":6618,"优秀的品质":6619,"做的工":6620,"到的每件事":6621,"命运。\r\n":6622,"多少苦":6623,"并不是要":6624,"影响到":6625,"影响了自己":6626,"有些人":6627,"有些好":6628,"经典语录":6629,"经典台词":6630,"经典文字":6631,"非常不":6632,"非常重要的。":6633,"是一种用任何":6634,"是一种遇见,不能":6635,",会难过":6636,",别在":6637,",别让":6638,",可我内心":6639,"▁Ma":6640,"▁Moore":6641,"▁ones":6642,"▁幸福是":6643,"▁幸福不是":6644,"▁幸福不在于":6645,"▁成功的":6646,"▁成功就是":6647,"▁很多事情":6648,"▁无论多么艰难":6649,"▁无论过去发生":6650,"你有两只":6651,"分钟的":6652,"变成现实":6653,"呢?[":6654,"呢?\r\n":6655,"将会在":6656,"方法就是":6657,"早上都":6658,"明白,真爱":6659,"明白,我那些":6660,"每个人都有":6661,"的感觉是":6662,"经历过":6663,"能力:":6664,"音乐剧":6665,"你的生活中":6666,"▁每个人心中":6667,"▁每个人都会累,没人能":6668,"ly.":6669,"▁2.":6670,"▁年轻":6671,"▁年后,":6672,"▁世界上最美妙的一件事是,当你拥抱一个你爱的人,他竟然把你抱得更紧":6673,"你所取":6674,"再也不要":6675,"再也不能":6676,"出去,":6677,"受伤,没":6678,"和你一起":6679,"和你在一起":6680,"回来,那么":6681,"多么的":6682,"对我说":6683,"带来喜乐":6684,"当下,让它成为":6685,"恐惧;":6686,"疯狂的事":6687,"看看,否则":6688,"表达方式":6689,"表达的温":6690,"解决很多问题":6691,"足够坚强":6692,"什么样的内心":6693,",但我相信":6694,"拥有的,不要忘记。不能":6695,"任何人,因为":6696,",要么忍":6697,",要么让人":6698,"更多精彩请关注\r\n":6699,"▁new":6700,";不要等到":6701,"▁#Ian":6702,"▁#每日一句":6703,"▁F.":6704,"▁Fr":6705,"▁Fri":6706,"。如果有时候":6707,"一生中有多":6708,"会有那么":6709,"停止了":6710,"到来,也不会":6711,"到来,但它值得等待":6712,"原谅别人":6713,"原谅一个人,只是":6714,"对不对?":6715,"悲伤。\r\n":6716,"放手。\r\n":6717,"放手与坚持":6718,"智慧,能":6719,"更好。":6720,"每日英语推荐":6721,"爱我所爱,":6722,"生气1小时":6723,"越来越少":6724,"轻易到来,但它值得等待":6725,"的人生,":6726,",我就永远":6727,"一个人,即使":6728,",也不愿意":6729,",也许你会":6730,"成功的秘诀":6731,"成功的望必须":6732,",因为你看到的,有":6733,"ess.":6734,"▁thats":6735,",那么你永远也":6736,",那么你必须去做":6737,",那么你也不值得拥有":6738,",最终":6739,",最重要的是":6740,"ally":6741,"uty":6742,"▁天.\r\n":6743,"▁一个自由的人除了":6744,"一只用助":6745,"一颗星星":6746,"下来,":6747,"下来是因为":6748,"不可动的":6749,"不好就出去":6750,"之中\r\n":6751,"做的事才是":6752,"全球的":6753,"各位,早安\r\n":6754,"唯美英语":6755,"在那儿":6756,"奋斗将来":6757,"很难。":6758,"手机版】[心]":6759,"漂亮的外表":6760,"演讲,":6761,"演讲】":6762,"生日\r\n":6763,"的不是你":6764,"经济体":6765,"给了我们":6766,"▁人们总说":6767,"▁人们伤心,不是因为":6768,"▁happ":6769,"一直在寻找":6770,"美丽的忧伤的":6771,",然后在":6772,",何时":6773,",何来":6774,",世界也会":6775,"▁Kore":6776,"▁想你,是一种":6777,"▁祝大家":6778,"▁若无其":6779,"▁不是没":6780,"▁our":6781,"▁reason":6782,"▁微笑和沉默是":6783,"▁美国习语":6784,"▁学习昨天,活在":6785,"。而你":6786,"。早安~(关注\r\n":6787,"一条,":6788,"下的叫":6789,"不喜欢你的人":6790,"公司的":6791,"决心想达":6792,"在意你的":6793,"年的第一天":6794,"年轻人":6795,"幸运的,":6796,"收获都必须":6797,"政府购":6798,"晚上睡觉":6799,"有勇气去":6800,"正确的事情":6801,"的前后":6802,"的前面\r\n":6803,"目标,并决心":6804,"研究和教学":6805,"童话故事":6806,"自我。\r\n":6807,"视频\r\n":6808,"这世上只有":6809,"没有人可以":6810,"知道我有多么":6811,"ange":6812,"angry":6813,",而是你没有":6814,",因此":6815,",把手":6816,",看我":6817,":有时候,":6818,"Chrom":6819,"▁Lin":6820,"▁What":6821,"▁从来":6822,"▁太耀眼":6823,"▁马克":6824,"▁马太福音":6825,"▁-----":6826,"▁朋友是":6827,"▁朋友就是":6828,"之后就不要":6829,"你想做却不能":6830,"使用该":6831,"使用。\r\n":6832,"去爱;不要等到":6833,"大学生":6834,"安全感":6835,"影子,当了,你会发现":6836,"找不到那个对":6837,"提醒自己,":6838,"提高英语":6839,"最重要的\r\n":6840,"月30":6841,"有那么一个人":6842,"注定要遇到":6843,"的意思是":6844,"看不到,不":6845,"睡觉,醒来":6846,"积极的":6847,"绝望的时候":6848,"绝望主\r\n":6849,"考试中":6850,"考验。很多":6851,"默默地":6852,"一个新的“哈":6853,",而在于是否":6854,"的一面,那么你也不值得拥有":6855,"任何事。\r\n":6856,"▁有时候,你需要":6857,",让我觉得我":6858,"真正的幸福不会很快":6859,"使你更坚强,眼泪":6860,"使你更勇敢,心":6861,"!@M":6862,",加强":6863,"Thai":6864,"aren":6865,"ru:":6866,"weibo":6867,"▁今晚":6868,"▁可是我":6869,"▁能发现自己的错误是":6870,"▁只是感觉有点":6871,"▁哈哈,":6872,"。~!":6873,"。这只是给更好的人":6874,"《吸血鬼日记\r\n":6875,"不多了。":6876,"不适合看星星,就":6877,"不适合谈安定":6878,"之所以原谅一个人,只是":6879,"令人痛心的是,我":6880,"假装的无所谓":6881,"出现在你":6882,"出现在你的生活中":6883,"完整的":6884,"很好奇":6885,"放下,然而":6886,"无关。\r\n":6887,"无关紧要":6888,"时,你就会":6889,"明显要比你":6890,"最差的一面,那么你也不值得拥有":6891,"有所成就":6892,"来源获得":6893,"根本就":6894,"毕业典礼":6895,"水平的":6896,"满足就是":6897,"珍贵的东西总是有,所以":6898,"脚步,":6899,"要做的一件事情":6900,"责任;生命中":6901,"追寻,而不知道":6902,"错的只是":6903,"自己想要的生活":6904,"▁我爱美街拍#":6905,",不代表你":6906,"生命中的小":6907,"▁不要只因一次":6908,",而是因为当一切":6909,"放弃的那一刻,你才":6910,",这是你的代价":6911,"▁如果你想拥有你从未":6912,",它会带来喜乐":6913,"让你觉得更失望":6914,"让你觉得快乐的事情。\r\n":6915,"thing.":6916,"坚持走下去":6917,"一句话\r\n":6918,"verybody":6919,"▁新年快乐":6920,"之前,唯一需要":6921,"▁世界上最远的距离":6922,"”,改说“我":6923,"▁know.":6924,"主义者在":6925,",使得":6926,",哪个":6927,",由于":6928,",怎么能":6929,"1月1日":6930,";如果他":6931,";如果他们不能接受最差的你,也不配拥有最好的":6932,"IanSomerhalder":6933,"ONDJ":6934,"▁4.":6935,"▁富足":6936,"▁小时候,幸福是件很简单的事;长大后,简单是件很幸福":6937,"▁明的人":6938,"▁自从":6939,"▁谢朵":6940,"▁好的爱情":6941,"▁...[原":6942,"▁let":6943,"▁曾经拥有的,不要忘记。不能":6944,"。如果你有":6945,"。晚安~(关注\r\n":6946,"一大早":6947,"不爱你,只是":6948,"与你手同行":6949,"中的一颗":6950,"你的人不需要":6951,"勇于对过去":6952,"各自的":6953,"周年念":6954,"回首往事":6955,"好。把":6956,"把握,每一次的":6957,"摄影师":6958,"时的动":6959,"最酸的感觉是":6960,"某个决定就能改变":6961,"的感情\r\n":6962,"红色的车":6963,"经意的时候出现":6964,"要走得":6965,"要学会自己长大":6966,"语言也无法":6967,"跟随自己的内心":6968,"转身离开":6969,"这张照片":6970,"这部剧":6971,"那就改变,不能改变":6972,"都不是我":6973,"的人你看了一眼,却":6974,",你拥有什么,而":6975,"不是因为没有朋友":6976,"一个人,你最应该":6977,"他们想让你看到的\r\n":6978,"了,因为它":6979,"了,因为他们必":6980,"放弃。已经失去的,":6981,"可能是他们想让你看到的\r\n":6982,"一点,管它怎样":6983,"▁当你在自己的感觉":6984,"▁change":6985,"孩子们对":6986,"了一辈子,却了一辈子":6987,"完美时刻的到来":6988,"▁life":6989,"▁life.":6990,"▁Thur":6991,"▁很多人一开始为了梦想而忙,后来忙":6992,"▁很多时候,看的太透反而不快乐,倒不如的没心没":6993,"▁很多时候,为了求得真正的幸福,我们需要保持耐心。因为":6994,"活在当下,活得漂亮":6995,"▁每个人都注定要遇到":6996,"足够的优秀":6997,"中国的粉丝们,你们":6998,"自己的错误是勇敢":6999,"!虽然唱到":7000,",爱要":7001,",直至":7002,",祝你":7003,",好好把握,每一次的":7004,",虽然我们":7005,";在低时":7006,";有的人你看了一眼,却":7007,"eah":7008,"http://t.cn/a":7009,"▁发表了博文":7010,"▁外国":7011,"▁打卡":7012,"▁enough":7013,"▁感情不需要":7014,"一事无":7015,"不失勇气":7016,"不属于你\r\n":7017,"世间最":7018,"也只不过是一":7019,"了就睡觉,醒来":7020,"你知道或不知道":7021,"你看到的去评":7022,"做你认为对":7023,"做我想做。这是我的":7024,"做的,就是让自己":7025,"做决定。":7026,"偶尔要回头":7027,"别的来源获得":7028,"前世约了我":7029,"十二月\r\n":7030,"十天左右,":7031,"叫声老":7032,"哪里又有什么":7033,"在路上":7034,"在最不经意的时候出现":7035,"地区,":7036,"学的词":7037,"并没有错的,":7038,"形容词":7039,"微风]关注\r\n":7040,"我希望找到这样":7041,"拔野鸡毛的人":7042,"昨日已":7043,"是过眼云":7044,"月10日":7045,"有一次,":7046,"正直人的":7047,"漫长的旅行":7048,"球迷,":7049,"的时就不要放弃":7050,"的方向。":7051,"相当于":7052,"般的爱情--":7053,"花朵,":7054,"试试看":7055,"这就是为什么":7056,"连续工作":7057,"我们很久":7058,"一个伟大的目标,并决心":7059,"的人。你要做的就是":7060,"▁我这一生":7061,"▁我一直在关注你,":7062,",你永远不知道":7063,"不是一个天生的":7064,"可以和生活讨价还价":7065,"era360":7066,",就一定要努力":7067,"▁有人说":7068,"▁不要因为结束而哭泣,":7069,"▁//@冷笑话精选:":7070,"▁当我们长大":7071,"微笑吧,为你的":7072,"▁world":7073,"只有一个人,让我觉得我":7074,"是我不想笑的时候":7075,"起来的最好":7076,"发生的几率":7077,"▁this?":7078,"▁perf":7079,"那个特别的人。你要做的就是":7080,"都有一个沉睡":7081,"好好享受;在低时":7082,",才要去爱;不要等到":7083,"▁没有人可以和生活讨价还价":7084,"最美的年华里,":7085,",我就在这里;当你":7086,">>>(关注\r\n":7087,"一段时间要学会自己长大":7088,"不断地放下,然而":7089,",我也相信有":7090,"准备好了,下一刻":7091,"重新开始。\r\n":7092,"▁Nobody":7093,"▁不要只追求漂亮的外表":7094,"独立思考是":7095,"友情是影子,当了,你会发现":7096,"▁生活的艺术在于,好好把握,每一次的":7097,"▁人生就像一杯,不会苦一辈子,但总会苦一子。\r\n":7098,"!生命就是":7099,"(the":7100,"(古希学家":7101,",另一只用助":7102,",都要继续向前":7103,":He":7104,";即使自己很":7105,"@丽美儿":7106,"CLS63":7107,"Creese":7108,"Camera360":7109,"Joe":7110,"_Official":7111,"bama的":7112,"chool":7113,"l26WJN":7114,"ulation":7115,"“女”一":7116,"▁典型":7117,"▁够他":7118,"▁学个词":7119,"▁据说":7120,"▁累了就睡觉,醒来":7121,"▁keep":7122,"▁心里的":7123,"▁世上只有一个人,让我觉得我":7124,"▁后悔过去,不如":7125,"▁孤单不是因为没有朋友":7126,"▁粉丝们!":7127,"▁伤痛使你更坚强,眼泪":7128,"▁查看原文\r\n":7129,"▁2012年5月31日":7130,"、队合作":7131,"、音乐、":7132,"。朋友,是在最后":7133,"。抓住当下,让它成为":7134,"。不能接受那就改变,不能改变":7135,"《神洛克》第二":7136,"【果粉http://t.cn/z":7137,"【请翻译】":7138,"一朵花":7139,"一言):":7140,"上获取知识":7141,"不做的事,这就是责任;生命中":7142,"与别人的看法之间左右":7143,"也是一天":7144,"买到一切,但有钱了,":7145,"了进入你生活的":7146,"于未来的梦想":7147,"亚里士多德":7148,"从书本上获取知识":7149,"他在前世约了我":7150,"以智治国,":7151,"们心疼。":7152,"价一个人,因为你看到的,有":7153,"会遇见什么":7154,"伤悲,人":7155,"作曲家\r\n":7156,"你听到的每件事":7157,"你被它打":7158,"你原来决心想达":7159,"你是谁,你拥有什么,而":7160,"做鬼脸":7161,"做了才知道。有些事,错了才知道。有些事,":7162,"做的事情就是相信自己,":7163,"分目录":7164,"到此结束":7165,"到让你们心疼。":7166,"到的人,都是相信你":7167,"力而为":7168,"力所能及":7169,"助己,另一只用助":7170,"勇往直":7171,"去吧。这只是给更好的人":7172,"取每一个人,你最应该":7173,"另一条路":7174,"只需一分钟":7175,"后,你会发现你有两只":7176,"和率直":7177,"回给你一个新的“哈":7178,"在生命里":7179,"在情绪上计较":7180,"在做事上认真":7181,"外,还可以从许多":7182,"太思考未来,因它会":7183,"头笑着飞开了。\r\n":7184,"奥斯卡":7185,"奥丽·本\r\n":7186,"对某个人来说,你":7187,"将他带到你的":7188,"带给你恐惧;":7189,"当巨人醒来时,奇迹":7190,"很小,小到":7191,"很大,大到":7192,"得进来。\r\n":7193,"心灵通道":7194,"志愿者":7195,"我不在乎\r\n":7196,"我手所做的工":7197,"我,那只能说明,我活的":7198,"手,一只是用来":7199,"改正自己的错误是勇敢":7200,"救的浪漫":7201,"断地挑战,它总会":7202,"是不够的,我们必须":7203,"是确定一个伟大的目标,并决心":7204,"是无可救的浪漫":7205,"最神奇":7206,"有许多你想做却不能":7207,"有过的东西,那么你必须去做":7208,"有担当一点后,你会发现你有两只":7209,"李小龙\r\n":7210,"欢欣鼓舞":7211,"求职者":7212,"求在我最美的年华里,":7213,"沙热烈追求一草":7214,"流行风尚:":7215,"爱了以后,才要去爱;不要等到":7216,"甜的,心里面,却":7217,"用一切你知道或不知道":7218,"留足了进入你生活的":7219,"的能力\r\n":7220,"的城市不适合看星星,就":7221,"的巨人,当巨人醒来时,奇迹":7222,"碎使你更明智":7223,"福第一电站":7224,"等被爱了以后,才要去爱;不要等到":7225,"能骗到的人,都是相信你":7226,"英赛特":7227,"让每个日子都变得":7228,"让不重要的人影响了自己":7229,"设身处":7230,"说,我不问,不代表":7231,"说三道四":7232,"象你的心不适合谈安定":7233,"败了,不断地挑战,它总会":7234,"过什么,无论你是否":7235,"追美剧轻学英语":7236,"都结束了,爱":7237,"钱无法买到一切,但有钱了,":7238,"门会让你的时记忆":7239,"问:“你":7240,"一个转身,就不知道":7241,"的人,就算是我不想笑的时候":7242,"的人有福了,因为他们必":7243,"▁我以为我":7244,"▁我就是我,爱我所爱,":7245,"▁我会坚强到让你们心疼。":7246,"你的周围都是影子":7247,"生活,不是你的。\r\n":7248,"生活就会回给你一个新的“哈":7249,",不在于怎么":7250,",我只想告诉你,我":7251,"不是你本来想":7252,"不是数着日子":7253,"喜欢那些让我笑起来":7254,"知道自己想要什么":7255,"可以给你力量":7256,"可以飞起来,就是":7257,"▁你无法取每一个人,你最应该":7258,"▁你永远不会明白,我那些":7259,"▁你每天都在做很多":7260,",就放弃你原来决心想达":7261,"永远都在追寻,而不知道":7262,"▁有爱的地方就有":7263,"▁有的人你看了一辈子,却了一辈子":7264,"了,才明白朋友的价值":7265,"。。......---更多精彩语录请关注[左抱抱]\r\n":7266,"成功,不要去":7267,"这个决定,这是你的代价":7268,",因为只有你放弃的那一刻,你才":7269,"▁在你想要放弃的那一刻,想想为什么当初坚持走到了这里。\r\n":7270,"▁在这世上珍贵的东西总是有,所以":7271,"▁不要等待完美时刻的到来":7272,"▁不要着,最好的总会":7273,"▁不要根据你看到的去评":7274,"▁不要知道得太多,会难过":7275,"不能应付我最差的一面,那么你也不值得拥有":7276,"爱情结束了,而是因为当一切":7277,"自己的,不要放弃。已经失去的,":7278,"▁access":7279,"▁//@THEdrive-th":7280,"▁//@的童话世界:":7281,"▁当有人离开你的生活":7282,"中国人民解放军":7283,"那些不愿与你手同行":7284,"的人,到哪都不太":7285,",而是没有人住在你心里":7286,"微笑活在当下,它会带来喜乐":7287,"选择去做让你觉得快乐的事情。\r\n":7288,"▁system":7289,"▁生活是一场漫长的旅行":7290,"看到什么样的世界":7291,"▁hurt":7292,"▁much":7293,"▁如果你放不下那个错的人":7294,"▁如果你在背后议论我,那只能说明,我活的":7295,"▁我们都有绝望的时候":7296,"一切会容易得多\r\n":7297,",它也会对你":7298,"那么短,什么让不重要的人影响了自己":7299,",要看他有谁":7300,"▁S-Model":7301,"▁人生也许就是不断地放下,然而":7302,"▁人生重要的事情是确定一个伟大的目标,并决心":7303,"▁当你再成熟有担当一点后,你会发现你有两只":7304,"▁@OMG美语":7305,"失败的恐惧\r\n":7306,"接受,改变,":7307,"▁feeling":7308,",不要想睡多久就睡多久":7309,"想做,会找到一个":7310,"等待老天将他带到你的":7311,"在乎人地点":7312,"时,随他们去吧。这只是给更好的人":7313,"得到的,更要珍惜。属于":7314,"忘了答应自己":7315,"▁Benjamin":7316,"阳光才照得进来。\r\n":7317,"▁有些事,我不说,我不问,不代表":7318,"。【口英语手机版】[心]":7319,",所以只要活着,就一定要努力":7320,"▁Aoki":7321,"▁爱情是,友情是影子,当了,你会发现":7322,"让自己变得与别人":7323,"许多你不想做却不能不做的事,这就是责任;生命中":7324,"▁生命中有许多你不想做却不能不做的事,这就是责任;生命中":7325,"▁生命必须有,阳光才照得进来。\r\n":7326,"总会让步。如果有时候":7327,"的爱,她头笑着飞开了。\r\n":7328,"说“”,生活就会回给你一个新的“哈":7329,"▁大挑战,世界总会让步。如果有时候":7330,"仅仅在于你自己怎么看待":7331,"是一种用任何语言也无法":7332,"是一种遇见,不能等待":7333,",可我内心是无可救的浪漫":7334,"▁幸福不在于你是谁,你拥有什么,而":7335,"▁无论多么艰难,都要继续向前":7336,"▁无论过去发生过什么,无论你是否":7337,"明白,真爱总是值得等待":7338,"▁每个人心中都有一个沉睡":7339,"▁每个人都会累,没人能为你承担":7340,"▁年后,让你觉得更失望":7341,"看看,否则永远都在追寻,而不知道":7342,"解决很多问题,沉默":7343,"▁#每日一句\r\n":7344,"到来,也不会轻易到来,但它值得等待":7345,"智慧,能改正自己的错误是勇敢":7346,"成功的望必须超过":7347,",那么你永远也找不到那个对":7348,"▁一个自由的人除了从书本上获取知识":7349,"不好就出去走走":7350,"▁人们伤心,不是因为爱情结束了,而是因为当一切":7351,"美丽的忧伤的甜的,心里面,却":7352,"▁想你,是一种美丽的忧伤的甜的,心里面,却":7353,"▁若无其事,原来":7354,"▁学习昨天,活在今天,期待":7355,"angryeditor":7356,"Chrome":7357,"▁太耀眼的城市不适合看星星,就":7358,"考验。很多失败了":7359,"真正的幸福不会很快到来,也不会轻易到来,但它值得等待":7360,"使你更勇敢,心碎使你更明智":7361,"▁能发现自己的错误是智慧,能改正自己的错误是勇敢":7362,"▁只是感觉有点受伤,没":7363,"令人痛心的是,我都没能":7364,"明显要比你精彩许多":7365,"▁如果你想拥有你从未有过的东西,那么你必须去做":7366,"之前,唯一需要做的,就是让自己":7367,"IanSomerhalder_Official":7368,"ONDJ1":7369,"▁...[原微博":7370,"▁曾经拥有的,不要忘记。不能得到的,更要珍惜。属于":7371,"勇于对过去说“”,生活就会回给你一个新的“哈":7372,"▁当你在自己的感觉与别人的看法之间左右":7373,"▁很多时候,看的太透反而不快乐,倒不如的没心没。\r\n":7374,"▁很多时候,为了求得真正的幸福,我们需要保持耐心。因为真正的幸福不会很快到来,也不会轻易到来,但它值得等待":7375,"▁每个人都注定要遇到那个特别的人。你要做的就是":7376,";有的人你看了一眼,却念":7377,"做我想做。这是我的生活,不是你的。\r\n":7378,"偶尔要回头看看,否则永远都在追寻,而不知道":7379,"别的来源获得知识":7380,"哪里又有什么可惜":7381,"并没有错的,错的只是":7382,"我希望找到这样一个人,即使":7383,"是过眼云;":7384,"▁我一直在关注你,用一切你知道或不知道":7385,"▁不要因为结束而哭泣,微笑吧,为你的":7386,"好好享受;在低时不失勇气":7387,"▁没有人可以和生活讨价还价,所以只要活着,就一定要努力":7388,"准备好了,下一刻都是":7389,"▁生活的艺术在于,好好把握,每一次的放手与坚持":7390,"“女”一词":7391,"▁学个词第":7392,"▁累了就睡觉,醒来就":7393,"▁世上只有一个人,让我觉得我可以飞起来,就是":7394,"▁后悔过去,不如奋斗将来":7395,"▁孤单不是因为没有朋友,而是没有人住在你心里":7396,"▁伤痛使你更坚强,眼泪使你更勇敢,心碎使你更明智":7397,"。朋友,是在最后可以给你力量":7398,"。抓住当下,让它成为完美时刻":7399,"。不能接受那就改变,不能改变,那就":7400,"【果粉http://t.cn/zl26WJN":7401,"他在前世约了我:":7402,"以智治国,国之":7403,"价一个人,因为你看到的,有可能是他们想让你看到的\r\n":7404,"你听到的每件事,不要":7405,"你被它打败了,不断地挑战,它总会":7406,"做了才知道。有些事,错了才知道。有些事,长大了才知道":7407,"外,还可以从许多别的来源获得知识":7408,"太思考未来,因它会带给你恐惧;":7409,"心灵通道【果粉http://t.cn/zl26WJN":7410,"手,一只是用来助己,另一只用助":7411,"有许多你想做却不能做的事,这就是":7412,"沙热烈追求一草的爱,她头笑着飞开了。\r\n":7413,"留足了进入你生活的空间":7414,"的巨人,当巨人醒来时,奇迹就会发生":7415,"等被爱了以后,才要去爱;不要等到了,才明白朋友的价值":7416,"让每个日子都变得有意义":7417,"象你的心不适合谈安定。\r\n":7418,"钱无法买到一切,但有钱了,一切会容易得多\r\n":7419,"的人,就算是我不想笑的时候。\r\n":7420,"▁我就是我,爱我所爱,做我想做。这是我的生活,不是你的。\r\n":7421,"你的周围都是影子。朋友,是在最后可以给你力量":7422,"喜欢那些让我笑起来的人,就算是我不想笑的时候。\r\n":7423,"▁你无法取每一个人,你最应该做的事情就是相信自己,":7424,"▁你永远不会明白,我那些假装的无所谓":7425,",就放弃你原来决心想达到的":7426,"▁有的人你看了一辈子,却了一辈子;有的人你看了一眼,却念":7427,"这个决定,这是你的代价\r\n":7428,"▁在这世上珍贵的东西总是有,所以这世上只有":7429,"▁不要等待完美时刻的到来。抓住当下,让它成为完美时刻":7430,"▁不要着,最好的总会在最不经意的时候出现":7431,"▁不要根据你看到的去评价一个人,因为你看到的,有可能是他们想让你看到的\r\n":7432,"不能应付我最差的一面,那么你也不值得拥有我最好的一面":7433,"自己的,不要放弃。已经失去的,留作回忆":7434,"▁//@THEdrive-thru:":7435,"▁当有人离开你的生活时,随他们去吧。这只是给更好的人":7436,"那些不愿与你手同行的人\r\n":7437,"▁生活是一场漫长的旅行,不要浪费时间":7438,"▁如果你放不下那个错的人,那么你永远也找不到那个对":7439,"▁如果你在背后议论我,那只能说明,我活的明显要比你精彩许多":7440,"那么短,什么让不重要的人影响了自己重要的心情":7441,"▁人生也许就是不断地放下,然而令人痛心的是,我都没能":7442,"▁人生重要的事情是确定一个伟大的目标,并决心实现":7443,"▁当你再成熟有担当一点后,你会发现你有两只手,一只是用来助己,另一只用助":7444,"▁有些事,我不说,我不问,不代表我不在乎\r\n":7445,"。【口英语手机版】[心]心灵通道【果粉http://t.cn/zl26WJN":7446,"▁爱情是,友情是影子,当了,你会发现你的周围都是影子。朋友,是在最后可以给你力量":7447,"▁生命中有许多你不想做却不能不做的事,这就是责任;生命中有许多你想做却不能做的事,这就是":7448,"▁大挑战,世界总会让步。如果有时候你被它打败了,不断地挑战,它总会":7449,"是一种用任何语言也无法表达的温":7450,"▁幸福不在于你是谁,你拥有什么,而仅仅在于你自己怎么看待":7451,"▁无论多么艰难,都要继续向前,因为只有你放弃的那一刻,你才":7452,"▁无论过去发生过什么,无论你是否准备好了,下一刻都是":7453,"▁每个人心中都有一个沉睡的巨人,当巨人醒来时,奇迹就会发生":7454,"▁年后,让你觉得更失望的不是你":7455,"▁一个自由的人除了从书本上获取知识外,还可以从许多别的来源获得知识":7456,"▁人们伤心,不是因为爱情结束了,而是因为当一切都结束了,爱":7457,"▁想你,是一种美丽的忧伤的甜的,心里面,却是一种用任何语言也无法表达的温":7458,"▁太耀眼的城市不适合看星星,就象你的心不适合谈安定。\r\n":7459,"▁如果你想拥有你从未有过的东西,那么你必须去做你从未":7460,"▁曾经拥有的,不要忘记。不能得到的,更要珍惜。属于自己的,不要放弃。已经失去的,留作回忆":7461,"勇于对过去说“”,生活就会回给你一个新的“哈\r\n":7462,"▁当你在自己的感觉与别人的看法之间左右为难":7463,"▁每个人都注定要遇到那个特别的人。你要做的就是等待老天将他带到你的":7464,"偶尔要回头看看,否则永远都在追寻,而不知道自己失去了":7465,"▁不要因为结束而哭泣,微笑吧,为你的曾经拥有":7466,"▁当有人离开你的生活时,随他们去吧。这只是给更好的人留足了进入你生活的空间":7467,"▁大挑战,世界总会让步。如果有时候你被它打败了,不断地挑战,它总会服的。":7468}