{"<s>":0,"<pad>":1,"</s>":2,"<unk>":3,"<mask>":4,"\n":5,"\r":6,"!":7,"\"":8,"#":9,"%":10,"'":11,"(":12,")":13,"+":14,",":15,"-":16,".":17,"/":18,"0":19,"1":20,"2":21,"3":22,"4":23,"5":24,"6":25,"7":26,"8":27,"9":28,":":29,";":30,"=":31,">":32,"?":33,"@":34,"A":35,"B":36,"C":37,"D":38,"E":39,"F":40,"G":41,"H":42,"I":43,"J":44,"K":45,"L":46,"M":47,"N":48,"O":49,"P":50,"R":51,"S":52,"T":53,"U":54,"V":55,"W":56,"Y":57,"[":58,"]":59,"_":60,"a":61,"b":62,"c":63,"d":64,"e":65,"f":66,"g":67,"h":68,"i":69,"j":70,"k":71,"l":72,"m":73,"n":74,"o":75,"p":76,"r":77,"s":78,"t":79,"u":80,"v":81,"w":82,"x":83,"y":84,"z":85,"~":86,"·":87,"—":88,"“":89,"”":90,"▁":91,"❤":92,"、":93,"。":94,"《":95,"》":96,"【":97,"】":98,"一":99,"七":100,"万":101,"三":102,"上":103,"下":104,"不":105,"与":106,"专":107,"且":108,"世":109,"业":110,"东":111,"丝":112,"两":113,"丧":114,"个":115,"中":116,"临":117,"为":118,"主":119,"丽":120,"举":121,"久":122,"么":123,"义":124,"之":125,"乎":126,"乐":127,"也":128,"习":129,"书":130,"买":131,"乱":132,"了":133,"予":134,"争":135,"事":136,"二":137,"于":138,"云":139,"五":140,"亚":141,"些":142,"交":143,"享":144,"京":145,"亮":146,"亲":147,"人":148,"什":149,"仅":150,"今":151,"仍":152,"从":153,"他":154,"付":155,"代":156,"令":157,"以":158,"们":159,"件":160,"价":161,"任":162,"份":163,"众":164,"优":165,"会":166,"伟":167,"传":168,"伤":169,"伦":170,"伴":171,"但":172,"位":173,"低":174,"住":175,"体":176,"何":177,"余":178,"作":179,"你":180,"使":181,"依":182,"便":183,"保":184,"信":185,"個":186,"倒":187,"候":188,"值":189,"倾":190,"假":191,"做":192,"停":193,"健":194,"偶":195,"偷":196,"像":197,"儿":198,"元":199,"充":200,"先":201,"光":202,"克":203,"免":204,"入":205,"全":206,"公":207,"六":208,"共":209,"关":210,"兴":211,"其":212,"具":213,"典":214,"内":215,"再":216,"写":217,"军":218,"决":219,"冷":220,"准":221,"几":222,"凡":223,"出":224,"击":225,"分":226,"切":227,"划":228,"则":229,"刚":230,"创":231,"初":232,"利":233,"别":234,"到":235,"制":236,"刻":237,"前":238,"剧":239,"力":240,"办":241,"功":242,"加":243,"务":244,"动":245,"助":246,"努":247,"励":248,"勇":249,"包":250,"化":251,"北":252,"区":253,"医":254,"十":255,"千":256,"午":257,"半":258,"华":259,"单":260,"卖":261,"博":262,"卡":263,"即":264,"却":265,"历":266,"原":267,"去":268,"参":269,"又":270,"及":271,"友":272,"双":273,"反":274,"发":275,"取":276,"受":277,"变":278,"口":279,"古":280,"句":281,"另":282,"只":283,"叫":284,"可":285,"台":286,"右":287,"号":288,"司":289,"吃":290,"各":291,"合":292,"同":293,"名":294,"后":295,"向":296,"吗":297,"否":298,"吧":299,"听":300,"吸":301,"呆":302,"告":303,"员":304,"呢":305,"周":306,"味":307,"呼":308,"命":309,"和":310,"品":311,"哈":312,"响":313,"哥":314,"哦":315,"哪":316,"哭":317,"唯":318,"唱":319,"商":320,"啊":321,"啦":322,"善":323,"喜":324,"嘴":325,"嘻":326,"器":327,"四":328,"回":329,"因":330,"困":331,"围":332,"国":333,"图":334,"在":335,"地":336,"场":337,"址":338,"坏":339,"坚":340,"型":341,"城":342,"基":343,"堂":344,"境":345,"增":346,"士":347,"声":348,"处":349,"备":350,"复":351,"外":352,"多":353,"夜":354,"够":355,"大":356,"天":357,"太":358,"夫":359,"失":360,"头":361,"奇":362,"奋":363,"奥":364,"女":365,"她":366,"好":367,"如":368,"妈":369,"妙":370,"始":371,"威":372,"娜":373,"婚":374,"子":375,"字":376,"存":377,"孤":378,"学":379,"孩":380,"宁":381,"它":382,"安":383,"完":384,"定":385,"宝":386,"实":387,"客":388,"害":389,"家":390,"容":391,"寂":392,"密":393,"富":394,"寞":395,"对":396,"寻":397,"射":398,"将":399,"尊":400,"小":401,"少":402,"尔":403,"尚":404,"尝":405,"就":406,"尽":407,"局":408,"展":409,"属":410,"山":411,"岁":412,"工":413,"左":414,"巨":415,"差":416,"己":417,"已":418,"巴":419,"市":420,"布":421,"师":422,"希":423,"帝":424,"带":425,"帮":426,"常":427,"干":428,"平":429,"年":430,"并":431,"幸":432,"幻":433,"广":434,"庆":435,"应":436,"底":437,"府":438,"度":439,"座":440,"康":441,"建":442,"开":443,"弃":444,"式":445,"引":446,"张":447,"强":448,"当":449,"录":450,"形":451,"彩":452,"影":453,"彼":454,"往":455,"待":456,"很":457,"得":458,"微":459,"德":460,"心":461,"必":462,"忆":463,"忍":464,"志":465,"忘":466,"忙":467,"忧":468,"快":469,"念":470,"怀":471,"怎":472,"怕":473,"思":474,"性":475,"总":476,"恋":477,"恐":478,"恨":479,"恩":480,"恶":481,"恼":482,"悔":483,"悲":484,"情":485,"惜":486,"惧":487,"想":488,"意":489,"感":490,"愿":491,"慧":492,"懂":493,"成":494,"我":495,"或":496,"战":497,"房":498,"所":499,"手":500,"才":501,"打":502,"找":503,"承":504,"把":505,"抓":506,"投":507,"报":508,"抱":509,"担":510,"拉":511,"拍":512,"拔":513,"拥":514,"择":515,"拿":516,"持":517,"指":518,"挑":519,"据":520,"掉":521,"掌":522,"排":523,"接":524,"控":525,"推":526,"提":527,"握":528,"摄":529,"支":530,"收":531,"改":532,"放":533,"政":534,"故":535,"效":536,"救":537,"教":538,"敢":539,"数":540,"整":541,"文":542,"斗":543,"断":544,"斯":545,"新":546,"方":547,"旅":548,"无":549,"日":550,"旦":551,"早":552,"时":553,"明":554,"易":555,"星":556,"春":557,"昨":558,"是":559,"显":560,"晚":561,"景":562,"智":563,"暖":564,"暗":565,"更":566,"曾":567,"替":568,"最":569,"會":570,"月":571,"有":572,"朋":573,"服":574,"望":575,"朝":576,"期":577,"未":578,"末":579,"本":580,"术":581,"朵":582,"机":583,"权":584,"李":585,"束":586,"条":587,"来":588,"杯":589,"杰":590,"极":591,"林":592,"果":593,"枪":594,"某":595,"查":596,"标":597,"树":598,"样":599,"根":600,"格":601,"梦":602,"棒":603,"楚":604,"樂":605,"模":606,"次":607,"欢":608,"欣":609,"欺":610,"歌":611,"止":612,"正":613,"此":614,"步":615,"死":616,"段":617,"母":618,"每":619,"比":620,"毕":621,"毛":622,"民":623,"气":624,"水":625,"永":626,"求":627,"沉":628,"沙":629,"没":630,"油":631,"治":632,"法":633,"波":634,"泣":635,"注":636,"泪":637,"泰":638,"洛":639,"活":640,"流":641,"济":642,"浪":643,"海":644,"消":645,"深":646,"清":647,"温":648,"游":649,"源":650,"满":651,"漂":652,"演":653,"漫":654,"潮":655,"激":656,"火":657,"灭":658,"灵":659,"点":660,"為":661,"烂":662,"烈":663,"烦":664,"热":665,"然":666,"照":667,"熟":668,"爱":669,"父":670,"爸":671,"片":672,"版":673,"物":674,"特":675,"犯":676,"狂":677,"狠":678,"独":679,"猜":680,"率":681,"环":682,"现":683,"珍":684,"班":685,"球":686,"理":687,"甜":688,"生":689,"用":690,"由":691,"电":692,"男":693,"界":694,"留":695,"疑":696,"疯":697,"疼":698,"病":699,"痛":700,"白":701,"百":702,"的":703,"目":704,"直":705,"相":706,"看":707,"真":708,"眼":709,"着":710,"睛":711,"睡":712,"知":713,"短":714,"石":715,"研":716,"破":717,"确":718,"碎":719,"示":720,"礼":721,"社":722,"祝":723,"神":724,"禁":725,"福":726,"离":727,"秀":728,"私":729,"种":730,"秘":731,"积":732,"称":733,"程":734,"究":735,"空":736,"穿":737,"突":738,"立":739,"站":740,"竟":741,"章":742,"童":743,"笑":744,"第":745,"等":746,"答":747,"简":748,"算":749,"管":750,"篇":751,"米":752,"粉":753,"精":754,"系":755,"紧":756,"累":757,"繁":758,"红":759,"约":760,"级":761,"纳":762,"线":763,"练":764,"组":765,"终":766,"经":767,"结":768,"给":769,"绝":770,"统":771,"继":772,"绪":773,"续":774,"维":775,"缘":776,"缺":777,"网":778,"罗":779,"罪":780,"美":781,"翻":782,"耀":783,"老":784,"考":785,"者":786,"而":787,"耐":788,"耶":789,"职":790,"联":791,"肉":792,"肯":793,"育":794,"背":795,"胜":796,"胡":797,"能":798,"脑":799,"脚":800,"脱":801,"脸":802,"自":803,"至":804,"致":805,"舍":806,"舞":807,"航":808,"般":809,"艰":810,"色":811,"艺":812,"节":813,"花":814,"若":815,"苦":816,"英":817,"草":818,"荐":819,"荣":820,"莫":821,"获":822,"菜":823,"落":824,"虽":825,"蛋":826,"血":827,"行":828,"街":829,"表":830,"被":831,"装":832,"西":833,"要":834,"见":835,"观":836,"视":837,"觉":838,"解":839,"言":840,"說":841,"警":842,"计":843,"认":844,"讨":845,"让":846,"议":847,"记":848,"讲":849,"许":850,"论":851,"设":852,"诀":853,"证":854,"评":855,"识":856,"诉":857,"词":858,"译":859,"试":860,"诗":861,"诚":862,"话":863,"该":864,"语":865,"误":866,"说":867,"请":868,"诺":869,"读":870,"课":871,"谁":872,"调":873,"谅":874,"谈":875,"谓":876,"谢":877,"象":878,"负":879,"责":880,"败":881,"质":882,"购":883,"贵":884,"费":885,"资":886,"赛":887,"赞":888,"赢":889,"走":890,"赶":891,"起":892,"超":893,"越":894,"趣":895,"足":896,"距":897,"跟":898,"路":899,"跳":900,"身":901,"车":902,"转":903,"轻":904,"较":905,"辈":906,"边":907,"达":908,"过":909,"迎":910,"运":911,"近":912,"还":913,"这":914,"进":915,"远":916,"连":917,"迷":918,"迹":919,"追":920,"退":921,"送":922,"适":923,"选":924,"透":925,"這":926,"通":927,"速":928,"造":929,"遇":930,"遍":931,"道":932,"遗":933,"那":934,"部":935,"都":936,"配":937,"酒":938,"酷":939,"酸":940,"醒":941,"释":942,"里":943,"重":944,"野":945,"量":946,"金":947,"钟":948,"钱":949,"错":950,"键":951,"长":952,"门":953,"问":954,"间":955,"闻":956,"队":957,"阳":958,"阻":959,"阿":960,"际":961,"降":962,"限":963,"院":964,"除":965,"险":966,"随":967,"难":968,"集":969,"雨":970,"需":971,"青":972,"静":973,"非":974,"靠":975,"面":976,"鞋":977,"音":978,"顶":979,"项":980,"顺":981,"须":982,"预":983,"领":984,"频":985,"颗":986,"题":987,"风":988,"飞":989,"食":990,"餐":991,"首":992,"香":993,"马":994,"验":995,"骗":996,"高":997,"鬼":998,"魂":999,"鸡":1000,"黑":1001,"默":1002,"鼓":1003,"龙":1004,"\r\n":1005,"。\r\n":1006,"..":1007,"我们":1008,"自己":1009,"一个":1010,"的人":1011,"▁我":1012,",你":1013,"你的":1014,"生活":1015,",不":1016,"就是":1017,"因为":1018,",我":1019,"没有":1020,"什么":1021,"时候":1022,"不要":1023,"如果":1024,",但":1025,",而":1026,"不是":1027,"喜欢":1028,"知道":1029,"//":1030,"的事":1031,"世界":1032,"可以":1033,"▁t":1034,"关注":1035,"一个人":1036,"in":1037,"▁你":1038,"er":1039,"别人":1040,"的,":1041,",就":1042,".\r\n":1043,"//@":1044,"--":1045,"不会":1046,"an":1047,"on":1048,"——":1049,"他们":1050,"永远":1051,"的一":1052,"ou":1053,"微博":1054,"快乐":1055,",那":1056,"的\r\n":1057,"需要":1058,"▁有":1059,"个人":1060,"我的":1061,"关注\r\n":1062,"了,":1063,"....":1064,"▁如果":1065,"是一":1066,"的时候":1067,"he":1068,"拥有":1069,"只是":1070,"幸福":1071,"朋友":1072,"英语":1073,"转发":1074,"▁人":1075,"无法":1076,",也":1077,"重要":1078,"今天":1079,"好的":1080,"改变":1081,"成为":1082,"生命":1083,"。。":1084,"成功":1085,"这个":1086,"开始":1087,",因为":1088,"re":1089,"▁在":1090,"▁不要":1091,"不能":1092,"安\r\n":1093,"爱你":1094,"爱情":1095,"时间":1096,"梦想":1097,"都是":1098,"自己的":1099,"▁a":1100,"▁//@":1101,",有":1102,"▁当":1103,"中国":1104,"努力":1105,"▁转发":1106,"一天":1107,"觉得":1108,"还是":1109,"过去":1110,"那些":1111,"的人,":1112,",而是":1113,"▁转发微博":1114,",我们":1115,"it":1116,"东西":1117,"失去":1118,"希望":1119,"微笑":1120,"的事情":1121,"现在":1122,"相信":1123,"任何":1124,"放弃":1125,"真的":1126,"选择":1127,"at":1128,"美国":1129,",这":1130,"es":1131,"ll":1132,"▁s":1133,"一起":1134,"了。":1135,",是":1136,"▁w":1137,"一次":1138,"了\r\n":1139,"可能":1140,"的是":1141,"真正":1142,"ar":1143,"or":1144,"you":1145,"▁生活":1146,"。(":1147,"所以":1148,",一":1149,"▁不":1150,"只有":1151,"大家":1152,"很多":1153,"心]":1154,"怎么":1155,"所有":1156,"是我":1157,"看到":1158,",却":1159,"en":1160,"is":1161,"▁h":1162,"▁m":1163,"▁you":1164,"总是":1165,"想要":1166,"找到":1167,"起来":1168,"这样":1169,"▁如果你":1170,"ve":1171,"▁每":1172,"只要":1173,"的。":1174,"▁我们":1175,"事情":1176,"你,":1177,"大的":1178,"早安\r\n":1179,"[心]":1180,"一切":1181,"发生":1182,"在于":1183,"工作":1184,"感觉":1185,"...":1186,"ing":1187,",它":1188,"t.":1189,"tt":1190,"▁(":1191,"已经":1192,"必须":1193,"来自":1194,"▁这":1195,"一点":1196,"为了":1197,"让你":1198,"那么":1199,"▁the":1200,"一直":1201,"人,":1202,"人的":1203,"坚强":1204,"应该":1205,"明天":1206,"请关注\r\n":1207,",要":1208,"▁S":1209,"。——":1210,"一样":1211,"决定":1212,"出来":1213,"发现":1214,"忘记":1215,"更多":1216,",不是":1217,",但是":1218,"▁人生":1219,"▁当你":1220,"20":1221,"://":1222,"p://":1223,"▁@":1224,"▁c":1225,"失败":1226,"学习":1227,"孩子":1228,"接受":1229,"未来":1230,"爱的":1231,"▁to":1232,"ttp://":1233,"10":1234,"cn":1235,"ed":1236,"th":1237,"▁d":1238,"▁f":1239,"其实":1240,"哈哈":1241,"在\r\n":1242,"无论":1243,"有多":1244,"精彩":1245,"翻译":1246,"都会":1247,",不要":1248,"t.cn":1249,"ttp://t.cn":1250,"ttp://t.cn/":1251,"om":1252,"▁b":1253,"▁o":1254,"。我":1255,"不到":1256,"值得":1257,"在一起":1258,"坚持":1259,"想做":1260,"的东西":1261,"等待":1262,"简单":1263,"英文":1264,"认为":1265,"▁有时候":1266,"......":1267,",让":1268,"le":1269,"▁一":1270,"不知道":1271,"了。\r\n":1272,"日子":1273,"机会":1274,"问题":1275,"▁th":1276,"真正的":1277,"ay":1278,"ke":1279,"▁n":1280,"▁p":1281,"一些":1282,"中的":1283,"你们":1284,"并不":1285,"的那":1286,"美丽":1287,"的人\r\n":1288,"世界上":1289,"as":1290,"▁\"":1291,"。你":1292,"了一":1293,"享受":1294,"你\r\n":1295,"在乎":1296,"完美":1297,"尝试":1298,"开心":1299,"时,":1300,"是否":1301,"最后":1302,"给你":1303,"美好":1304,"醒来":1305,"来自\r\n":1306,"12":1307,"el":1308,"ow":1309,"▁喜欢":1310,"为什么":1311,"也许":1312,"其他":1313,"勇气":1314,"即使":1315,"原文":1316,"学会":1317,"得到":1318,"忘了":1319,"意味":1320,"新的":1321,"最好的":1322,"这是":1323,"这里":1324,"那个":1325,"...\r\n":1326,"自己,":1327,"ttp://t.cn/z":1328,",在":1329,"al":1330,"ic":1331,"▁-":1332,"▁B":1333,"▁C":1334,"▁[":1335,"。[":1336,"。但":1337,"一下":1338,"一句":1339,"伤心":1340,"你。\r\n":1341,"吧,":1342,"在你":1343,"地方":1344,"就会":1345,"就像":1346,"痛苦":1347,"离开":1348,"辈子":1349,"这么":1350,"阳光":1351,",那么":1352,"▁有些":1353,"▁of":1354,"意味着":1355,"!!":1356,")\r\n":1357,",并":1358,",每":1359,"]\r\n":1360,"am":1361,"od":1362,"▁,":1363,"▁l":1364,"▁对":1365,"不想":1366,"你。":1367,"分享":1368,"勇敢":1369,"吧\r\n":1370,"地址":1371,"太多":1372,"心里":1373,"昨天":1374,"曾经":1375,"理由":1376,"电影":1377,"遇见":1378,"错误":1379,"我们的":1380,"如果你":1381,"所有的":1382,",当":1383,",然":1384,"st":1385,"ver":1386,"▁G":1387,"▁I":1388,"▁今天":1389,"。【":1390,"一刻":1391,"一定":1392,"不了":1393,"世上":1394,"准备":1395,"容易":1396,"怎样":1397,"方式":1398,"早安":1399,"的心":1400,"自由":1401,"追求":1402,"都不":1403,"都有":1404,"and":1405,",只是":1406,",所以":1407,"ac":1408,"ec":1409,"gh":1410,"▁A":1411,"▁g":1412,"▁爱":1413,"▁in":1414,"▁爱情":1415,"▁it":1416,"。早安\r\n":1417,"上的":1418,"他的":1419,"你不":1420,"保持":1421,"吗?":1422,"呢\r\n":1423,"啊\r\n":1424,"回复":1425,"在我":1426,"女孩":1427,"好好":1428,"如何":1429,"意义":1430,"时刻":1431,"是你":1432,"最大的":1433,"期待":1434,"的生活":1435,"知识":1436,"让自己":1437,"许多":1438,"语录":1439,"▁我在\r\n":1440,"别人的":1441,"!\r\n":1442,",只":1443,",才":1444,"~~":1445,"▁e":1446,"▁生命":1447,"。--":1448,"为你":1449,"也会":1450,"代表":1451,"信任":1452,"内心":1453,"到了":1454,"原来":1455,"回忆":1456,"好,":1457,"实现":1458,"总会":1459,"感谢":1460,"愿意":1461,"挑战":1462,"是谁":1463,"有一天":1464,"特别":1465,"结束":1466,"让我":1467,"让我们":1468,"长大":1469,"永远不会":1470,"的一切":1471,"回复@":1472,",以":1473,",就是":1474,"00":1475,"19":1476,"ho":1477,"ld":1478,"ra":1479,"▁T":1480,"▁大":1481,"▁新":1482,"▁没有":1483,"▁这个":1484,"▁原文":1485,"不过":1486,"也不":1487,"了!":1488,"你自己":1489,"使你":1490,"充满":1491,"变得":1492,"告诉":1493,"唯一":1494,"好\r\n":1495,"害怕":1496,"属于":1497,"意思":1498,"成长":1499,"把你":1500,"担心":1501,"控制":1502,"收听":1503,"时光":1504,"晚安":1505,"来说":1506,"爱上":1507,"珍惜":1508,"的爱":1509,"的话":1510,"第一":1511,"第一次":1512,"继续":1513,"记得":1514,"说“":1515,"身边":1516,"部分":1517,"时候,":1518,"的一天":1519,"'t":1520,",他":1521,",还":1522,",没有":1523,"ri":1524,"▁做":1525,"▁别":1526,"▁——":1527,"▁is":1528,"▁回复@":1529,"不同":1530,"之前":1531,"之间":1532,"事,":1533,"亲爱的":1534,"人们":1535,"人生":1536,"仅仅":1537,"从未":1538,"优秀":1539,"你有":1540,"做的":1541,"到的":1542,"北京":1543,"句话":1544,"命运":1545,"多少":1546,"并不是":1547,"影响":1548,"想念":1549,"或者":1550,"文章":1551,"晚安\r\n":1552,"最美":1553,"有些":1554,"有人":1555,"理解":1556,"的路":1557,"粉丝":1558,"经典":1559,"遇到":1560,"非常":1561,"是一种":1562,"重要的是":1563,"▁每天":1564,"地址\r\n":1565,",会":1566,",别":1567,",可":1568,",想":1569,"__":1570,"ake":1571,"http://t.cn/z":1572,"uc":1573,"▁H":1574,"▁M":1575,"▁好":1576,"▁要":1577,"▁on":1578,"▁幸福":1579,"▁成功":1580,"▁很多":1581,"▁无论":1582,"。[心]":1583,"不得":1584,"你是":1585,"你爱":1586,"出了":1587,"分钟":1588,"创造":1589,"力量":1590,"发展":1591,"变成":1592,"呢?":1593,"如此":1594,"对方":1595,"将会":1596,"我,":1597,"所谓":1598,"才是":1599,"抱抱":1600,"故事":1601,"方法":1602,"早上":1603,"明白":1604,"星星":1605,"是在":1606,"是我的":1607,"更加":1608,"最好":1609,"正在":1610,"每个人":1611,"活在":1612,"的小":1613,"的。\r\n":1614,"的时间":1615,"的感觉":1616,"看起来":1617,"眼泪":1618,"眼睛":1619,"经历":1620,"能力":1621,"虽然":1622,"距离":1623,"音乐":1624,"你的生活":1625,"的时候,":1626,"▁每个人":1627,"收听\r\n":1628,"![":1629,"'s":1630,"(关注\r\n":1631,",\r\n":1632,"if":1633,"im":1634,"ion":1635,"ly":1636,"se":1637,"un":1638,"ur":1639,"▁/":1640,"▁2":1641,"▁是":1642,"▁的":1643,"▁那":1644,"▁世界上":1645,"▁and":1646,"。因为":1647,"一件":1648,"一种":1649,"不再":1650,"不如":1651,"了解":1652,"价值":1653,"你在":1654,"你所":1655,"做过":1656,"出去":1657,"受伤":1658,"后悔":1659,"和你":1660,"回来":1661,"多么":1662,"太阳":1663,"奇迹":1664,"孤独":1665,"对你":1666,"对我":1667,"带来":1668,"强大":1669,"当下":1670,"恐惧":1671,"才能":1672,"才知道":1673,"推荐":1674,"方向":1675,"有时":1676,"某人":1677,"温暖":1678,"点\r\n":1679,"烦恼":1680,"疯狂":1681,"直到":1682,"看看":1683,"真爱":1684,"终于":1685,"表示":1686,"表达":1687,"解决":1688,"足够":1689,"都要":1690,"错过":1691,"面对":1692,"风景":1693,"的人。\r\n":1694,"▁我想":1695,"什么样":1696,",但我":1697,"---":1698,"拥有的":1699,"任何人":1700,"ent":1701,",要么":1702,"更多精彩":1703,"▁ne":1704,"▁原文地址\r\n":1705,",他们":1706,",只要":1707,"11":1708,"13":1709,":“":1710,":你":1711,":我":1712,";不要":1713,"et":1714,"id":1715,"ive":1716,"ol":1717,"ore":1718,"”,":1719,"▁#":1720,"▁F":1721,"▁J":1722,"▁k":1723,"▁年":1724,"▁现在":1725,"。如果":1726,"。所以":1727,"。来自\r\n":1728,"一位":1729,"一步":1730,"一生":1731,"一辈子":1732,"上帝":1733,"上海":1734,"也是":1735,"仍然":1736,"以为":1737,"会有":1738,"会发现":1739,"做自己":1740,"停止":1741,"儿子":1742,"全世界":1743,"关系":1744,"再也":1745,"到来":1746,"原谅":1747,"只能":1748,"后,":1749,"吸血":1750,"国家":1751,"在这里":1752,"声音":1753,"女人":1754,"孤单":1755,"对不":1756,"当你":1757,"心情":1758,"忘掉":1759,"悲伤":1760,"情绪":1761,"感情":1762,"放手":1763,"智慧":1764,"更好":1765,"最不":1766,"来越":1767,"每天":1768,"每日":1769,"沉默":1770,"灵魂":1771,"照片":1772,"爱,":1773,"爱我":1774,"生气":1775,"电话":1776,"的世界":1777,"秘诀":1778,"能够":1779,"英国":1780,"请关注":1781,"谢谢":1782,"越来越":1783,"轻易":1784,"还有":1785,"黑暗":1786,"的人生":1787,"▁我要":1788,",你就":1789,"生活的":1790,"因为我":1791,",我就":1792,"什么,":1793,"一个人,":1794,"——《":1795,",也不":1796,",也许":1797,"生命中":1798,"成功的":1799,",因为你":1800,"中国的":1801,"▁转发微博。":1802,"ith":1803,"ess":1804,"▁with":1805,"。——《":1806,",但是我们":1807,"▁that":1808,",那么你":1809,"▁有些人":1810,"粉丝们":1811,"吸血鬼":1812,",最":1813,",请":1814,",如果":1815,"3.":1816,">>":1817,"all":1818,"ill":1819,"igh":1820,"up":1821,"ut":1822,"▁.":1823,"▁。":1824,"▁天":1825,"▁一个":1826,"▁一个人":1827,"▁只有":1828,"▁只要":1829,"▁真正的":1830,"▁亲爱的":1831,"。”":1832,"。不":1833,"一只":1834,"一段":1835,"一颗":1836,"下来":1837,"不可":1838,"不好":1839,"不断":1840,"不知":1841,"中文":1842,"主义":1843,"之中":1844,"人\r\n":1845,"付出":1846,"件事":1847,"你会":1848,"你看":1849,"做的事":1850,"全球":1851,"关于":1852,"关心":1853,"出现":1854,"千万":1855,"去做":1856,"句子":1857,"只不过":1858,"号\r\n":1859,"各位":1860,"同学":1861,"哭泣":1862,"唯美":1863,"困难":1864,"在那":1865,"奋斗":1866,"存在":1867,"尽管":1868,"年的":1869,"往往":1870,"很难":1871,"微信":1872,"心中":1873,"思考":1874,"想法":1875,"想起":1876,"感受":1877,"成熟":1878,"手机":1879,"把它":1880,"抓住":1881,"是什么":1882,"更好的":1883,"比如":1884,"浪漫":1885,"浪费":1886,"漂亮":1887,"演讲":1888,"生日":1889,"生的":1890,"男人":1891,"的太":1892,"的不是":1893,"的地方":1894,"的女孩":1895,"看法":1896,"着,":1897,"礼物":1898,"笑容":1899,"经济":1900,"结局":1901,"结果":1902,"给了":1903,"给我":1904,"美好的":1905,"耐心":1906,"能改变":1907,"艰难":1908,"说\r\n":1909,"那样":1910,"那个人":1911,"都在":1912,"难过":1913,"自己\r\n":1914,"自己。\r\n":1915,"因为你":1916,"喜欢请":1917,"on't":1918,"快乐,":1919,"快乐\r\n":1920,"▁人们":1921,"成为了":1922,",有时":1923,"失去了":1924,",这就是":1925,"▁生活的":1926,"▁ha":1927,"▁http://t.cn/z":1928,"▁your":1929,"这样的":1930,"一点点":1931,"一直在":1932,"2012":1933,"▁for":1934,"▁no":1935,"美丽的":1936,"意味着你":1937,",然后":1938,"吸血鬼日":1939,",何":1940,",去":1941,",大":1942,",没":1943,",能":1944,",谁":1945,",世界":1946,",重要的是":1947,"17":1948,"18":1949,"[左":1950,"ad":1951,"be":1952,"e.":1953,"ey":1954,"il":1955,"ust":1956,"▁1":1957,"▁D":1958,"▁E":1959,"▁K":1960,"▁与":1961,"▁想":1962,"▁看":1963,"▁祝":1964,"▁若":1965,"▁不是":1966,"▁永远":1967,"▁ou":1968,"▁re":1969,"▁过去":1970,"▁微笑":1971,"▁美国":1972,"▁为了":1973,"▁学习":1974,"。而":1975,"。不要":1976,"。喜欢":1977,"。早安":1978,"一条":1979,"三个":1980,"下的":1981,"不够":1982,"不喜欢":1983,"不需要":1984,"两个人":1985,"件很":1986,"伤痛":1987,"你能":1988,"你想要":1989,"健康":1990,"公司":1991,"决心":1992,"出的":1993,"加油":1994,"反而":1995,"口语":1996,"台词":1997,"吗\r\n":1998,"周围":1999,"周末":2000,"哦\r\n":2001,"在意":2002,"城市":2003,"天气":2004,"失望":2005,"学英语":2006,"它的":2007,"安排":2008,"完成":2009,"将来":2010,"小时":2011,"小的":2012,"就越":2013,"年轻":2014,"幸运":2015,"心理":2016,"意外":2017,"感到":2018,"感动":2019,"懂得":2020,"成就":2021,"承受":2022,"拥抱":2023,"收获":2024,"政府":2025,"是,":2026,"是一个":2027,"晚上":2028,"有点":2029,"有的":2030,"有勇气":2031,"某个人":2032,"欢迎":2033,"正确":2034,"环境":2035,"的前":2036,"的爱情":2037,"目标":2038,"研究":2039,"童话":2040,"第二":2041,"老师":2042,"自我":2043,"行动":2044,"视频":2045,"言\r\n":2046,"记忆":2047,"过程":2048,"这些":2049,"这世上":2050,"适合":2051,"都能":2052,"里,":2053,"随着":2054,"首歌":2055,"高兴":2056,"我们会":2057,"的人。":2058,",你才":2059,",你的":2060,",不如":2061,",我也":2062,"没有人":2063,",而且":2064,"知道我":2065,"ere":2066,"ang":2067,",那就":2068,"的时候,你":2069,",而是你":2070,"ard":2071,"怎么看":2072,"2013":2073,"▁don't":2074,"其实我":2075,"▁be":2076,"简单的":2077,"▁有时候,":2078,"的那一刻":2079,"▁喜欢请关注\r\n":2080,"▁lo":2081,"准备好":2082,"▁An":2083,"语录请关注":2084,"抱抱]\r\n":2085,"太阳]":2086,"更多精彩语录请关注":2087,"喜欢请收听\r\n":2088,"吸血鬼日记":2089,"[左抱抱]\r\n":2090,"更多精彩语录请关注[左抱抱]\r\n":2091,",人":2092,",做":2093,",因":2094,",把":2095,",看":2096,",生活":2097,"0%":2098,"2.":2099,"60":2100,":有":2101,"Ch":2102,"TA":2103,"The":2104,"[哈哈":2105,"ak":2106,"bod":2107,"der":2108,"ep":2109,"hat":2110,"ok":2111,"op":2112,"os":2113,"ry":2114,"rom":2115,"s.":2116,"~(关注\r\n":2117,"▁L":2118,"▁W":2119,"▁上":2120,"▁从":2121,"▁他":2122,"▁太":2123,"▁她":2124,"▁很":2125,"▁总":2126,"▁最":2127,"▁马":2128,"▁--":2129,"▁朋友":2130,"▁希望":2131,"▁分享":2132,"❤喜欢请收听\r\n":2133,"。在":2134,"。当":2135,"。我们":2136,"。只要":2137,"上一":2138,"不曾":2139,"不见":2140,"不一样":2141,"两个":2142,"为我":2143,"之后":2144,"也不会":2145,"了才知道":2146,"人在":2147,"他人":2148,"以后":2149,"件事情":2150,"作家":2151,"你想做":2152,"你从未":2153,"使用":2154,"做什么":2155,"关键":2156,"前,":2157,"前行":2158,"十年":2159,"原因":2160,"去爱":2161,"变化":2162,"同行":2163,"后来":2164,"否则":2165,"听到":2166,"啊,":2167,"增长":2168,"大学":2169,"大量":2170,"天空":2171,"头发":2172,"好想":2173,"子\r\n":2174,"它们":2175,"安全":2176,"完全":2177,"实的":2178,"实际":2179,"寂寞":2180,"就在":2181,"就算":2182,"左右":2183,"平凡":2184,"幻想":2185,"影子":2186,"彼此":2187,"心,":2188,"心的":2189,"必要":2190,"思想":2191,"想象":2192,"找不到":2193,"承诺":2194,"提出":2195,"提醒":2196,"提高":2197,"整个":2198,"旅行":2199,"时尚":2200,"是最":2201,"是\r\n":2202,"是件很":2203,"最重要":2204,"月3":2205,"有效":2206,"有那么":2207,"期望":2208,"标志":2209,"欺骗":2210,"每个":2211,"注定":2212,"注意":2213,"活得":2214,"活着":2215,"深处":2216,"然后":2217,"现实":2218,"留在":2219,"的你":2220,"的大":2221,"的女":2222,"的男":2223,"的朋友":2224,"的梦想":2225,"的意思":2226,"的声音":2227,"看不到":2228,"真心":2229,"睡觉":2230,"确实":2231,"社会":2232,"积极":2233,"突然":2234,"第一个":2235,"精神":2236,"结合":2237,"给予":2238,"绝望":2239,"考试":2240,"考验":2241,"自信":2242,"自然":2243,"艺术":2244,"认识":2245,"让人":2246,"让他":2247,"让你的":2248,"让别人":2249,"记住":2250,"说我":2251,"说的":2252,"过于":2253,"过的":2254,"进来":2255,"通过":2256,"都可以":2257,"里的":2258,"重新":2259,"除了":2260,"默默":2261,"一个新的":2262,"▁我在":2263,"▁我不是":2264,"▁我觉得":2265,"你的梦想":2266,",不管":2267,",我不":2268,",我的":2269,"什么\r\n":2270,"什么。\r\n":2271,"不要放弃":2272,",但它":2273,",而不是":2274,",而在于":2275,"的事。\r\n":2276,",就像":2277,"他们的":2278,"的一面":2279,"ough":2280,"。。。\r\n":2281,",因为我":2282,"不能接受":2283,"爱你。\r\n":2284,"▁are":2285,"任何事":2286,"▁me":2287,"▁make":2288,",不是因为":2289,"▁do":2290,"英文\r\n":2291,"▁有时候,你":2292,",让我":2293,"真正的幸福":2294,"ect":2295,"▁go":2296,"使你更":2297,"▁每天一句":2298,",想想":2299,"uck":2300,"对不起":2301,"ight":2302,"▁love":2303,"[哈哈]":2304,"body":2305,"!@":2306,",加":2307,",和":2308,",对":2309,",用":2310,",越":2311,",还是":2312,",只有":2313,",明天":2314,",无论":2315,",直到":2316,",成为了":2317,"1日":2318,":http://t.cn/z":2319,";你":2320,"Th":2321,"VI":2322,"au":2323,"are":2324,"ch":2325,"em":2326,"ia":2327,"ir":2328,"ile":2329,"now":2330,"pp":2331,"ru":2332,"s,":2333,"we":2334,"▁9":2335,"▁N":2336,"▁R":2337,"▁“":2338,"▁《":2339,"▁今":2340,"▁但":2341,"▁刚":2342,"▁可":2343,"▁和":2344,"▁快":2345,"▁约":2346,"▁能":2347,"▁谁":2348,"▁长":2349,"▁高":2350,"▁\r\n":2351,"▁。\r\n":2352,"▁世界":2353,"▁an":2354,"▁只是":2355,"▁大家":2356,"▁早安\r\n":2357,"▁哈哈":2358,"▁也许":2359,"▁感谢":2360,"▁19":2361,"。#":2362,"。~":2363,"。要":2364,"。这":2365,"《吸血鬼日记":2366,"一。":2367,"不出":2368,"不多":2369,"不在于":2370,"不适合":2371,"两人":2372,"丧失":2373,"为自己":2374,"么\r\n":2375,"之所以":2376,"也可以":2377,"了自己":2378,"争取":2379,"事实":2380,"人员":2381,"令人":2382,"们,":2383,"价格":2384,"份礼物":2385,"伤害":2386,"作为":2387,"你将":2388,"你,我":2389,"你是我":2390,"你是否":2391,"依然":2392,"便是":2393,"假装":2394,"做事":2395,"做出":2396,"做到":2397,"做好":2398,"做\r\n":2399,"共同":2400,"出现在":2401,"到哪":2402,"到你的":2403,"到最后":2404,"动的":2405,"动词":2406,"励志":2407,"单词":2408,"单身":2409,"参与":2410,"发布":2411,"取得":2412,"可怕":2413,"合作":2414,"同事":2415,"同一个":2416,"吧!":2417,"听了":2418,"啦\r\n":2419,"回去":2420,"回家":2421,"坚信":2422,"多久":2423,"多\r\n":2424,"妈妈":2425,"完整":2426,"尊重":2427,"小事":2428,"带着":2429,"常常":2430,"平静":2431,"当初":2432,"当然":2433,"很好":2434,"很快":2435,"心\r\n":2436,"情人":2437,"成\r\n":2438,"打动":2439,"改说“":2440,"放下":2441,"放在":2442,"教育":2443,"文字":2444,"无关":2445,"早\r\n":2446,"时,你":2447,"明显":2448,"是很":2449,"是真的":2450,"最差":2451,"最终":2452,"最喜欢":2453,"月2":2454,"有所":2455,"有一个":2456,"有时候":2457,"有意义":2458,"条件":2459,"来,":2460,"来源":2461,"根本":2462,"梦中":2463,"梦\r\n":2464,"欢乐":2465,"母亲":2466,"每一":2467,"毕业":2468,"水平":2469,"泪水":2470,"清楚":2471,"满足":2472,"演出":2473,"激动":2474,"热烈":2475,"热爱":2476,"爱自己":2477,"爱的人":2478,"犯罪":2479,"珍贵":2480,"电视":2481,"的地":2482,"的,不":2483,"的就是":2484,"的幸福":2485,"的努力":2486,"的日子":2487,"的理由":2488,"的方式":2489,"的价值":2490,"的安排":2491,"的意外":2492,"的标志":2493,"着你":2494,"确定":2495,"祝福":2496,"笑着":2497,"笑话":2498,"等到":2499,"篇文章":2500,"系统":2501,"给自己":2502,"老天":2503,"而改变":2504,"脚步":2505,"至于":2506,"苦难":2507,"荣耀":2508,"获得":2509,"要做":2510,"要求":2511,"计划":2512,"计较":2513,"说明":2514,"说话":2515,"说:“":2516,"责任":2517,"超过":2518,"身上":2519,"身体":2520,"这种":2521,"这句话":2522,"进入":2523,"追寻":2524,"造成":2525,"都没有":2526,"都不会":2527,"酒,":2528,"里\r\n":2529,"金钱":2530,"错的":2531,"面前":2532,"食物":2533,"自己想要":2534,"▁我爱":2535,"▁我的":2536,",你们":2537,"你的心":2538,",不代表":2539,"什么时候":2540,",而爱上":2541,"的事。":2542,"的事物":2543,"一个人的":2544,",就算":2545,",就能":2546,"快乐的":2547,",那些":2548,",那你":2549,"我的心":2550,"是一场":2551,"朋友是我的":2552,"无法改变":2553,"无法控制":2554,",也不要":2555,"重要,重要的是":2556,"成为一个":2557,"生命中的":2558,"。。。":2559,"这个世界":2560,"这个世界上":2561,"开始\r\n":2562,"▁不要只":2563,"爱你]":2564,"自己的错误":2565,"▁at":2566,"▁all":2567,"觉得我":2568,",而是因为":2569,"▁转发微博#":2570,"的事情\r\n":2571,"放弃的那一刻":2572,"选择,而爱上":2573,"ate":2574,",这是":2575,"▁st":2576,"一次的":2577,"可能会":2578,"可能是":2579,",一名":2580,"▁不管":2581,"怎么样":2582,"▁如果你想":2583,",它会":2584,"让你觉得":2585,"一样东西":2586,"thing":2587,"值得拥有":2588,"值得等待":2589,"坚持走":2590,"的那个人":2591,"即使是":2592,"ici":2593,"一句话":2594,"就像一":2595,"勇敢的":2596,"遇见你是":2597,",然而":2598,"very":2599,"一定会":2600,"ack":2601,",只能":2602,"rain":2603,"▁新年":2604,"之前,":2605,"命运的安排":2606,"有些事,":2607,"▁one":2608,"▁世界上最":2609,"”,改说“":2610,"▁know":2611,"主义者":2612,"▁have":2613,"▁与其":2614,"▁out":2615,"▁每天一句:":2616,",成为了朋友是我的":2617,"你是我无法控制":2618,"选择,而爱上你是我无法控制":2619,"遇见你是命运的安排":2620,",成为了朋友是我的选择,而爱上你是我无法控制":2621,"遇见你是命运的安排,成为了朋友是我的选择,而爱上你是我无法控制":2622,"遇见你是命运的安排,成为了朋友是我的选择,而爱上你是我无法控制的意外":2623,"'\r\n":2624,",使":2625,",再":2626,",又":2627,",哪":2628,",如":2629,",心":2630,",新":2631,",更":2632,",由":2633,",一个":2634,",关注\r\n":2635,",朋友":2636,",希望":2637,",现在":2638,",怎么":2639,",早安\r\n":2640,",其实":2641,",如果你":2642,",第一次":2643,",尽管":2644,",否则":2645,"0个":2646,"15":2647,"1月":2648,":不":2649,":\r\n":2650,";如果":2651,"?\r\n":2652,"AN":2653,"It":2654,"Ian":2655,"MG":2656,"ON":2657,"Of":2658,"You":2659,"[泪":2660,"ain":2661,"bo":2662,"day":2663,"e:":2664,"ee":2665,"ip":2666,"iz":2667,"ior":2668,"ky":2669,"lin":2670,"man":2671,"ment":2672,"mile":2673,"ning":2674,"ood":2675,"pect":2676,"ro":2677,"rough":2678,"ta":2679,"ter":2680,"yy":2681,"”;不要":2682,"▁!":2683,"▁'":2684,"▁)":2685,"▁4":2686,"▁5":2687,"▁P":2688,"▁j":2689,"▁以":2690,"▁假":2691,"▁只":2692,"▁多":2693,"▁富":2694,"▁小":2695,"▁就":2696,"▁投":2697,"▁明":2698,"▁用":2699,"▁笑":2700,"▁自":2701,"▁谢":2702,"▁你的":2703,"▁好的":2704,"▁那些":2705,"▁...":2706,"▁那么":2707,"▁le":2708,"▁曾经":2709,"▁晚安\r\n":2710,"▁早上":2711,"▁距离":2712,"▁'s":2713,"▁un":2714,"▁up":2715,"▁微信":2716,"▁突然":2717,"▁遇见你是命运的安排,成为了朋友是我的选择,而爱上你是我无法控制的意外":2718,"。-":2719,"。他":2720,"。她":2721,"。大家":2722,"。更多":2723,"。如果你":2724,"。晚安":2725,"。有些事,":2726,"一個":2727,"一大":2728,"一张":2729,"一开始":2730,"一分钟":2731,"上,":2732,"上去":2733,"下去":2734,"下。\r\n":2735,"不停":2736,"不懂":2737,"不快乐":2738,"不爱你":2739,"不可能":2740,"不在乎":2741,"与你":2742,"专家":2743,"专注":2744,"两天":2745,"个单词":2746,"中有":2747,"中的一":2748,"为别人":2749,"为任何人":2750,"主要":2751,"主题":2752,"之旅":2753,"乐观":2754,"也在":2755,"也有":2756,"也能":2757,"也要":2758,"书写":2759,"了会":2760,"了我":2761,"了一个":2762,"了,你":2763,"了多少":2764,"事物":2765,"些人":2766,"交流":2767,"亲爱":2768,"人人":2769,"人民":2770,"人能":2771,"今年":2772,"今日":2773,"令我":2774,"众不同":2775,"会很":2776,"会发生":2777,"伟大的":2778,"你!":2779,"你;":2780,"你也":2781,"你做":2782,"你更":2783,"你的人":2784,"信念":2785,"倒不如":2786,"偷笑":2787,"入睡":2788,"全部":2789,"六十":2790,"内在":2791,"决于":2792,"几个":2793,"创意":2794,"力的":2795,"办法":2796,"加拿":2797,"动\r\n":2798,"勇于":2799,"却不能":2800,"去改变":2801,"又是":2802,"又有":2803,"取决于":2804,"另外":2805,"另一种":2806,"只需要":2807,"可爱":2808,"各种":2809,"各自":2810,"合适":2811,"同样":2812,"周年":2813,"哦,":2814,"嘻嘻":2815,"回到":2816,"回头":2817,"回答":2818,"回首":2819,"在其":2820,"地为":2821,"外表":2822,"多数":2823,"大人":2824,"天堂":2825,"女性":2826,"好。":2827,"好心情":2828,"始终":2829,"子。\r\n":2830,"字母":2831,"学家":2832,"宁愿":2833,"它会":2834,"它。\r\n":2835,"定义":2836,"实验":2837,"对你的":2838,"寻找":2839,"将就":2840,"小小的":2841,"就要":2842,"巴西":2843,"市场":2844,"帮助":2845,"常用":2846,"年,":2847,"年来":2848,"度过":2849,"得起":2850,"心没":2851,"忙,":2852,"总统":2853,"意识":2854,"感激":2855,"成真":2856,"成都":2857,"我就":2858,"我\r\n":2859,"战争":2860,"承担":2861,"把握":2862,"摄影":2863,"支持":2864,"改天":2865,"放不":2866,"放开":2867,"文化":2868,"旅程":2869,"无可":2870,"无限":2871,"时代":2872,"时的":2873,"是:":2874,"是因为":2875,"是不是":2876,"是这样":2877,"是为了":2878,"是最好的":2879,"是如此":2880,"更。\r\n":2881,"更强大":2882,"最有":2883,"最酸":2884,"有钱":2885,"服务":2886,"本来":2887,"果断":2888,"某个":2889,"查看":2890,"根据":2891,"每次":2892,"每一次":2893,"比你":2894,"没人":2895,"没心没":2896,"活的":2897,"深深":2898,"激情":2899,"点,":2900,"点的":2901,"爱。":2902,"爱的人,":2903,"父亲":2904,"爸爸":2905,"独立":2906,"生人":2907,"生存":2908,"用心":2909,"的力":2910,"的历":2911,"的好":2912,"的情":2913,"的最":2914,"的温":2915,"的美":2916,"的越":2917,"的道":2918,"的.\r\n":2919,"的工作":2920,"的问题":2921,"的距离":2922,"的风景":2923,"的感情":2924,"的存在":2925,"的结局":2926,"的自己\r\n":2927,"相爱":2928,"真是":2929,"睡多久":2930,"禁止":2931,"福音":2932,"穿越":2933,"竟然":2934,"第一天":2935,"等于":2936,"管理":2937,"精选":2938,"红色":2939,"经意":2940,"给我们":2941,"网站":2942,"美元":2943,"而烦恼":2944,"耶和":2945,"背后":2946,"胡胡":2947,"自尊":2948,"自私":2949,"自身":2950,"至少":2951,"般的":2952,"节日":2953,"若不":2954,"莫过于":2955,"行为":2956,"表现":2957,"要有":2958,"要走":2959,"要学会":2960,"解释":2961,"认真":2962,"让他们":2963,"议论":2964,"证明":2965,"试图":2966,"语言":2967,"说出":2968,"说出来":2969,"调查":2970,"赢家":2971,"走进":2972,"超级":2973,"跟随":2974,"路\r\n":2975,"转身":2976,"过得":2977,"过来":2978,"过日子":2979,"迎接":2980,"还可以":2981,"这张":2982,"这部":2983,"那就":2984,"都不是":2985,"里面":2986,"野鸡":2987,"错的人":2988,"阻止":2989,"需求":2990,"青春":2991,"风雨":2992,"我们不":2993,"一个你爱":2994,"的人都":2995,"的人你看":2996,"▁我从":2997,"▁我知道":2998,"▁我相信":2999,",你所":3000,",你拥有":3001,"你的光":3002,",不会":3003,",不能":3004,"就是一":3005,",我不想":3006,"没有什么":3007,"什么是":3008,"不是因为":3009,"喜欢请关注\r\n":3010,"世界,":3011,"世界的":3012,"▁tim":3013,"关注@":3014,"一个人,你":3015,"的,有":3016,"----":3017,"不会知道":3018,"ank":3019,"ong":3020,"他们想":3021,"他们不能接受":3022,"永远也":3023,"永远都是":3024,"的一件事情":3025,",那只能":3026,"了,因为":3027,"▁如果没有":3028,"是一切":3029,"是一份礼物":3030,"的时候,我们":3031,",也是":3032,"重要。":3033,"。。。。":3034,"。。更多精彩语录请关注[左抱抱]\r\n":3035,"成功\r\n":3036,"这个句子":3037,",因为它":3038,"res":3039,"▁不要让":3040,"自己的心":3041,"还是要":3042,"▁转发微博。【":3043,"微笑\r\n":3044,"微笑。\r\n":3045,"的事情,":3046,"的事情。\r\n":3047,"现在\r\n":3048,"放弃。":3049,"真的很":3050,"美国人":3051,"est":3052,"llll":3053,"▁smile":3054,"▁what":3055,"▁生活中的":3056,"ist":3057,"▁man":3058,"▁you.":3059,"找到了":3060,"找到合适":3061,"一点,":3062,"发现,":3063,"▁当你在":3064,"▁ch":3065,"▁can":3066,"失败了":3067,"孩子们":3068,"有多坚强":3069,"翻译:":3070,",不要为任何人":3071,"ome":3072,"▁by":3073,"的东西。":3074,"......\r\n":3075,"并不重要,重要的是":3076,"了一辈子":3077,"完美的":3078,"完美时刻":3079,"最好的朋友":3080,"这是我的":3081,"。[爱你]":3082,"阳光]":3083,",每一":3084,"▁lif":3085,"曾经拥有":3086,"的心情":3087,"别人的看法":3088,"~~~":3089,"内心深处":3090,"▁Th":3091,"充满了":3092,"来说,你":3093,",还能":3094,"你有没有":3095,"做的就是":3096,"最美妙":3097,"▁很多人":3098,"▁很多时候,":3099,"创造力":3100,"力量\r\n":3101,"活在当下":3102,"▁每个人都":3103,"做过的事":3104,"推荐关注\r\n":3105,"足够的":3106,"▁need":3107,"做自己,不要为任何人":3108,"更好的人":3109,"每天都在":3110,"中国的粉丝们":3111,"做的事,这就是":3112,"哭泣,":3113,"在那里":3114,"浪费时间":3115,"2012年":3116,"▁not":3117,"怎么看待":3118,"▁And":3119,"▁总有一天":3120,"了才知道。有些事,":3121,"▁any":3122,"情人节":3123,"自己的错误是":3124,"[泪]":3125,"”;不要老":3126,"▁微信\r\n":3127,"加拿大":3128,"意识到":3129,"做自己,不要为任何人而改变":3130,"!(":3131,"!太":3132,"!来自\r\n":3133,"!这是":3134,"!虽然":3135,"!加油":3136,"\"\r\n":3137,"'m":3138,"(美国":3139,"):":3140,")。\r\n":3141,",“":3142,",为":3143,",从":3144,",先":3145,",即":3146,",听":3147,",她":3148,",将":3149,",带":3150,",很":3151,",得":3152,",总":3153,",打":3154,",明":3155,",爱":3156,",独":3157,",直":3158,",祝":3159,",结":3160,",什么":3161,",别人":3162,",需要":3163,",转发":3164,",成功":3165,",大家":3166,",享受":3167,",醒来":3168,",好好":3169,",期待":3170,",活在":3171,",眼泪":3172,",虽然":3173,",真爱":3174,"-信":3175,"-号\r\n":3176,"-18":3177,".\"":3178,".3":3179,".我":3180,".来自\r\n":3181,".)\r\n":3182,"1.":3183,"16":3184,"1:":3185,"25":3186,"26":3187,"3:":3188,"43":3189,"4日":3190,"50个":3191,"65":3192,"84":3193,"99":3194,":#":3195,":不要":3196,":今天":3197,";不":3198,";在":3199,";有":3200,";而":3201,";长大":3202,";2.":3203,"=\r\n":3204,"?//@":3205,"AL":3206,"Brain":3207,"Dior":3208,"Ed":3209,"Mar":3210,"Ne":3211,"P8":3212,"PS":3213,"St":3214,"ab":3215,"ag":3216,"aw":3217,"a的":3218,"ber":3219,"cc":3220,"ce":3221,"com":3222,"ea":3223,"eve":3224,"fici":3225,"http://t.cn/":3226,"hal":3227,"ham":3228,"ike":3229,"lo":3230,"lat":3231,"my":3232,"pe":3233,"row":3234,"sel":3235,"us":3236,"was":3237,"xpect":3238,"y_":3239,"~【":3240,"“大":3241,"”的":3242,"”。\r\n":3243,"▁3":3244,"▁:":3245,"▁x":3246,"▁”":3247,"▁】":3248,"▁七":3249,"▁千":3250,"▁发":3251,"▁因":3252,"▁外":3253,"▁如":3254,"▁家":3255,"▁尔":3256,"▁常":3257,"▁平":3258,"▁影":3259,"▁打":3260,"▁把":3261,"▁斯":3262,"▁无":3263,"▁然":3264,"▁神":3265,"▁给":3266,"▁老":3267,"▁被":3268,"▁说":3269,"▁请":3270,"▁越":3271,"▁這":3272,"▁通":3273,"▁自己":3274,"▁//":3275,"▁....":3276,"▁he":3277,"▁时间":3278,"▁中国":3279,"▁任何":3280,"▁可能":3281,"▁en":3282,"▁[心]":3283,"▁......":3284,"▁美丽":3285,"▁开心":3286,"▁即使":3287,"▁)\r\n":3288,"▁信任":3289,"▁让我们":3290,"▁晚安":3291,"▁第一次":3292,"▁所谓":3293,"▁面对":3294,"▁儿子":3295,"▁感情":3296,"▁谢谢":3297,"▁3.":3298,"▁各位":3299,"▁这样的":3300,"▁三个":3301,"▁老师":3302,"▁You":3303,"▁翻译:":3304,"▁~~~":3305,"、高":3306,"。)":3307,"。T":3308,"。一":3309,"。上":3310,"。也":3311,"。如":3312,"。请":3313,"。很多":3314,"。❤喜欢请收听\r\n":3315,"》,":3316,"】指":3317,"一,":3318,"一事":3319,"一双":3320,"一座":3321,"一手":3322,"一般":3323,"一遍":3324,"上了":3325,"上传":3326,"上天":3327,"上是":3328,"上\r\n":3329,"上一个人":3330,"上看到":3331,"下次":3332,"下降":3333,"下面":3334,"下一手":3335,"不,":3336,"不住":3337,"不决":3338,"不及":3339,"不失":3340,"不已":3341,"不开":3342,"不必":3343,"不用":3344,"不觉":3345,"不完美":3346,"不容易":3347,"不代表":3348,"不愿意":3349,"不属于":3350,"不快乐,":3351,"与人":3352,"与坚持":3353,"与众不同":3354,"专业":3355,"世间":3356,"两种":3357,"中,我们":3358,"中看到":3359,"为之":3360,"主\r\n":3361,"丽·":3362,"之一":3363,"也无法":3364,"也不能":3365,"也只不过":3366,"书\r\n":3367,"了就":3368,"了太多":3369,"了以后":3370,"事\r\n":3371,"亮]":3372,"人家":3373,"今晚":3374,"他会":3375,"他带":3376,"他竟然":3377,"代价":3378,"代替":3379,"以前":3380,"以及":3381,"以外":3382,"们的":3383,"价还":3384,"任务":3385,"会失去":3386,"会一直":3387,"会变成":3388,"会是什么":3389,"伟大":3390,"伤的":3391,"体会":3392,"体验":3393,"何必":3394,"余生":3395,"作品":3396,"你得":3397,"你想":3398,"你我":3399,"你最":3400,"你什么":3401,"你知道":3402,"你自己的":3403,"你看到":3404,"你拥抱":3405,"保留":3406,"保证":3407,"做个":3408,"做些":3409,"做你":3410,"做我":3411,"做的,":3412,"做决定":3413,"停留":3414,"偶尔":3415,"克尔":3416,"克\r\n":3417,"克号\r\n":3418,"免费":3419,"公布":3420,"关的":3421,"其中":3422,"再次":3423,"再见":3424,"冷笑话":3425,"几天":3426,"出一":3427,"出我的":3428,"击倒":3429,"击\r\n":3430,"分别":3431,"则是":3432,"别的":3433,"到底":3434,"到达":3435,"前世":3436,"动物":3437,"区别":3438,"医院":3439,"十二":3440,"十天":3441,"博文":3442,"友情":3443,"发出":3444,"取代":3445,"口英语":3446,"古希":3447,"只想":3448,"叫声":3449,"可惜":3450,"名字":3451,"后,你":3452,"向前":3453,"吧[":3454,"吧。":3455,"听力":3456,"味道":3457,"呼吸":3458,"和我":3459,"和其他":3460,"哪里":3461,"啊!":3462,"啊?":3463,"啊啊":3464,"善待":3465,"回到了":3466,"国,":3467,"图片":3468,"在中":3469,"在心":3470,"在等":3471,"在路":3472,"在这":3473,"在别人":3474,"在中国":3475,"在最不":3476,"地区":3477,"地去":3478,"场\r\n":3479,"增加":3480,"士多":3481,"处理":3482,"外院":3483,"多,":3484,"大脑":3485,"大\r\n":3486,"天员":3487,"太开":3488,"太远":3489,"太福音":3490,"失恋":3491,"头脑":3492,"奇\r\n":3493,"她的":3494,"好了":3495,"好有":3496,"好过":3497,"好。\r\n":3498,"好了。":3499,"始于":3500,"婚礼":3501,"存在于":3502,"学的":3503,"它,你":3504,"安。":3505,"安静":3506,"定的":3507,"实在":3508,"家人":3509,"家里":3510,"富有":3511,"对于":3512,"对自己":3513,"对的人":3514,"小,":3515,"小到":3516,"小孩":3517,"少,":3518,"尔\r\n":3519,"就好":3520,"就能":3521,"就没有":3522,"就不要":3523,"就不会":3524,"就关注\r\n":3525,"就出去":3526,"尽在\r\n":3527,"展示":3528,"岁月":3529,"岁的":3530,"布斯":3531,"带有":3532,"帮我":3533,"并没有":3534,"建议":3535,"开,":3536,"开放":3537,"开了。\r\n":3538,"强者":3539,"当时":3540,"形容":3541,"很有":3542,"很容易":3543,"得更":3544,"得最":3545,"得有":3546,"得多\r\n":3547,"微风":3548,"微-信":3549,"心疼":3550,"忘不了":3551,"怀疑":3552,"思维":3553,"性\r\n":3554,"总说":3555,"恋爱":3556,"悲观":3557,"想到":3558,"想不到":3559,"想太多":3560,"感恩":3561,"愿望":3562,"成。":3563,"我会":3564,"我看":3565,"我爱你":3566,"我希望":3567,"房间":3568,"所为":3569,"所能":3570,"所在\r\n":3571,"所当然":3572,"手所":3573,"手报":3574,"手指":3575,"打击":3576,"承认":3577,"把自己":3578,"投资":3579,"报的":3580,"抱得更":3581,"拍#":3582,"拍摄":3583,"拔野鸡":3584,"拿着":3585,"拿走":3586,"掌控":3587,"掌握":3588,"推动":3589,"教学":3590,"整天":3591,"新年":3592,"新的一天":3593,"新手报":3594,"方面":3595,"旅游":3596,"无其":3597,"无助":3598,"无意义":3599,"无所谓":3600,"早起":3601,"时,我":3602,"时不要":3603,"明星":3604,"明确":3605,"昨日":3606,"是为":3607,"是过":3608,"是,当":3609,"是因为我":3610,"显示":3611,"晚点":3612,"景,":3613,"更重要":3614,"更美好":3615,"最大":3616,"最近":3617,"最难":3618,"最高":3619,"月10":3620,"月亮]":3621,"有,":3622,"有了":3623,"有福":3624,"有限":3625,"有没有":3626,"有一个人":3627,"有一次":3628,"有机会":3629,"朝它":3630,"本书":3631,"本身":3632,"来临":3633,"来到":3634,"来的":3635,"来过":3636,"来\r\n":3637,"杯,不会":3638,"林\r\n":3639,"某天":3640,"样东西":3641,"梦里":3642,"欢喜":3643,"正直":3644,"正面":3645,"此刻":3646,"死于":3647,"每一个":3648,"每件事":3649,"比亚":3650,"比赛":3651,"比较":3652,"比昨天":3653,"毕竟":3654,"水果":3655,"永不":3656,"没必要":3657,"法和":3658,"注:":3659,"泰克号\r\n":3660,"消费":3661,"深的":3662,"漫长":3663,"潮英语":3664,"点;":3665,"点儿":3666,"点。\r\n":3667,"热情":3668,"爱人":3669,"爱\r\n":3670,"爱。\r\n":3671,"爱一个人":3672,"猜猜":3673,"现代":3674,"现出":3675,"现场":3676,"球迷":3677,"理想":3678,"理所当然":3679,"生,":3680,"生死":3681,"生。\r\n":3682,"用来":3683,"用任何":3684,"男女":3685,"男性":3686,"的友":3687,"的基":3688,"的天":3689,"的时":3690,"的歌":3691,"的特":3692,"的答":3693,"的译":3694,"的车":3695,"的我们":3696,"的生命":3697,"的都是":3698,"的微笑":3699,"的,不是":3700,"的未来":3701,"的阳光":3702,"的时刻":3703,"的回忆":3704,"的并不是":3705,"的星星":3706,"的恐惧":3707,"的方向":3708,"的过程":3709,"的外表":3710,"的没心没":3711,"目前":3712,"直觉":3713,"相当":3714,"看见":3715,"看门":3716,"看星星":3717,"看的太":3718,"真实":3719,"眼云":3720,"着。":3721,"神秘":3722,"离别":3723,"称为":3724,"立\r\n":3725,"笑起来":3726,"答应":3727,"经验":3728,"给他们":3729,"绝对":3730,"缘分":3731,"网\r\n":3732,"美剧":3733,"美女":3734,"美德":3735,"美街":3736,"翻唱":3737,"耀眼":3738,"而已":3739,"而忙,":3740,"联系":3741,"肯定":3742,"胜利":3743,"胜过":3744,"能走":3745,"能量":3746,"能成为":3747,"自《":3748,"自\r\n":3749,"航天员":3750,"般的爱情":3751,"花朵":3752,"花\r\n":3753,"苦一":3754,"苦一辈子":3755,"草,":3756,"落落":3757,"落\r\n":3758,"蛋]":3759,"行\r\n":3760,"被忘记":3761,"要是":3762,"解脱":3763,"說\r\n":3764,"讨价还":3765,"让它":3766,"让步":3767,"记性":3768,"评论":3769,"试试":3770,"诚实":3771,"语法":3772,"语\r\n":3773,"说爱":3774,"说过":3775,"读了":3776,"购买":3777,"走走":3778,"起起":3779,"超越":3780,"过。":3781,"过分":3782,"过的东西":3783,"还在":3784,"还能":3785,"还没有":3786,"还记得":3787,"还不如":3788,"这次":3789,"这就是":3790,"进去":3791,"进行":3792,"连续":3793,"透反而":3794,"道德":3795,"都看":3796,"都不知道":3797,"配拥有":3798,"酒杯":3799,"里最":3800,"重庆":3801,"重量":3802,"长时间":3803,"间的":3804,"闻女孩":3805,"难以":3806,"难免":3807,"难道":3808,"面\r\n":3809,"鞋子":3810,"音部":3811,"频繁":3812,"风格":3813,"飞行":3814,"香,":3815,"..\r\n":3816,"我们很":3817,"我们有":3818,"我们自己":3819,"我们可以":3820,"自己很":3821,"自己是":3822,"自己最":3823,"一个你":3824,"一个\r\n":3825,"一个伟大的":3826,"的人。你":3827,"▁我对":3828,"▁我这":3829,"▁我今天":3830,"▁我不知道":3831,"▁我一直在":3832,",你将":3833,",你看":3834,",你要":3835,",你永远":3836,",你仍然":3837,",你也可以":3838,",你还是要":3839,"你的世界":3840,"你的眼睛":3841,"你的一生":3842,"你的笑容":3843,"生活。\r\n":3844,",不求":3845,",不过":3846,"就是这样":3847,"就是让自己":3848,"就是我,":3849,"因为我们":3850,",我必":3851,",我想":3852,",我可能":3853,",但不是":3854,",但总会":3855,",而我":3856,",而是一":3857,"不是一个":3858,"不是你的":3859,"喜欢你":3860,"喜欢自己":3861,"的事儿":3862,"的事\r\n":3863,"的事;长大":3864,"可以不":3865,"可以和":3866,"可以在":3867,"可以用":3868,"可以选择":3869,"ink":3870,"▁你是":3871,"▁你知道":3872,"era":3873,"erhal":3874,"的,是":3875,",就不要":3876,",就关注\r\n":3877,",就必须":3878,",就一定":3879,"//@全球":3880,"不会再":3881,"不会很快":3882,"的一种":3883,"的一件事":3884,"ous":3885,"快乐。":3886,"快乐。\r\n":3887,",那叫":3888,",那就是":3889,"需要保持":3890,"▁有人":3891,"....\r\n":3892,"▁如果不":3893,"▁如果我":3894,"的时候会":3895,"的时候,我":3896,"hed":3897,"hen":3898,"只是我":3899,"幸福是件很":3900,"朋友们":3901,"英语#":3902,"转发\r\n":3903,",也不会":3904,"重要的":3905,"重要的人":3906,"今天的":3907,"生命是一份礼物":3908,"▁在你":3909,"▁在这个世界上":3910,"▁不要因为":3911,"不能改变":3912,"爱情,":3913,"时间的":3914,"梦想,":3915,"梦想而忙,":3916,"都是因为":3917,"自己的感觉":3918,"▁ag":3919,"▁//@冷笑话":3920,",有些人":3921,"▁当我":3922,"▁当我们":3923,"努力工作":3924,"觉得自己":3925,"的人,是":3926,"的人,都是":3927,"的人,他竟然":3928,",我们必须":3929,",我们需要保持":3930,"失去的,":3931,"失去希望":3932,"希望自己":3933,"微笑吧,":3934,"的事情就是":3935,"相信你":3936,"相信我":3937,"相信自己":3938,"相信自己,":3939,"选择;":3940,"美国总统":3941,",这些":3942,",这样":3943,",这种":3944,"ese":3945,"▁sth":3946,"▁see":3947,",是因为":3948,"▁we":3949,"▁wor":3950,"▁who":3951,"的是,我":3952,"arl":3953,"arn":3954,"ary":3955,"orning":3956,"▁生活中":3957,",一定":3958,"只有你":3959,"只有一个人":3960,"是我不想":3961,"看到了":3962,"▁my":3963,"找到一个":3964,"起来的":3965,"事情会":3966,"[心][心]":3967,"一切都会":3968,"发生在":3969,"发生的":3970,",它是":3971,"已经拥有":3972,"为了梦想而忙,":3973,"那么多":3974,"明天\r\n":3975,",要学会":3976,"决定我们":3977,"出来的":3978,"忘记一个人":3979,"▁人生最大的":3980,"▁人生就像一":3981,"▁人生充满了":3982,"学习了":3983,"学习英语":3984,"接受生活":3985,"100":3986,"▁from":3987,"其实是":3988,"翻译】":3989,"omerhal":3990,"▁bit":3991,"想做的事":3992,"简单是件很":3993,"简单的事;长大":3994,"英文语录":3995,"认为对":3996,",让我们":3997,",让自己":3998,"▁this":3999,"▁through":4000,"▁per":4001,"一些人,":4002,"ase":4003,"ason":4004,"给你带来":4005,"美好,":4006,"醒来。\r\n":4007,"为什么当初":4008,"也许就是":4009,"忘了梦想":4010,"这里。\r\n":4011,"那个特别":4012,"▁Ch":4013,"在你心里":4014,"痛苦的":4015,"这么多":4016,"▁off":4017,"!!\r\n":4018,",并非":4019,"不想失去":4020,"遇见,不能":4021,"怎样,你还是要":4022,"都不太":4023,"都有一个":4024,"▁gu":4025,"▁爱是":4026,"▁it's":4027,"好好享受":4028,",才能":4029,",才要":4030,"▁every":4031,"。---":4032,"到了这里。\r\n":4033,"结束了":4034,"▁没有人":4035,"▁这个世界上":4036,"告诉你":4037,"唯一需要":4038,"把你抱得更":4039,"的爱国":4040,"第一步":4041,"继续生活":4042,"时候,幸福是件很":4043,"▁别让":4044,"最美的":4045,"最美好的":4046,"____":4047,"▁要么":4048,"不得不":4049,"所谓的":4050,"抱抱]":4051,"方法\r\n":4052,"最好的一面":4053,"每个人都":4054,"的感觉\r\n":4055,"不再是":4056,"做过的事情":4057,"多么艰难":4058,"对我来说":4059,"温暖的":4060,"▁我想知道":4061,"---更多精彩语录请关注[左抱抱]\r\n":4062,"▁never":4063,"▁现在是":4064,"上帝\r\n":4065,"会发现你的":4066,"后,简单是件很":4067,"在这里\r\n":4068,"每日一句":4069,"沉默是":4070,",我就在这里":4071,",也不配拥有":4072,",但是我们要":4073,">>>":4074,"▁只要你":4075,"▁真正的朋友":4076,"一段时间":4077,"不断地":4078,"不知不觉":4079,"同学们":4080,"感受到":4081,"成熟的标志":4082,"浪费它,你":4083,"耐心。因为":4084,"▁生活的艺术":4085,"▁http://t.cn/zY":4086,",没人能":4087,"beat":4088,"▁永远不要":4089,"。喜欢请关注\r\n":4090,"周围的人":4091,"学英语好心情":4092,"心理学":4093,"首歌,":4094,",我也相信":4095,"准备好了,":4096,",因它会":4097,"akes":4098,"关键在于":4099,"后来忙":4100,"大量的":4101,"左右,":4102,"整个世界":4103,"月31日":4104,"活得漂亮":4105,"的你,也不配拥有":4106,"的男人,":4107,"给予的":4108,"重新开始":4109,"一个新的开始\r\n":4110,"▁我觉得生命是一份礼物":4111,",不管怎样,你还是要":4112,",但它值得等待":4113,"▁mean":4114,"真正的幸福,我们需要保持":4115,",想想为什么当初":4116,"VIP":4117,"▁No":4118,"《吸血鬼日记》":4119,"最差的你,也不配拥有":4120,"的方式\r\n":4121,"▁不要只追求":4122,"放弃的那一刻,想想为什么当初":4123,"坚持走到了这里。\r\n":4124,"勇敢的做自己,不要为任何人而改变":4125,"Offici":4126,"▁just":4127,"▁假如":4128,"▁投\r\n":4129,"一开始为了梦想而忙,":4130,"个单词,":4131,"倒不如的没心没":4132,"偷笑]":4133,"又有什么":4134,"嘻嘻]":4135,"放不下":4136,"有钱了,":4137,"独立思考":4138,"精选:":4139,"耶和华":4140,"背后议论":4141,"一个你爱的人,他竟然":4142,",我不想浪费它,你":4143,"▁time":4144,"不会知道下一手":4145,"他们不能接受最差的你,也不配拥有":4146,",那只能说明":4147,"▁smile.":4148,"找到合适的人":4149,"并不重要,重要的是你":4150,"最美妙的一件事":4151,"Brainwas":4152,"self":4153,"不快乐,倒不如的没心没":4154,"会是什么,要学会":4155,"你拥抱一个你爱的人,他竟然":4156,"友情是":4157,"士多德":4158,"外院\r\n":4159,"太开心]":4160,"微-信-号\r\n":4161,"是,当你拥抱一个你爱的人,他竟然":4162,"杯,不会苦一辈子":4163,"看门人":4164,"看星星,就":4165,"看的太透反而":4166,"美街拍#":4167,"讨价还价":4168,"起起落落":4169,"▁我今天学习了":4170,",但总会苦一":4171,"▁sth.":4172,"▁人生就像一杯,不会苦一辈子":4173,"▁人生充满了起起落落":4174,"omerhalder":4175,"简单的事;长大后,简单是件很":4176,"把你抱得更紧":4177,"时候,幸福是件很简单的事;长大后,简单是件很":4178,"▁生活的艺术在于":4179,"学英语好心情,关注\r\n":4180,"▁我觉得生命是一份礼物,我不想浪费它,你":4181,"真正的幸福,我们需要保持耐心。因为":4182,"放弃的那一刻,想想为什么当初坚持走到了这里。\r\n":4183,"一开始为了梦想而忙,后来忙":4184,"不会知道下一手会是什么,要学会":4185,"他们不能接受最差的你,也不配拥有最好的":4186,"最美妙的一件事是,当你拥抱一个你爱的人,他竟然":4187,"Brainwashed":4188,"看的太透反而不快乐,倒不如的没心没":4189,"▁人生就像一杯,不会苦一辈子,但总会苦一":4190,"时候,幸福是件很简单的事;长大后,简单是件很幸福":4191,"▁我觉得生命是一份礼物,我不想浪费它,你不会知道下一手会是什么,要学会":4192,"最美妙的一件事是,当你拥抱一个你爱的人,他竟然把你抱得更紧":4193,"▁我觉得生命是一份礼物,我不想浪费它,你不会知道下一手会是什么,要学会接受生活":4194,"!在":4195,"!我":4196,"!這":4197,"!//@":4198,"!生命":4199,"!哈哈":4200,"!你们":4201,"!让我们":4202,"!——《":4203,"#新手报":4204,"%的":4205,"'re":4206,"'ve":4207,"(m":4208,"(t":4209,"(享":4210,"(古希":4211,")!":4212,")(":4213,")。":4214,")【":4215,")是":4216,")来自\r\n":4217,"+一个":4218,",万":4219,",上":4220,",举":4221,",其":4222,",出":4223,",刚":4224,",反":4225,",发":4226,",受":4227,",另":4228,",吃":4229,",后":4230,",嘴":4231,",多":4232,",太":4233,",子":4234,",学":4235,",干":4236,",忙":4237,",手":4238,",指":4239,",掉":4240,",改":4241,",為":4242,",熟":4243,",生":4244,",的":4245,",相":4246,",老":4247,",至":4248,",被":4249,",诚":4250,",走":4251,",超":4252,",转":4253,",过":4254,",除":4255,",首":4256,",喜欢":4257,",永远":4258,",今天":4259,",改变":4260,",生命":4261,",一起":4262,",未来":4263,",都会":4264,",其他":4265,",即使":4266,",学会":4267,",得到":4268,",遇见":4269,",他的":4270,",保持":4271,",许多":4272,",信任":4273,",早上":4274,",终于":4275,",都要":4276,",仍然":4277,",沉默":4278,",英国":4279,",比如":4280,",下的":4281,",其实我":4282,",回家":4283,",亲爱":4284,",说出来":4285,",始于":4286,",活得漂亮":4287,"-M":4288,"-d":4289,"-th":4290,".【":4291,".你":4292,".爱":4293,"/她":4294,"/你是否":4295,"/Brainwashed":4296,"0年":4297,"1号":4298,"1小时":4299,"24":4300,"27":4301,"2:":4302,"31":4303,"32":4304,"35":4305,"37":4306,"3h":4307,"30%":4308,"360":4309,"42":4310,"47":4311,"4个":4312,"5.":4313,"57":4314,"5月31日":4315,"62":4316,"63":4317,"6日":4318,"6月":4319,"6小时":4320,"85":4321,"86":4322,"8日":4323,"97":4324,":\"":4325,":4":4326,":B":4327,":H":4328,":M":4329,":[":4330,":从":4331,":在":4332,":是":4333,":这":4334,":我们":4335,":一个":4336,":中国":4337,":微笑":4338,":哈哈":4339,":这是":4340,":回复@":4341,":关于":4342,":1.":4343,":.爱":4344,";他":4345,";但":4346,";若":4347,";因为":4348,";即使":4349,";当你":4350,";生命中":4351,";3.":4352,"?【":4353,"@D":4354,"@丽":4355,"@小":4356,"@林":4357,"BA":4358,"BC":4359,"Bill":4360,"CL":4361,"Cre":4362,"Cam":4363,"DJ":4364,"EO":4365,"Good":4366,"Hu":4367,"Hey":4368,"HEd":4369,"IN":4370,"IO":4371,"IS":4372,"If":4373,"I'm":4374,"JN":4375,"Jo":4376,"J3h":4377,"LA":4378,"MV":4379,"Mr":4380,"Mic":4381,"NE":4382,"NY":4383,"Nor":4384,"OH":4385,"OL":4386,"OP":4387,"OMG":4388,"PO":4389,"Pong":4390,"RE":4391,"Rust":4392,"SI":4393,"SAN":4394,"Somerhalder":4395,"S63":4396,"TE":4397,"THEd":4398,"UJ3h":4399,"We":4400,"WP8":4401,"WJN":4402,"[原":4403,"[太阳]":4404,"[蛋]":4405,"[偷笑]":4406,"[嘻嘻]":4407,"]关注\r\n":4408,"]//@全球":4409,"_:":4410,"_Offici":4411,"ai":4412,"ait":4413,"ale":4414,"aid":4415,"by":4416,"bam":4417,"ca":4418,"cho":4419,"cent":4420,"do":4421,"ds":4422,"ding":4423,"eb":4424,"ex":4425,"eat":4426,"eel":4427,"fan":4428,"fuck":4429,"ger":4430,"gas":4431,"gres":4432,"hg":4433,"here":4434,"i,":4435,"ies":4436,"ial":4437,"iver":4438,"iac":4439,"ild":4440,"ibo":4441,"igas":4442,"jam":4443,"ler":4444,"l26":4445,"lUJ3h":4446,"mo":4447,"mp":4448,"mer":4449,"na":4450,"no":4451,"o_":4452,"ose":4453,"oore":4454,"ook":4455,"pr":4456,"pon":4457,"ron":4458,"ris":4459,"ric":4460,"s!":4461,"sh":4462,"te":4463,"ty":4464,"ton":4465,"tle":4466,"ud":4467,"ug":4468,"uk":4469,"ulat":4470,"y)":4471,"yst":4472,"~\r\n":4473,"·布":4474,"—《":4475,"“你":4476,"“哈":4477,"“女":4478,"”“":4479,"”一":4480,"”,而是":4481,"▁+":4482,"▁7":4483,"▁?":4484,"▁O":4485,"▁V":4486,"▁i":4487,"▁v":4488,"▁y":4489,"▁—":4490,"▁❤":4491,"▁【":4492,"▁万":4493,"▁三":4494,"▁为":4495,"▁主":4496,"▁也":4497,"▁习":4498,"▁了":4499,"▁事":4500,"▁亲":4501,"▁使":4502,"▁像":4503,"▁克":4504,"▁典":4505,"▁再":4506,"▁写":4507,"▁到":4508,"▁前":4509,"▁华":4510,"▁即":4511,"▁古":4512,"▁吃":4513,"▁同":4514,"▁周":4515,"▁哈":4516,"▁哪":4517,"▁困":4518,"▁坏":4519,"▁夜":4520,"▁够":4521,"▁娜":4522,"▁学":4523,"▁德":4524,"▁心":4525,"▁忙":4526,"▁恶":4527,"▁感":4528,"▁拉":4529,"▁据":4530,"▁提":4531,"▁数":4532,"▁日":4533,"▁杰":4534,"▁步":4535,"▁没":4536,"▁洛":4537,"▁海":4538,"▁深":4539,"▁清":4540,"▁火":4541,"▁物":4542,"▁珍":4543,"▁睡":4544,"▁石":4545,"▁站":4546,"▁等":4547,"▁紧":4548,"▁累":4549,"▁翻":4550,"▁联":4551,"▁苦":4552,"▁莫":4553,"▁见":4554,"▁视":4555,"▁警":4556,"▁记":4557,"▁诺":4558,"▁资":4559,"▁赞":4560,"▁转":4561,"▁远":4562,"▁送":4563,"▁都":4564,"▁随":4565,"▁青":4566,"▁面":4567,"▁预":4568,"▁香":4569,"▁就是":4570,"▁别人":4571,"▁.\r\n":4572,"▁他们":4573,"▁微博":4574,"▁快乐":4575,"▁英语":4576,"▁成为":4577,"▁不能":4578,"▁安\r\n":4579,"▁放弃":4580,"▁真的":4581,"▁选择":4582,"▁一次":4583,"▁所以":4584,"▁总是":4585,"▁想要":4586,"▁已经":4587,"▁未来":4588,"▁10":4589,"▁其实":4590,"▁英文":4591,"▁ke":4592,"▁享受":4593,"▁最后":4594,"▁12":4595,"▁为什么":4596,"▁学会":4597,"▁就像":4598,"▁太多":4599,"▁心里":4600,"▁所有的":4601,"▁世上":4602,"▁早安":4603,"▁保持":4604,"▁ra":4605,"▁'t":4606,"▁北京":4607,"▁地址\r\n":4608,"▁活在":4609,"▁虽然":4610,"▁if":4611,"▁后悔":4612,"▁奇迹":4613,"▁真爱":4614,"▁孤单":4615,"▁还有":4616,"▁因为我":4617,"▁中国的":4618,"▁粉丝们":4619,"▁中文":4620,"▁经济":4621,"▁艰难":4622,"▁两个人":4623,"▁伤痛":4624,"▁目标":4625,"▁视频":4626,"▁随着":4627,"▁2013":4628,"▁完全":4629,"▁平凡":4630,"▁两人":4631,"▁单身":4632,"▁篇文章":4633,"▁专注":4634,"▁查看":4635,"▁激情":4636,"▁关注@":4637,"▁完美的":4638,"▁推荐关注\r\n":4639,"▁2012年":4640,"▁加拿大":4641,"▁=\r\n":4642,"▁布斯":4643,"▁努力工作":4644,"▁勇敢的做自己,不要为任何人而改变":4645,"、、":4646,"、最":4647,"、队":4648,"、自由":4649,"、音乐":4650,"、有的":4651,"、自信":4652,"。\"":4653,"。—":4654,"。《":4655,"。于":4656,"。别":4657,"。它":4658,"。就":4659,"。是":4660,"。爱":4661,"。。\r\n":4662,"。不是":4663,"。关注\r\n":4664,"。朋友":4665,"。不能":4666,"。爱情":4667,"。也许":4668,"。属于":4669,"。晚安\r\n":4670,"。有时":4671,"。谢谢":4672,"。3.":4673,"。抓住":4674,"。比如":4675,"。不能接受":4676,"。早\r\n":4677,"。It":4678,"。什么是":4679,"。这是我的":4680,"。耶和华":4681,"《神":4682,"《老":4683,"》:":4684,"》。\r\n":4685,"》第二":4686,"【果":4687,"【请":4688,"】你":4689,"】[心]":4690,"一人":4691,"一份":4692,"一半":4693,"一场":4694,"一夜":4695,"一日":4696,"一时":4697,"一朵":4698,"一眼":4699,"一草":4700,"一言":4701,"一路":4702,"一部":4703,"一。\r\n":4704,"一部分":4705,"三次":4706,"三道":4707,"上午":4708,"上多":4709,"上学":4710,"上获":4711,"上一个":4712,"上,你":4713,"上生活":4714,"上我的":4715,"上计较":4716,"上认真":4717,"下周":4718,"下一刻":4719,"不入":4720,"不动":4721,"不合":4722,"不喜":4723,"不展":4724,"不愿":4725,"不相":4726,"不着":4727,"不而":4728,"不胜":4729,"不许":4730,"不该":4731,"不说":4732,"不透":4733,"不了,":4734,"不觉得":4735,"不值得":4736,"不了。\r\n":4737,"不开心":4738,"不好,":4739,"不仅仅":4740,"不的努力":4741,"不错的":4742,"不做的事,这就是":4743,"不重要的人":4744,"与其":4745,"与别人":4746,"与他们":4747,"与别人的看法":4748,"与直觉":4749,"业家":4750,"两只":4751,"个好":4752,"个小":4753,"个月":4754,"个男":4755,"个词":4756,"个理由":4757,"个方向":4758,"个结局":4759,"个字母":4760,"中,":4761,"中心":4762,"中要":4763,"中的人":4764,"中有多":4765,"中学习英语":4766,"临在":4767,"为一":4768,"为爱":4769,"为谁":4770,"为难":4771,"为你的":4772,"举办":4773,"么?":4774,"之下":4775,"之为":4776,"之光":4777,"之外":4778,"之行":4779,"之道":4780,"之际":4781,"乎所有":4782,"乐趣":4783,"乐队":4784,"乐\r\n":4785,"也很":4786,"也不要":4787,"也是一":4788,"习语":4789,"书本":4790,"书的":4791,"买了":4792,"买到":4793,"乱了":4794,"了.":4795,"了你":4796,"了再":4797,"了呢":4798,"了好":4799,"了无":4800,"了,不":4801,"了,就":4802,"了朋友":4803,"了一天":4804,"了很多":4805,"了...\r\n":4806,"了你。\r\n":4807,"了进入":4808,"了博文":4809,"事做":4810,"事是":4811,"事的":4812,"事,我不":4813,"二十年":4814,"于原":4815,"于未来":4816,"于千万":4817,"云图":4818,"五个":4819,"五大":4820,"五月":4821,"五种":4822,"亚里":4823,"交会":4824,"交友":4825,"交给":4826,"交网站":4827,"享有":4828,"人与":4829,"人会":4830,"人却":4831,"人地":4832,"人帮":4833,"人心":4834,"人更":4835,"人有":4836,"人要":4837,"人。\r\n":4838,"人,但是":4839,"人醒来":4840,"人怎样":4841,"人啊\r\n":4842,"人来说":4843,"仅是":4844,"今后":4845,"今生":4846,"从你":4847,"从来":4848,"从许多":4849,"从梦中":4850,"从书本":4851,"他,":4852,"他在":4853,"他妈":4854,"他有":4855,"他\r\n":4856,"他人的":4857,"他/她":4858,"付我":4859,"付出了":4860,"令你":4861,"令自己":4862,"以智":4863,"们心疼":4864,"价一个人":4865,"优越":4866,"会使":4867,"会在":4868,"会更":4869,"会觉得":4870,"会让你":4871,"会坚强":4872,"会遇见":4873,"会容易":4874,"会让我们":4875,"会爱上":4876,"会感动":4877,"会让你的":4878,"伤悲":4879,"伤。\r\n":4880,"但是":4881,"低时":4882,"住在你心里":4883,"何时":4884,"作和":4885,"作文":4886,"作回忆":4887,"你听":4888,"你对":4889,"你就":4890,"你眼":4891,"你被":4892,"你要":4893,"你请":4894,"你走":4895,"你没有":4896,"你不是":4897,"你喜欢":4898,"你可以":4899,"你需要":4900,"你成为":4901,"你不能":4902,"你的人,":4903,"你真正":4904,"你一直":4905,"你决定":4906,"你自己,":4907,"你原来":4908,"你是谁":4909,"你的人生":4910,"你生活的":4911,"你生命中的":4912,"你本来":4913,"你”;不要老":4914,"你,不管怎样,你还是要":4915,"使命":4916,"便应":4917,"保罗":4918,"信号":4919,"信和":4920,"信骗":4921,"信心\r\n":4922,"倒计":4923,"倾向":4924,"倾听":4925,"倾诉":4926,"做,":4927,"做梦":4928,"做鬼":4929,"做别人":4930,"做很多":4931,"做人的":4932,"做一些":4933,"做那个":4934,"做出了":4935,"做你想做":4936,"做了才知道。有些事,":4937,"做的事情就是":4938,"停下":4939,"停留在":4940,"偶然":4941,"偷偷":4942,"儿有":4943,"儿童":4944,"充分":4945,"先开":4946,"光,":4947,"光。":4948,"光明":4949,"克服":4950,"克》第二":4951,"免许多":4952,"入,我":4953,"全力":4954,"全国":4955,"全新的":4956,"公共":4957,"公平":4958,"公里":4959,"共度":4960,"兴趣":4961,"其它":4962,"其广":4963,"具有":4964,"典礼":4965,"内容":4966,"再度":4967,"再来":4968,"再成熟":4969,"再寂寞":4970,"军区":4971,"冷。":4972,"冷\r\n":4973,"几率":4974,"出卖":4975,"出发":4976,"出版":4977,"出。\r\n":4978,"出第一步":4979,"分之":4980,"分开":4981,"分手":4982,"分目":4983,"分配":4984,"则要":4985,"刚在":4986,"创业":4987,"初中":4988,"初恋":4989,"利亚":4990,"利用":4991,"别再":4992,"别让":4993,"到一":4994,"到位":4995,"到此":4996,"到目":4997,"到这":4998,"到那":4999,"到\r\n":5000,"到一起":5001,"到让你":5002,"到的人,都是":5003,"制作":5004,"制度":5005,"制造":5006,"前进":5007,"前面":5008,"前\r\n":5009,"剧本":5010,"力而":5011,"力下降":5012,"力所能":5013,"功\r\n":5014,"加入":5015,"加班":5016,"助于":5017,"助人":5018,"助己":5019,"助手":5020,"勇往":5021,"包容":5022,"北卡":5023,"午夜":5024,"午餐":5025,"华丽":5026,"华里,":5027,"博主":5028,"博客":5029,"即便":5030,"却知道":5031,"去何":5032,"去吧":5033,"去年":5034,"去看":5035,"去评":5036,"去过":5037,"去退":5038,"去相信":5039,"去等待":5040,"去尝试":5041,"去看看":5042,"去认识":5043,"去争取":5044,"又很":5045,"又要":5046,"及时":5047,"反对":5048,"发呆":5049,"发气":5050,"发的":5051,"发出来":5052,"取每":5053,"取舍":5054,"取知识":5055,"变强":5056,"口。\r\n":5057,"句型":5058,"句\r\n":5059,"另一条":5060,"另一个人的":5061,"只的":5062,"只需":5063,"只须":5064,"只代表":5065,"叫我":5066,"可及":5067,"可是":5068,"可不是":5069,"可爱的":5070,"吃点":5071,"各地":5072,"合理":5073,"同一":5074,"名的":5075,"后和":5076,"后果":5077,"向任何人":5078,"否定":5079,"否认":5080,"吧?":5081,"吧。\r\n":5082,"吧,我":5083,"吧。。":5084,"吧,要":5085,"吧,因为你":5086,"听从":5087,"听过":5088,"听起来":5089,"吸引":5090,"呆着":5091,"员工":5092,"周四":5093,"周日":5094,"和对":5095,"和平":5096,"和率":5097,"和我的":5098,"和创造力":5099,"和教学":5100,"和沉默是":5101,"品脱":5102,"品质":5103,"哈:":5104,"哥哥":5105,"唯有":5106,"唱到":5107,"唱来":5108,"唱的":5109,"商,":5110,"啊。":5111,"喜乐":5112,"喜爱":5113,"器,":5114,"器:微笑":5115,"回想":5116,"回给你":5117,"因此":5118,"因一次":5119,"国之":5120,"国外":5121,"在:":5122,"在上":5123,"在了":5124,"在亚":5125,"在人":5126,"在密":5127,"在想":5128,"在街":5129,"在谈":5130,"在一个":5131,"在微博":5132,"在生命":5133,"在最后":5134,"在12":5135,"在担心":5136,"在人生":5137,"在情绪":5138,"在做事":5139,"在背后议论":5140,"地外":5141,"地看":5142,"地道":5143,"地\r\n":5144,"地挑战":5145,"地,用":5146,"场景":5147,"场比赛":5148,"坏\r\n":5149,"境地":5150,"境界":5151,"境,你":5152,"士\r\n":5153,"处的":5154,"外,还":5155,"多个":5156,"多远":5157,"多难":5158,"够了\r\n":5159,"大事":5160,"大声":5161,"大师":5162,"大道":5163,"大队":5164,"大雨":5165,"大的人":5166,"大部分":5167,"大,大":5168,"大多数":5169,"天拍":5170,"天的":5171,"天\r\n":5172,"天生的":5173,"太深":5174,"太短":5175,"太想念":5176,"太思考":5177,"头笑着":5178,"奥斯":5179,"奥丽·":5180,"女,":5181,"女人,":5182,"她就":5183,"好”":5184,"好友":5185,"好吃":5186,"好奇":5187,"好的\r\n":5188,"好好的":5189,"好起来":5190,"好一点":5191,"如同":5192,"如生的":5193,"如同一个":5194,"妙\r\n":5195,"子:":5196,"子。":5197,"子图":5198,"字典":5199,"学生":5200,"学英文":5201,"学生的":5202,"宁可":5203,"宁静":5204,"它。":5205,"它就":5206,"它打":5207,"它成为":5208,"它怎样":5209,"它,成功":5210,"安定":5211,"安装":5212,"定。":5213,"宝宝":5214,"宝\r\n":5215,"实行":5216,"客\r\n":5217,"害的":5218,"家的":5219,"对?":5220,"对中":5221,"对它":5222,"对此":5223,"对象":5224,"对世界":5225,"对别人":5226,"对过去":5227,"对某个人":5228,"寻求":5229,"将不":5230,"将有":5231,"将永远":5232,"将过去":5233,"将他带":5234,"小学":5235,"小说":5236,"小龙":5237,"小子\r\n":5238,"少些":5239,"少年":5240,"少数":5241,"尔.":5242,"尚:":5243,"就得":5244,"就有":5245,"就能改变":5246,"就不要放弃":5247,"就睡多久":5248,"尽情":5249,"尽量":5250,"尽可能":5251,"尽全力":5252,"山顶":5253,"山奇\r\n":5254,"工业":5255,"工人":5256,"工具":5257,"巨星":5258,"巨大的":5259,"巨人,":5260,"巨人醒来":5261,"差不多":5262,"巴特":5263,"带上":5264,"带给":5265,"带。\r\n":5266,"带给你":5267,"干,":5268,"干\r\n":5269,"平安":5270,"年4":5271,"年9":5272,"年内":5273,"年。\r\n":5274,"年华里,":5275,"并写":5276,"并不能":5277,"庆幸":5278,"应对":5279,"应用":5280,"应付我":5281,"底线":5282,"底\r\n":5283,"座右":5284,"建立":5285,"建造":5286,"开头":5287,"开,你":5288,"当成":5289,"当的":5290,"当一切":5291,"当一点":5292,"当巨人醒来":5293,"录音":5294,"往事":5295,"很棒":5296,"很短":5297,"很累":5298,"很失败":5299,"很特别":5300,"很小,":5301,"很大,大":5302,"得多":5303,"得很":5304,"得我":5305,"得救":5306,"得时候":5307,"得不到":5308,"得太多":5309,"得进来":5310,"得忘了梦想":5311,"得真正的幸福,我们需要保持耐心。因为":5312,"心安":5313,"心底":5314,"心无":5315,"心灵":5316,"心的人":5317,"心的,":5318,"心动的":5319,"心动\r\n":5320,"心爱的人,":5321,"心的是,我":5322,"必有":5323,"必背":5324,"忍不住":5325,"志愿":5326,"忧。\r\n":5327,"忧伤的":5328,"快樂":5329,"念头":5330,"怀念":5331,"怀抱":5332,"怕只是":5333,"性恋":5334,"总有":5335,"总结":5336,"总能":5337,"恨我":5338,"恨不得":5339,"恶都":5340,"悔恨":5341,"情下":5342,"情愿":5343,"想一":5344,"想去":5345,"想见":5346,"想达":5347,"想一个人":5348,"想到的":5349,"想睡多久":5350,"意志":5351,"意见":5352,"意\r\n":5353,"意想不到":5354,"感。":5355,"感,但":5356,"愿以":5357,"成的":5358,"我到":5359,"我吃":5360,"我很":5361,"我爱":5362,"我要":5363,"我走":5364,"我还":5365,"我。\r\n":5366,"我知道":5367,"我不会":5368,"我觉得":5369,"我还是":5370,"我。你":5371,"我都不":5372,"我内心":5373,"我,我就":5374,"我不在乎":5375,"我手所":5376,"我最好的一面":5377,"我,那只能说明":5378,"或不知道":5379,"所\r\n":5380,"所决定":5381,"所爱,":5382,"手,":5383,"手不":5384,"手娜":5385,"手,一":5386,"手同行":5387,"才照":5388,"才开始":5389,"才明白":5390,"打着":5391,"打破":5392,"打电话":5393,"找口":5394,"把我们":5395,"把什么":5396,"投影":5397,"报告":5398,"报复":5399,"担当一点":5400,"拉克":5401,"拍\r\n":5402,"指向":5403,"指引":5404,"指的是":5405,"掌]":5406,"接住":5407,"收视":5408,"收到的":5409,"改善":5410,"改正":5411,"放军":5412,"救的":5413,"教人怎样":5414,"数着":5415,"文件":5416,"文学":5417,"文\r\n":5418,"文应该":5419,"断地挑战":5420,"斯·":5421,"斯\r\n":5422,"新一":5423,"新浪":5424,"新闻":5425,"方便":5426,"无数":5427,"无的":5428,"无知":5429,"无缺":5430,"无言":5431,"无需":5432,"日出":5433,"日前":5434,"日常":5435,"旦破":5436,"早餐":5437,"早好\r\n":5438,"时报":5439,"时记忆":5440,"时,那些":5441,"明。":5442,"明智":5443,"星期":5444,"春运":5445,"昨晚":5446,"是真":5447,"是色":5448,"是跟":5449,"是时候":5450,"是个人":5451,"是不够":5452,"是完全":5453,"是确定":5454,"是怎么样":5455,"是无可":5456,"是教人怎样":5457,"显然":5458,"显龙":5459,"更要":5460,"更坚强":5461,"更好\r\n":5462,"更失望":5463,"替代":5464,"最低":5465,"最棒":5466,"最神":5467,"最需要":5468,"最应该":5469,"最美好":5470,"最伤心":5471,"最简单的":5472,"月\r\n":5473,"有余":5474,"有深":5475,"有着":5476,"有,所以":5477,"有许多":5478,"有过的东西":5479,"有担当一点":5480,"服的。":5481,"望必须":5482,"朝你":5483,"期限":5484,"末日":5485,"本\r\n":5486,"权利":5487,"权威":5488,"李小龙":5489,"李显龙":5490,"来爱你":5491,"来看看":5492,"来表示":5493,"杯子":5494,"林肯":5495,"林其广":5496,"果然":5497,"某事":5498,"某种":5499,"某一天":5500,"某人,":5501,"标准":5502,"样子。\r\n":5503,"格拉":5504,"梦境":5505,"梦见":5506,"模式":5507,"模样":5508,"次的":5509,"欢欣":5510,"欺的,":5511,"歌\r\n":5512,"歌手娜":5513,"正日":5514,"段台词":5515,"母鸡":5516,"比冷":5517,"比\r\n":5518,"比你的":5519,"比别人":5520,"比任何":5521,"毛病":5522,"毛的人":5523,"民主义":5524,"永生":5525,"求婚":5526,"求职":5527,"求在我":5528,"求得真正的幸福,我们需要保持耐心。因为":5529,"沉睡":5530,"沙热烈":5531,"没能":5532,"没了自己":5533,"治国,":5534,"法、":5535,"波:":5536,"注明":5537,"泰尔":5538,"洛克》第二":5539,"活动":5540,"活\r\n":5541,"流泪":5542,"流行":5543,"流言":5544,"消失":5545,"消极":5546,"清醒":5547,"游。\r\n":5548,"源于":5549,"满意":5550,"演唱":5551,"潮流":5552,"灭了,你":5553,"点!":5554,"点也是":5555,"点点的":5556,"点击\r\n":5557,"热点":5558,"然泪":5559,"然心动\r\n":5560,"爱她":5561,"爱的时候":5562,"爱唯美":5563,"爱了以后":5564,"父母":5565,"片子":5566,"版本":5567,"版\r\n":5568,"版】[心]":5569,"物质":5570,"特的":5571,"犯错":5572,"犯错误":5573,"球的":5574,"球队":5575,"甜\r\n":5576,"甜的,":5577,"甜的\r\n":5578,"生病":5579,"生\r\n":5580,"生至少":5581,"用的":5582,"用这":5583,"用\r\n":5584,"用一切":5585,"用一辈子":5586,"用助人":5587,"由于":5588,"电站":5589,"电信骗":5590,"男子":5591,"留下":5592,"留着":5593,"留足":5594,"留作回忆":5595,"疯子\r\n":5596,"疼痛":5597,"痛楚":5598,"痛。\r\n":5599,"痛心的是,我":5600,"百万":5601,"的7":5602,"的?":5603,"的“":5604,"的丧":5605,"的医":5606,"的味":5607,"的喜":5608,"的希":5609,"的性":5610,"的恶":5611,"的新":5612,"的棒":5613,"的每":5614,"的留":5615,"的的":5616,"的红":5617,"的让":5618,"的起":5619,"的轻":5620,"的间":5621,"的难":5622,"的面":5623,"的一个":5624,"的知道":5625,"的快乐":5626,"的英语":5627,"的过去":5628,"的可能":5629,"的。(":5630,"的学习":5631,"的你\r\n":5632,"的电影":5633,"的自由":5634,"的内心":5635,"的仅仅":5636,"的理解":5637,"的发展":5638,"的能力":5639,"的到来":5640,"的国家":5641,"的困难":5642,"的伤痛":5643,"的城市":5644,"的童话":5645,"的天空":5646,"的旅行":5647,"的精神":5648,"的每一":5649,"的食物":5650,"的无所谓":5651,"的去评":5652,"的品质":5653,"的宁静":5654,"的山顶":5655,"的巨人,":5656,"目,":5657,"目光":5658,"目的。":5659,"直接":5660,"直面":5661,"相见":5662,"相。\r\n":5663,"看完":5664,"看懂":5665,"看着":5666,"看你的":5667,"看不见":5668,"看他有":5669,"真理":5670,"眼里":5671,"眼,却":5672,"眼中的":5673,"着要":5674,"着你的":5675,"睡着":5676,"睡不着":5677,"知足":5678,"短信":5679,"短短":5680,"短,什么":5681,"石油":5682,"破碎":5683,"确认":5684,"碎使你更":5685,"社交网站":5686,"祝大家":5687,"福第一":5688,"离去":5689,"种人在":5690,"秘密":5691,"称,":5692,"程度":5693,"空间":5694,"空。\r\n":5695,"童鞋":5696,"笑,":5697,"笑的时候":5698,"笑;你":5699,"笑得时候":5700,"等被":5701,"等\r\n":5702,"答,":5703,"管他":5704,"管它怎样":5705,"米比亚":5706,"粉http://t.cn/z":5707,"精力":5708,"紧,":5709,"紧要":5710,"累,没人能":5711,"繁华":5712,"红酒,":5713,"约了我":5714,"纳米比亚":5715,"练有的":5716,"经常":5717,"结婚":5718,"结论":5719,"给出":5720,"给你的":5721,"给别人":5722,"给更好的人":5723,"统统":5724,"维尔":5725,"维斯":5726,"罗斯":5727,"罪恶":5728,"美儿":5729,"美语":5730,"老成":5731,"者的":5732,"者\r\n":5733,"者认为":5734,"而且":5735,"而变":5736,"而是":5737,"而言":5738,"而生活":5739,"而生存":5740,"而哭泣,":5741,"而活\r\n":5742,"背景,":5743,"能、":5744,"能使":5745,"能将":5746,"能骗":5747,"能\r\n":5748,"能一起":5749,"能感觉":5750,"能让你":5751,"能把你":5752,"能做的":5753,"脱离":5754,"自来":5755,"至19":5756,"致的":5757,"舍弃":5758,"花开":5759,"英赛":5760,"行善":5761,"表明":5762,"表演":5763,"表面":5764,"表了博文":5765,"被禁止":5766,"要么":5767,"要像":5768,"要去":5769,"要梦想":5770,"要努力":5771,"要精彩":5772,"要遇到":5773,"要回头":5774,"要比你":5775,"要做的就是":5776,"要掌控":5777,"见过":5778,"解放军":5779,"言人":5780,"认真的":5781,"讨你,":5782,"让每个":5783,"让每个人都":5784,"让不重要的人":5785,"记>":5786,"记录":5787,"记的":5788,"记\r\n":5789,"讲话":5790,"许愿":5791,"论什么时候":5792,"设身":5793,"词\r\n":5794,"诗篇":5795,"诗人,":5796,"诚实的":5797,"话就":5798,"该怎么":5799,"说。\r\n":5800,"说你不":5801,"说的话":5802,"说,我不":5803,"说对不起":5804,"说不出":5805,"说三道":5806,"诺言":5807,"读懂":5808,"课的":5809,"课程":5810,"谈恋":5811,"谈话":5812,"谈安定":5813,"象你的心":5814,"负重":5815,"败了,不":5816,"购物":5817,"资本":5818,"资源":5819,"赢得":5820,"走了":5821,"走出我的":5822,"走,那叫":5823,"赶走":5824,"起了":5825,"起诉":5826,"起\r\n":5827,"越是":5828,"足以":5829,"跟我":5830,"身上的":5831,"车。\r\n":5832,"车电话":5833,"轻信":5834,"轻学英语":5835,"边缘":5836,"过后":5837,"过客":5838,"过着":5839,"过\r\n":5840,"过。\r\n":5841,"过我,":5842,"过什么,":5843,"近在":5844,"近。\r\n":5845,"还不":5846,"还得":5847,"还想":5848,"还没":5849,"还童":5850,"还不够":5851,"这一":5852,"这会":5853,"这是一":5854,"这篇文章":5855,"这段台词":5856,"进口":5857,"进步":5858,"远的距离":5859,"迷了":5860,"迷恋":5861,"追美剧":5862,"适应":5863,"适当的":5864,"透明":5865,"通常":5866,"通道":5867,"速发展":5868,"道#":5869,"道别":5870,"道路":5871,"遗。\r\n":5872,"那就是":5873,"部的":5874,"部电影":5875,"都上":5876,"都跟":5877,"都不要":5878,"都需要":5879,"都无法":5880,"都必须":5881,"都应该":5882,"都为你":5883,"都结束":5884,"都变得":5885,"都没能":5886,"酸甜":5887,"释怀":5888,"释放":5889,"里奇":5890,"里。\r\n":5891,"重复":5892,"量化":5893,"金正日":5894,"钟表":5895,"钱无法":5896,"错,但":5897,"错的,":5898,"错了才知道。有些事,":5899,"键是":5900,"长在":5901,"门运":5902,"门\r\n":5903,"门会让你的":5904,"问\r\n":5905,"问:“":5906,"问,不代表":5907,"问心无":5908,"降临":5909,"降低":5910,"限量":5911,"随时":5912,"随风":5913,"随他们":5914,"难受":5915,"难,但":5916,"难,有":5917,"集\r\n":5918,"青年":5919,"静音":5920,"靠近":5921,"面,却":5922,"音响":5923,"顶时":5924,"项调查":5925,"顺着":5926,"预见":5927,"领人":5928,"频道":5929,"题目":5930,"风得":5931,"风尚:":5932,"飞起来":5933,"飞开了。\r\n":5934,"马上":5935,"马的":5936,"高考":5937,"高频":5938,"鸡蛋":5939,"黑的大":5940,"鼓励":5941,"鼓舞":5942,"鼓掌]":5943,"龙头":5944,"龙的存在":5945,"我们没有":5946,"我们还是":5947,"我们必须":5948,"我们是否":5949,"我们心中":5950,"自己学":5951,"自己生活":5952,"自己长大":5953,"自己失去了":5954,"一个会":5955,"一个全":5956,"一个机会":5957,"一个地方":5958,"一个时刻":5959,"一个简单的":5960,"一个转身":5961,"的人们":5962,"的人多":5963,"的人是":5964,"的人,不":5965,"的人,而是":5966,"的人除了":5967,"的人,就像":5968,"的人,就算":5969,"的人有福":5970,"▁我不":5971,"▁我也":5972,"▁我将":5973,"▁我恨":5974,"▁我请":5975,"▁我希望":5976,"▁我总是":5977,"▁我以为":5978,"▁我就是我,":5979,"▁我在这里\r\n":5980,"▁我会坚强":5981,",你就是":5982,",你是我":5983,",你就会":5984,"你的。":5985,"你的\r\n":5986,"你的。\r\n":5987,"你的生命":5988,"你的幻想":5989,"你的代价":5990,"你的爱人":5991,"生活和":5992,"生活是":5993,"生活,不是":5994,"生活给你":5995,"生活就会":5996,"生活讨价还价":5997,",不懂":5998,",不曾":5999,",不在于":6000,",不在乎":6001,",不能改变":6002,"就是个":6003,",我为":6004,",我爱":6005,",我要":6006,",我爱你":6007,",我那些":6008,",我都会":6009,",我活的":6010,",我只想":6011,"没有朋友":6012,"没有一点":6013,"没有鞋子":6014,"什么就":6015,"什么,而":6016,"时候你的":6017,"不要老":6018,"不要错过":6019,"如果他们":6020,",但却":6021,",但绝":6022,",但这":6023,",但是我":6024,",但这是":6025,",但有钱了,":6026,",而要":6027,",而非":6028,",而不知道":6029,",而其他":6030,"不是你本来":6031,"不是数着":6032,"喜欢,":6033,"喜欢\r\n":6034,"喜欢就是":6035,"喜欢那些":6036,"喜欢你\r\n":6037,"知道自己想要":6038,"知道得太多":6039,"的事是":6040,"的事,是":6041,"世界:":6042,"世界来说,你":6043,"世界末日":6044,"可以多":6045,"可以把":6046,"可以拿":6047,"可以改变":6048,"可以给你":6049,"可以从许多":6050,"可以飞起来":6051,"关注你,":6052,"一个人是":6053,"一个人。\r\n":6054,"一个人有多":6055,"一个人,只是":6056,"一个人呆着":6057,"ins":6058,"int":6059,"▁你需要":6060,"▁你无法":6061,"▁你已经":6062,"▁你永远不会":6063,"▁你每天都在":6064,"erry":6065,"别人怎么":6066,"别人对你的":6067,"的,\r\n":6068,"的,更要":6069,"的,我们必须":6070,",就会":6071,",就得":6072,",就放":6073,",就越":6074,",就放弃":6075,",就不知道":6076,"//@经典":6077,"不会在":6078,"不会害怕":6079,"ane":6080,"ant":6081,"ance":6082,"onver":6083,"oney":6084,"他们必":6085,"永远的":6086,"永远不要":6087,"永远无法":6088,"永远都在":6089,"永远都不会":6090,"的一次":6091,"的一生":6092,"的一句话":6093,"的一首歌":6094,"out":6095,"ould":6096,"ouse":6097,"oupon":6098,"微博并":6099,"快乐、":6100,"快乐的人":6101,"快乐![":6102,"快乐的事情。\r\n":6103,",那只不过":6104,"需要一个":6105,"需要勇气":6106,"▁有时":6107,"▁有没有":6108,"▁有爱的":6109,"▁有的人你看":6110,"我的世界":6111,"我的生命":6112,"我的眼泪":6113,"了,可":6114,"了,爱":6115,"了,大家":6116,"了,然后":6117,"了,才明白":6118,"▁如果他":6119,"▁如果有人":6120,"是一位":6121,"是一名":6122,"是一朵":6123,"的时候\r\n":6124,"的时候,不要":6125,"的时候出现":6126,"hell":6127,"拥有一个":6128,"拥有的东西":6129,"拥有你从未":6130,"只是通":6131,"只是一个":6132,"只是用来":6133,"只是给更好的人":6134,"幸福安":6135,"幸福的":6136,"朋友,":6137,"朋友\r\n":6138,"朋友的价值":6139,"英语推荐":6140,"▁人的":6141,"▁人与人":6142,"无法再":6143,"无法解决":6144,"无法承受":6145,",也别":6146,",也没有":6147,",也不想":6148,"重要\r\n":6149,"重要的事情":6150,"重要的。":6151,"重要的不是":6152,"重要的心情":6153,"今天开始":6154,"今天是我":6155,"今天,期待":6156,"改变\r\n":6157,"改变,不能改变":6158,"成为数":6159,"成为你的":6160,"成为什么样":6161,"成为第一个":6162,"。。......":6163,"。。。【":6164,"成功了":6165,"成功,不要":6166,"这个决定":6167,"开始,":6168,"开始了,":6169,"开始新的":6170,"开始了!":6171,",因为别人":6172,",因为只有你":6173,"ree":6174,"ren":6175,"ret":6176,"ream":6177,"▁在我":6178,"▁在我们":6179,"▁在这个":6180,"▁在你想要":6181,"▁在这世上":6182,"▁在找到合适的人":6183,"▁不要去":6184,"▁不要等待":6185,"▁不要着,":6186,"▁不要根据":6187,"▁不要失去希望":6188,"▁不要轻信":6189,"▁不要知道得太多":6190,"不能服":6191,"不能应付我":6192,"爱你,所以":6193,"爱情\r\n":6194,"爱情故事":6195,"爱情的世界":6196,"爱情结束了":6197,"梦想\r\n":6198,"都是影子":6199,"都是小事":6200,"自己的生活":6201,"自己的,不要":6202,"自己的方式":6203,"自己的内心":6204,"▁al":6205,"▁app":6206,"▁acc":6207,"▁//@2013":6208,"▁//@THEd":6209,"▁//@波:":6210,"▁//@的童话":6211,",有你的":6212,",有一点点":6213,"▁当有人":6214,"中国人":6215,"中国\r\n":6216,"中国人民":6217,"努力。":6218,"努力!\r\n":6219,"还是可以":6220,"过去\r\n":6221,"过去发生":6222,"过去,它":6223,"过去,不如":6224,"过去的历":6225,"那些最":6226,"那些对你":6227,"那些不愿":6228,"的人,就是":6229,"的人,其实":6230,"的人,到哪":6231,",而是没有人":6232,"itor":6233,"ities":6234,"希望\r\n":6235,"微笑着":6236,"微笑的人,":6237,"微笑活在当下":6238,"的事情上":6239,"相信她":6240,"相信它,成功":6241,"任何东西":6242,"任何事情":6243,"放弃\r\n":6244,"真的是":6245,"选择,":6246,"选择去做":6247,"ated":6248,"美国作家":6249,"▁sh":6250,"▁son":6251,"▁say":6252,"▁some":6253,"▁syst":6254,"了。我":6255,"了。——":6256,"了。也许":6257,",是你":6258,",是一个":6259,",是为了":6260,",是因为你":6261,",是在最后":6262,"▁wis":6263,"▁wing":6264,"▁will":6265,"▁wait":6266,"的是你":6267,"真正喜欢":6268,"真正拥有":6269,"orities":6270,"▁生活就是":6271,"▁生活是一":6272,"▁生活就像":6273,"▁生活有时":6274,"▁生活是一场":6275,"。(言\r\n":6276,"。(美国总统":6277,",一切":6278,",一直":6279,",一点点的":6280,",一种人在":6281,"▁不求":6282,"▁不知":6283,"▁不过":6284,"很多次":6285,"很多问题":6286,"看到你的":6287,"看到的\r\n":6288,"看到什么样":6289,"看到的,有":6290,",却了一辈子":6291,"enjam":6292,"isc":6293,"ish":6294,"▁hit":6295,"▁http://t.cn/":6296,"▁how":6297,"▁hur":6298,"▁here":6299,"▁muc":6300,"▁more":6301,"▁morning":6302,"总是值得等待":6303,"总是有,所以":6304,"想要的":6305,"找到这样":6306,"起来的。":6307,"▁如果你要":6308,"▁如果你想要":6309,"▁如果你放不下":6310,"▁如果你在背后议论":6311,"ve-th":6312,"▁每日":6313,"只要活着":6314,"的。比如":6315,"▁我们都有":6316,"▁我们的生命":6317,"你,是一种":6318,"一切会容易":6319,"一切,但有钱了,":6320,"发生了太多":6321,"在于你自己":6322,"工作人员":6323,"感觉有点":6324,"...还是":6325,",它们":6326,",它却":6327,",它也会":6328,",它总会":6329,"tter":6330,"▁(微-信-号\r\n":6331,"▁(学英语好心情,关注\r\n":6332,"已经感觉":6333,"已经失去的,":6334,"必须去做":6335,"必须有,":6336,"来自美国":6337,"▁这是":6338,"▁这是我":6339,"▁这是我的":6340,"一点时间":6341,"为了求得真正的幸福,我们需要保持耐心。因为":6342,"让你看到的\r\n":6343,"那么短,什么":6344,"▁they":6345,"一直都":6346,"人,手":6347,"坚强,眼泪":6348,"应该是":6349,"应该努力":6350,",要有勇气":6351,",要看他有":6352,"▁St":6353,"▁Sw":6354,"▁She":6355,"▁Sho":6356,"▁Sch":6357,"▁S-M":6358,"。——自《":6359,"。——山奇\r\n":6360,"一样\r\n":6361,"一样。\r\n":6362,"决定就能改变":6363,"出来的\r\n":6364,"出来,但我":6365,"发现原来":6366,"发现自己的错误是":6367,"忘记了":6368,"忘记你":6369,"忘记。不能":6370,",不是“":6371,",但是最终":6372,"▁人生也许就是":6373,"▁人生重要的事情":6374,"▁当你停止":6375,"▁当你再成熟":6376,"200":6377,"2010":6378,"▁@OMG":6379,"▁call":6380,"▁care":6381,"失败。\r\n":6382,"失败的恐惧":6383,"接受,改变":6384,"未来。\r\n":6385,"未来,因它会":6386,"10分钟":6387,"ed,":6388,"editor":6389,"thorities":6390,"▁day":6391,"▁fall":6392,"▁fight":6393,"▁feel":6394,"哈哈哈":6395,"无论你是否":6396,"有多么":6397,"有多长":6398,"精彩许多":6399,"都会累,没人能":6400,",不要浪费时间":6401,",不要想睡多久":6402,",不要忘记。不能":6403,"▁but":6404,"▁old":6405,"。我会":6406,"。我真的":6407,"想做,会":6408,"想做却不能":6409,"想做。这是我的":6410,"想做什么就":6411,"的东西总是有,所以":6412,"等待老天":6413,"认为我很":6414,"▁有时候,我":6415,"▁有时候,我们":6416,",让它成为":6417,"leep":6418,"▁一句":6419,"▁一旦":6420,"▁一生至少":6421,"日子都变得":6422,"机会。":6423,"问题。":6424,"问题的":6425,"问题。\r\n":6426,"问题都是":6427,"▁there":6428,"▁think":6429,"aya":6430,"aybe":6431,"▁pl":6432,"▁par":6433,"▁pres":6434,"中的伤痛":6435,"你们\r\n":6436,"并不值得":6437,"并不意味着":6438,"的那个":6439,"的那样":6440,"美丽\r\n":6441,"ask":6442,"asy":6443,"。你就是":6444,"了一眼,却":6445,"在乎人地":6446,"尝试才是":6447,"时,奇迹":6448,"时,善待":6449,"时,随他们":6450,"给你上一":6451,"美好事物":6452,"醒来都要":6453,"own":6454,"ower":6455,"▁喜欢就关注\r\n":6456,"为什么还":6457,"也许会":6458,"其他地方":6459,"勇气。\r\n":6460,"原文\r\n":6461,"学会了":6462,"得到的":6463,"得到你想要":6464,"得到的,更要":6465,"忘了答应":6466,"最好的总会":6467,"那个对":6468,"那个错的人":6469,",在我":6470,"aldo":6471,"ice":6472,"ick":6473,"icky":6474,"▁Bu":6475,"▁Bar":6476,"▁Bab":6477,"▁Benjam":6478,"▁Co":6479,"▁Cu":6480,"▁[b":6481,"▁[太阳]":6482,"。[太阳]":6483,"。[阳光]":6484,"。[抱抱]":6485,"。但是":6486,"。但是,":6487,"一下。\r\n":6488,"一句“":6489,"伤心,不是因为":6490,"在你身边":6491,"地方就有":6492,"就会发生":6493,"就会发现":6494,"离开你的生活":6495,"阳光\r\n":6496,"阳光才照":6497,"▁有些事情":6498,"▁有些事,我不":6499,"意味着永远":6500,"意味着两个人":6501,"!!!!":6502,",并决心":6503,",每个人":6504,",每一天":6505,",每一次":6506,",每一次的":6507,"odel":6508,"▁live":6509,"▁对世界来说,你":6510,"分享。":6511,"勇敢地":6512,"勇敢,谁":6513,"勇敢,心":6514,"地址:":6515,"地址:http://t.cn/z":6516,"太多。\r\n":6517,"心里面,却":6518,"昨天,活在":6519,"错误的":6520,",当我们":6521,",当灭了,你":6522,"▁God":6523,"▁Gun":6524,"。【口英语":6525,"一定程度":6526,"不了你,":6527,"不了决定":6528,"容易失去":6529,"早安!":6530,"的心,一个":6531,"自由的人除了":6532,"追求成功":6533,"追求一草":6534,"都有一些":6535,",只是不":6536,",所以我":6537,",所以只要活着":6538,"ace":6539,"ach":6540,"ecret":6541,"▁Aok":6542,"▁AMG":6543,"▁get":6544,"▁爱情就像":6545,"▁爱情是,":6546,"▁it.":6547,"你不想做却不能":6548,"吗?我":6549,"在我身边":6550,"女孩浪漫":6551,"好好地":6552,"如何用":6553,"时刻表":6554,"期待。":6555,"让自己变得":6556,"许多人":6557,"许多你不想做却不能":6558,",才有":6559,"▁expect":6560,"▁生命中":6561,"▁生命中有":6562,"▁生命必须有,":6563,"。--《":6564,"。--泰尔":6565,"为你做":6566,"为你承担":6567,"原来爱情的世界":6568,"回忆,":6569,"总会找到":6570,"总会让步":6571,"感谢你":6572,"挑战,世界":6573,"结束而哭泣,":6574,"让我笑起来":6575,"长大越":6576,"长大了才知道":6577,"的一切\r\n":6578,"的一切。\r\n":6579,",以至于":6580,"0000":6581,"001:":6582,"▁The":6583,"▁大挑战,世界":6584,"▁新的一天":6585,"▁没有比":6586,"不过是":6587,"也不好":6588,"也不值得拥有":6589,"你自己。":6590,"告诉孩子":6591,"告诉你,我":6592,"害怕失去":6593,"属于你的":6594,"属于你;":6595,"成长,":6596,"时光\r\n":6597,"时光。\r\n":6598,"晚安外院\r\n":6599,"珍惜。属于":6600,"的爱,她":6601,"的话,":6602,"继续向前":6603,"说“”,":6604,"身边\r\n":6605,"部分的":6606,"的一天\r\n":6607,",他说":6608,",还不如":6609,"rive-th":6610,"▁做你想做":6611,"▁别了":6612,"不同的结局":6613,"之间的":6614,"之间左右":6615,"事,原来":6616,"人生中":6617,"仅仅在于你自己":6618,"优秀的品质":6619,"你有两只":6620,"做的工":6621,"到的每件事":6622,"命运。\r\n":6623,"多少苦":6624,"并不是要":6625,"影响到":6626,"影响了自己":6627,"有些人":6628,"有些好":6629,"经典语录":6630,"经典台词":6631,"经典文字":6632,"非常不":6633,"非常重要的。":6634,"是一种用任何":6635,"是一种遇见,不能":6636,",会难过":6637,",别在":6638,",别让":6639,",可我内心":6640,"▁Ma":6641,"▁Moore":6642,"▁ones":6643,"▁幸福是":6644,"▁幸福不是":6645,"▁幸福不在于":6646,"▁成功的":6647,"▁成功就是":6648,"▁很多事情":6649,"▁无论多么艰难":6650,"▁无论过去发生":6651,"分钟的":6652,"变成现实":6653,"呢?[":6654,"呢?\r\n":6655,"将会在":6656,"方法就是":6657,"早上都":6658,"明白,真爱":6659,"明白,我那些":6660,"每个人都有":6661,"的感觉是":6662,"经历过":6663,"能力:":6664,"音乐剧":6665,"你的生活中":6666,"▁每个人心中":6667,"▁每个人都会累,没人能":6668,"ly.":6669,"▁2.":6670,"▁世界上最美妙的一件事是,当你拥抱一个你爱的人,他竟然把你抱得更紧":6671,"你所取":6672,"出去,":6673,"受伤,没":6674,"和你一起":6675,"和你在一起":6676,"回来,那么":6677,"多么的":6678,"对我说":6679,"带来喜乐":6680,"当下,让它成为":6681,"恐惧;":6682,"疯狂的事":6683,"看看,否则":6684,"表达方式":6685,"表达的温":6686,"解决很多问题":6687,"足够坚强":6688,"什么样的内心":6689,",但我相信":6690,"拥有的,不要忘记。不能":6691,"任何人,因为":6692,",要么忍":6693,",要么让人":6694,"更多精彩请关注\r\n":6695,"▁new":6696,";不要等到":6697,"▁#Ian":6698,"▁#每日一句":6699,"▁F.":6700,"▁Fr":6701,"▁Fri":6702,"▁年轻":6703,"▁年后,":6704,"。如果有时候":6705,"一生中有多":6706,"会有那么":6707,"会发现你有两只":6708,"停止了":6709,"再也不能":6710,"到来,也不会":6711,"到来,但它值得等待":6712,"原谅别人":6713,"原谅一个人,只是":6714,"对不对?":6715,"悲伤。\r\n":6716,"放手。\r\n":6717,"放手与坚持":6718,"智慧,能":6719,"更好。":6720,"每日英语推荐":6721,"爱我所爱,":6722,"生气1小时":6723,"越来越少":6724,"轻易到来,但它值得等待":6725,"的人生,":6726,",我就永远":6727,"一个人,即使":6728,",也不愿意":6729,",也许你会":6730,"成功的秘诀":6731,"成功的望必须":6732,",因为你看到的,有":6733,"ess.":6734,"▁thats":6735,",那么你永远也":6736,",那么你必须去做":6737,",那么你也不值得拥有":6738,",最终":6739,",最重要的是":6740,"ally":6741,"uty":6742,"▁天.\r\n":6743,"▁一个自由的人除了":6744,"一只用助人":6745,"一颗星星":6746,"下来,":6747,"下来是因为":6748,"不可动的":6749,"不好就出去":6750,"之中\r\n":6751,"做的事才是":6752,"全球的":6753,"各位,早安\r\n":6754,"唯美英语":6755,"在那儿":6756,"奋斗将来":6757,"年的第一天":6758,"很难。":6759,"手机版】[心]":6760,"漂亮的外表":6761,"演讲,":6762,"演讲】":6763,"生日\r\n":6764,"的不是你":6765,"经济体":6766,"给了我们":6767,"▁人们总说":6768,"▁人们伤心,不是因为":6769,"▁happ":6770,"一直在寻找":6771,"美丽的忧伤的":6772,",然后在":6773,",何时":6774,",何来":6775,",世界也会":6776,"▁Kore":6777,"▁想你,是一种":6778,"▁祝大家":6779,"▁若无其":6780,"▁不是没":6781,"▁our":6782,"▁reason":6783,"▁微笑和沉默是":6784,"▁美国习语":6785,"▁学习昨天,活在":6786,"。而你":6787,"。早安~(关注\r\n":6788,"一条,":6789,"下的叫":6790,"不喜欢你的人":6791,"公司的":6792,"决心想达":6793,"周围都是影子":6794,"在意你的":6795,"年轻人":6796,"幸运的,":6797,"收获都必须":6798,"政府购":6799,"晚上睡觉":6800,"有勇气去":6801,"正确的事情":6802,"的前后":6803,"的前面\r\n":6804,"目标,并决心":6805,"研究和教学":6806,"童话故事":6807,"自我。\r\n":6808,"视频\r\n":6809,"这世上只有":6810,"没有人可以":6811,"知道我有多么":6812,"ange":6813,"angry":6814,",而是你没有":6815,",因此":6816,",把手":6817,",看我":6818,":有时候,":6819,"Chrom":6820,"▁Lin":6821,"▁What":6822,"▁从来":6823,"▁太耀眼":6824,"▁马克":6825,"▁马太福音":6826,"▁-----":6827,"▁朋友是":6828,"▁朋友就是":6829,"之后就不要":6830,"作家\r\n":6831,"你想做却不能":6832,"使用该":6833,"使用。\r\n":6834,"去爱;不要等到":6835,"大学生":6836,"安全感":6837,"寂寞了,才明白":6838,"影子,当灭了,你":6839,"找不到那个对":6840,"提醒自己,":6841,"提高英语":6842,"最重要的\r\n":6843,"月30":6844,"有那么一个人":6845,"注定要遇到":6846,"的意思是":6847,"看不到,不":6848,"睡觉,醒来":6849,"积极的":6850,"绝望的时候":6851,"绝望主\r\n":6852,"考试中":6853,"考验。很多":6854,"默默地":6855,"一个新的“哈":6856,",而在于是否":6857,"的一面,那么你也不值得拥有":6858,"任何事。\r\n":6859,"▁有时候,你需要":6860,",让我觉得我":6861,"真正的幸福不会很快":6862,"使你更坚强,眼泪":6863,"使你更勇敢,心":6864,"!@M":6865,",加强":6866,"Thai":6867,"aren":6868,"ru:":6869,"weibo":6870,"▁今晚":6871,"▁可是我":6872,"▁能发现自己的错误是":6873,"▁只是感觉有点":6874,"▁哈哈,":6875,"。~!":6876,"。这只是给更好的人":6877,"《吸血鬼日记\r\n":6878,"不多了。":6879,"不适合看星星,就":6880,"不适合谈安定":6881,"之所以原谅一个人,只是":6882,"令人痛心的是,我":6883,"假装的无所谓":6884,"出现在你":6885,"出现在你的生活中":6886,"完整的":6887,"很好奇":6888,"放下,然而":6889,"无关。\r\n":6890,"无关紧要":6891,"时,你就会":6892,"明显要比你":6893,"最差的一面,那么你也不值得拥有":6894,"有所成就":6895,"来源获得":6896,"根本就":6897,"毕业典礼":6898,"水平的":6899,"满足就是":6900,"珍贵的东西总是有,所以":6901,"脚步,":6902,"要做的一件事情":6903,"责任;生命中":6904,"追寻,而不知道":6905,"错的只是":6906,"自己想要的生活":6907,"▁我爱美街拍#":6908,",不代表你":6909,"生命中的小":6910,"▁不要只因一次":6911,"觉得我很":6912,",而是因为当一切":6913,"放弃的那一刻,你才":6914,",这是你的代价":6915,"可能是他们想":6916,"▁如果你想拥有你从未":6917,",它会带来喜乐":6918,"让你觉得更失望":6919,"让你觉得快乐的事情。\r\n":6920,"thing.":6921,"坚持走下去":6922,"一句话\r\n":6923,"verybody":6924,"▁新年快乐":6925,"之前,唯一需要":6926,"▁世界上最远的距离":6927,"”,改说“我":6928,"▁know.":6929,"主义者在":6930,",使得":6931,",哪个":6932,",由于":6933,",怎么能":6934,"1月1日":6935,";如果他":6936,";如果他们不能接受最差的你,也不配拥有最好的":6937,"IanSomerhalder":6938,"ONDJ":6939,"▁4.":6940,"▁富足":6941,"▁小时候,幸福是件很简单的事;长大后,简单是件很幸福":6942,"▁明的人":6943,"▁自从":6944,"▁谢朵":6945,"▁好的爱情":6946,"▁...[原":6947,"▁let":6948,"▁曾经拥有的,不要忘记。不能":6949,"。如果你有":6950,"。晚安~(关注\r\n":6951,"一大早":6952,"不爱你,只是":6953,"与你手同行":6954,"中的一颗":6955,"你的人不需要":6956,"勇于对过去":6957,"各自的":6958,"周年念":6959,"回首往事":6960,"好。把":6961,"把握,每一次的":6962,"摄影师":6963,"时的动":6964,"最酸的感觉是":6965,"某个决定就能改变":6966,"的感情\r\n":6967,"红色的车":6968,"经意的时候出现":6969,"要走得":6970,"要学会自己长大":6971,"语言也无法":6972,"跟随自己的内心":6973,"转身离开":6974,"这张照片":6975,"这部剧":6976,"那就改变,不能改变":6977,"都不是我":6978,"的人你看了一眼,却":6979,",你拥有什么,而":6980,"不是因为没有朋友":6981,"一个人,你最应该":6982,"了,因为它":6983,"了,因为他们必":6984,"放弃。已经失去的,":6985,"一点,管它怎样":6986,"▁当你在自己的感觉":6987,"▁change":6988,"孩子们对":6989,"了一辈子,却了一辈子":6990,"完美时刻的到来":6991,"▁life":6992,"▁life.":6993,"▁Thur":6994,"▁很多人一开始为了梦想而忙,后来忙":6995,"▁很多时候,看的太透反而不快乐,倒不如的没心没":6996,"▁很多时候,为了求得真正的幸福,我们需要保持耐心。因为":6997,"活在当下,活得漂亮":6998,"▁每个人都注定要遇到":6999,"足够的优秀":7000,"中国的粉丝们,你们":7001,"自己的错误是勇敢":7002,"!虽然唱到":7003,",爱要":7004,",直至":7005,",祝你":7006,",好好把握,每一次的":7007,",虽然我们":7008,";在低时":7009,";有的人你看了一眼,却":7010,"eah":7011,"http://t.cn/a":7012,"▁发表了博文":7013,"▁外国":7014,"▁打卡":7015,"▁enough":7016,"▁感情不需要":7017,"一事无":7018,"不失勇气":7019,"不属于你\r\n":7020,"世间最":7021,"也只不过是一":7022,"了就睡觉,醒来":7023,"你知道或不知道":7024,"你看到的去评":7025,"做你认为对":7026,"做我想做。这是我的":7027,"做的,就是让自己":7028,"做决定。":7029,"偶尔要回头":7030,"别的来源获得":7031,"前世约了我":7032,"十二月\r\n":7033,"十天左右,":7034,"叫声老":7035,"后,你会发现你有两只":7036,"哪里又有什么":7037,"在路上":7038,"在最不经意的时候出现":7039,"地区,":7040,"学的词":7041,"并没有错的,":7042,"形容词":7043,"微风]关注\r\n":7044,"我希望找到这样":7045,"拔野鸡毛的人":7046,"昨日已":7047,"是过眼云":7048,"月10日":7049,"有一次,":7050,"正直人的":7051,"漫长的旅行":7052,"球迷,":7053,"的时就不要放弃":7054,"的方向。":7055,"相当于":7056,"般的爱情--":7057,"花朵,":7058,"试试看":7059,"这就是为什么":7060,"连续工作":7061,"我们很久":7062,"一个伟大的目标,并决心":7063,"的人。你要做的就是":7064,"▁我这一生":7065,"▁我一直在关注你,":7066,",你永远不知道":7067,"不是一个天生的":7068,"可以和生活讨价还价":7069,"era360":7070,",就一定要努力":7071,",那就是:":7072,"▁有人说":7073,"▁不要因为结束而哭泣,":7074,"▁//@冷笑话精选:":7075,"▁当我们长大":7076,"微笑吧,为你的":7077,"▁world":7078,"只有一个人,让我觉得我":7079,"是我不想笑的时候":7080,"起来的最好":7081,"发生的几率":7082,"▁this?":7083,"▁perf":7084,"那个特别的人。你要做的就是":7085,"都有一个沉睡":7086,"好好享受;在低时":7087,",才要去爱;不要等到":7088,"▁没有人可以和生活讨价还价":7089,"最美的年华里,":7090,"会发现你的周围都是影子":7091,",我就在这里;当你":7092,">>>(关注\r\n":7093,"一段时间要学会自己长大":7094,"不断地放下,然而":7095,",我也相信有":7096,"准备好了,下一刻":7097,"重新开始。\r\n":7098,"▁Nobody":7099,"▁不要只追求漂亮的外表":7100,"独立思考是":7101,"友情是影子,当灭了,你":7102,"▁生活的艺术在于,好好把握,每一次的":7103,"▁人生就像一杯,不会苦一辈子,但总会苦一子。\r\n":7104,"!生命就是":7105,"(the":7106,"(古希学家":7107,",另一只用助人":7108,",都要继续向前":7109,":He":7110,";即使自己很":7111,"@丽美儿":7112,"CLS63":7113,"Creese":7114,"Camera360":7115,"Joe":7116,"_Official":7117,"bama的":7118,"chool":7119,"l26WJN":7120,"ulation":7121,"“女”一":7122,"▁典型":7123,"▁够他":7124,"▁学个词":7125,"▁据说":7126,"▁累了就睡觉,醒来":7127,"▁keep":7128,"▁心里的":7129,"▁世上只有一个人,让我觉得我":7130,"▁后悔过去,不如":7131,"▁孤单不是因为没有朋友":7132,"▁粉丝们!":7133,"▁伤痛使你更坚强,眼泪":7134,"▁查看原文\r\n":7135,"▁2012年5月31日":7136,"、队合作":7137,"、音乐、":7138,"。朋友,是在最后":7139,"。抓住当下,让它成为":7140,"。不能接受那就改变,不能改变":7141,"《神洛克》第二":7142,"【果粉http://t.cn/z":7143,"【请翻译】":7144,"一朵花":7145,"一言):":7146,"上获取知识":7147,"不做的事,这就是责任;生命中":7148,"与别人的看法之间左右":7149,"也是一天":7150,"买到一切,但有钱了,":7151,"了进入你生活的":7152,"于未来的梦想":7153,"亚里士多德":7154,"从书本上获取知识":7155,"他在前世约了我":7156,"以智治国,":7157,"们心疼。":7158,"价一个人,因为你看到的,有":7159,"会遇见什么":7160,"伤悲,人":7161,"你听到的每件事":7162,"你被它打":7163,"你原来决心想达":7164,"你是谁,你拥有什么,而":7165,"做鬼脸":7166,"做了才知道。有些事,错了才知道。有些事,":7167,"做的事情就是相信自己,":7168,"分目录":7169,"到此结束":7170,"到让你们心疼。":7171,"到的人,都是相信你":7172,"力而为":7173,"力所能及":7174,"助己,另一只用助人":7175,"勇往直":7176,"去吧。这只是给更好的人":7177,"取每一个人,你最应该":7178,"另一条路":7179,"只需一分钟":7180,"和率直":7181,"回给你一个新的“哈":7182,"在生命里":7183,"在情绪上计较":7184,"在做事上认真":7185,"外,还可以从许多":7186,"太思考未来,因它会":7187,"头笑着飞开了。\r\n":7188,"奥斯卡":7189,"奥丽·本\r\n":7190,"对某个人来说,你":7191,"将他带到你的":7192,"带给你恐惧;":7193,"当巨人醒来时,奇迹":7194,"很小,小到":7195,"很大,大到":7196,"得进来。\r\n":7197,"心灵通道":7198,"志愿者":7199,"我不在乎\r\n":7200,"我手所做的工":7201,"我,那只能说明,我活的":7202,"手,一只是用来":7203,"改正自己的错误是勇敢":7204,"救的浪漫":7205,"断地挑战,它总会":7206,"是不够的,我们必须":7207,"是确定一个伟大的目标,并决心":7208,"是无可救的浪漫":7209,"最神奇":7210,"有许多你想做却不能":7211,"有过的东西,那么你必须去做":7212,"有担当一点后,你会发现你有两只":7213,"李小龙\r\n":7214,"欢欣鼓舞":7215,"求职者":7216,"求在我最美的年华里,":7217,"沙热烈追求一草":7218,"流行风尚:":7219,"爱了以后,才要去爱;不要等到":7220,"甜的,心里面,却":7221,"用一切你知道或不知道":7222,"留足了进入你生活的":7223,"的能力\r\n":7224,"的城市不适合看星星,就":7225,"的巨人,当巨人醒来时,奇迹":7226,"碎使你更明智":7227,"福第一电站":7228,"等被爱了以后,才要去爱;不要等到":7229,"能骗到的人,都是相信你":7230,"英赛特":7231,"让每个日子都变得":7232,"让不重要的人影响了自己":7233,"设身处":7234,"说,我不问,不代表":7235,"说三道四":7236,"象你的心不适合谈安定":7237,"败了,不断地挑战,它总会":7238,"过什么,无论你是否":7239,"追美剧轻学英语":7240,"都结束了,爱":7241,"钱无法买到一切,但有钱了,":7242,"门会让你的时记忆":7243,"问:“你":7244,"一个转身,就不知道":7245,"的人,就算是我不想笑的时候":7246,"的人有福了,因为他们必":7247,"▁我以为我":7248,"▁我就是我,爱我所爱,":7249,"▁我会坚强到让你们心疼。":7250,"生活,不是你的。\r\n":7251,"生活就会回给你一个新的“哈":7252,",不在于怎么":7253,",我只想告诉你,我":7254,"不是你本来想":7255,"不是数着日子":7256,"喜欢那些让我笑起来":7257,"知道自己想要什么":7258,"可以给你力量":7259,"可以飞起来,就是":7260,"▁你无法取每一个人,你最应该":7261,"▁你永远不会明白,我那些":7262,"▁你每天都在做很多":7263,",就放弃你原来决心想达":7264,"永远都在追寻,而不知道":7265,"▁有爱的地方就有":7266,"▁有的人你看了一辈子,却了一辈子":7267,"。。......---更多精彩语录请关注[左抱抱]\r\n":7268,"成功,不要去":7269,"这个决定,这是你的代价":7270,",因为只有你放弃的那一刻,你才":7271,"▁在你想要放弃的那一刻,想想为什么当初坚持走到了这里。\r\n":7272,"▁在这世上珍贵的东西总是有,所以":7273,"▁不要等待完美时刻的到来":7274,"▁不要着,最好的总会":7275,"▁不要根据你看到的去评":7276,"▁不要知道得太多,会难过":7277,"不能应付我最差的一面,那么你也不值得拥有":7278,"爱情结束了,而是因为当一切":7279,"自己的,不要放弃。已经失去的,":7280,"▁access":7281,"▁//@THEdrive-th":7282,"▁//@的童话世界:":7283,"▁当有人离开你的生活":7284,"中国人民解放军":7285,"那些不愿与你手同行":7286,"的人,到哪都不太":7287,",而是没有人住在你心里":7288,"微笑活在当下,它会带来喜乐":7289,"选择去做让你觉得快乐的事情。\r\n":7290,"▁system":7291,"▁生活是一场漫长的旅行":7292,"看到什么样的世界":7293,"▁hurt":7294,"▁much":7295,"▁如果你放不下那个错的人":7296,"▁如果你在背后议论我,那只能说明,我活的":7297,"▁我们都有绝望的时候":7298,"一切会容易得多\r\n":7299,",它也会对你":7300,"那么短,什么让不重要的人影响了自己":7301,",要看他有谁":7302,"▁S-Model":7303,"▁人生也许就是不断地放下,然而":7304,"▁人生重要的事情是确定一个伟大的目标,并决心":7305,"▁当你再成熟有担当一点后,你会发现你有两只":7306,"▁@OMG美语":7307,"失败的恐惧\r\n":7308,"接受,改变,":7309,"▁feeling":7310,",不要想睡多久就睡多久":7311,"想做,会找到一个":7312,"等待老天将他带到你的":7313,"在乎人地点":7314,"时,随他们去吧。这只是给更好的人":7315,"得到的,更要珍惜。属于":7316,"忘了答应自己":7317,"▁Benjamin":7318,"阳光才照得进来。\r\n":7319,"▁有些事,我不说,我不问,不代表":7320,"。【口英语手机版】[心]":7321,",所以只要活着,就一定要努力":7322,"▁Aoki":7323,"▁爱情是,友情是影子,当灭了,你":7324,"让自己变得与别人":7325,"许多你不想做却不能不做的事,这就是责任;生命中":7326,"▁生命中有许多你不想做却不能不做的事,这就是责任;生命中":7327,"▁生命必须有,阳光才照得进来。\r\n":7328,"总会让步。如果有时候":7329,"▁大挑战,世界总会让步。如果有时候":7330,"的爱,她头笑着飞开了。\r\n":7331,"说“”,生活就会回给你一个新的“哈":7332,"仅仅在于你自己怎么看待":7333,"是一种用任何语言也无法":7334,"是一种遇见,不能等待":7335,",可我内心是无可救的浪漫":7336,"▁幸福不在于你是谁,你拥有什么,而":7337,"▁无论多么艰难,都要继续向前":7338,"▁无论过去发生过什么,无论你是否":7339,"明白,真爱总是值得等待":7340,"▁每个人心中都有一个沉睡":7341,"▁每个人都会累,没人能为你承担":7342,"看看,否则永远都在追寻,而不知道":7343,"解决很多问题,沉默":7344,"▁#每日一句\r\n":7345,"▁年后,让你觉得更失望":7346,"到来,也不会轻易到来,但它值得等待":7347,"智慧,能改正自己的错误是勇敢":7348,"成功的望必须超过":7349,",那么你永远也找不到那个对":7350,"▁一个自由的人除了从书本上获取知识":7351,"不好就出去走走":7352,"▁人们伤心,不是因为爱情结束了,而是因为当一切":7353,"美丽的忧伤的甜的,心里面,却":7354,"▁想你,是一种美丽的忧伤的甜的,心里面,却":7355,"▁若无其事,原来":7356,"▁学习昨天,活在今天,期待":7357,"angryeditor":7358,"Chrome":7359,"▁太耀眼的城市不适合看星星,就":7360,"寂寞了,才明白朋友的价值":7361,"考验。很多失败了":7362,"真正的幸福不会很快到来,也不会轻易到来,但它值得等待":7363,"使你更勇敢,心碎使你更明智":7364,"▁能发现自己的错误是智慧,能改正自己的错误是勇敢":7365,"▁只是感觉有点受伤,没":7366,"令人痛心的是,我都没能":7367,"明显要比你精彩许多":7368,"可能是他们想让你看到的\r\n":7369,"▁如果你想拥有你从未有过的东西,那么你必须去做":7370,"之前,唯一需要做的,就是让自己":7371,"IanSomerhalder_Official":7372,"ONDJ1":7373,"▁...[原微博":7374,"▁曾经拥有的,不要忘记。不能得到的,更要珍惜。属于":7375,"勇于对过去说“”,生活就会回给你一个新的“哈":7376,"▁当你在自己的感觉与别人的看法之间左右":7377,"▁很多时候,看的太透反而不快乐,倒不如的没心没。\r\n":7378,"▁很多时候,为了求得真正的幸福,我们需要保持耐心。因为真正的幸福不会很快到来,也不会轻易到来,但它值得等待":7379,"▁每个人都注定要遇到那个特别的人。你要做的就是":7380,";有的人你看了一眼,却念":7381,"做我想做。这是我的生活,不是你的。\r\n":7382,"偶尔要回头看看,否则永远都在追寻,而不知道":7383,"别的来源获得知识":7384,"哪里又有什么可惜":7385,"并没有错的,错的只是":7386,"我希望找到这样一个人,即使":7387,"是过眼云;":7388,"▁我一直在关注你,用一切你知道或不知道":7389,"▁不要因为结束而哭泣,微笑吧,为你的":7390,"好好享受;在低时不失勇气":7391,"▁没有人可以和生活讨价还价,所以只要活着,就一定要努力":7392,"会发现你的周围都是影子。朋友,是在最后":7393,"准备好了,下一刻都是":7394,"▁生活的艺术在于,好好把握,每一次的放手与坚持":7395,"“女”一词":7396,"▁学个词第":7397,"▁累了就睡觉,醒来就":7398,"▁世上只有一个人,让我觉得我可以飞起来,就是":7399,"▁后悔过去,不如奋斗将来":7400,"▁孤单不是因为没有朋友,而是没有人住在你心里":7401,"▁伤痛使你更坚强,眼泪使你更勇敢,心碎使你更明智":7402,"。抓住当下,让它成为完美时刻":7403,"。不能接受那就改变,不能改变,那就":7404,"【果粉http://t.cn/zl26WJN":7405,"他在前世约了我:":7406,"以智治国,国之":7407,"价一个人,因为你看到的,有可能是他们想让你看到的\r\n":7408,"你听到的每件事,不要":7409,"你被它打败了,不断地挑战,它总会":7410,"做了才知道。有些事,错了才知道。有些事,长大了才知道":7411,"外,还可以从许多别的来源获得知识":7412,"太思考未来,因它会带给你恐惧;":7413,"心灵通道【果粉http://t.cn/zl26WJN":7414,"手,一只是用来助己,另一只用助人":7415,"有许多你想做却不能做的事,这就是":7416,"沙热烈追求一草的爱,她头笑着飞开了。\r\n":7417,"留足了进入你生活的空间":7418,"的巨人,当巨人醒来时,奇迹就会发生":7419,"等被爱了以后,才要去爱;不要等到寂寞了,才明白朋友的价值":7420,"让每个日子都变得有意义":7421,"象你的心不适合谈安定。\r\n":7422,"钱无法买到一切,但有钱了,一切会容易得多\r\n":7423,"的人,就算是我不想笑的时候。\r\n":7424,"▁我就是我,爱我所爱,做我想做。这是我的生活,不是你的。\r\n":7425,"喜欢那些让我笑起来的人,就算是我不想笑的时候。\r\n":7426,"▁你无法取每一个人,你最应该做的事情就是相信自己,":7427,"▁你永远不会明白,我那些假装的无所谓":7428,",就放弃你原来决心想达到的":7429,"▁有的人你看了一辈子,却了一辈子;有的人你看了一眼,却念":7430,"这个决定,这是你的代价\r\n":7431,"▁在这世上珍贵的东西总是有,所以这世上只有":7432,"▁不要等待完美时刻的到来。抓住当下,让它成为完美时刻":7433,"▁不要着,最好的总会在最不经意的时候出现":7434,"▁不要根据你看到的去评价一个人,因为你看到的,有可能是他们想让你看到的\r\n":7435,"不能应付我最差的一面,那么你也不值得拥有我最好的一面":7436,"自己的,不要放弃。已经失去的,留作回忆":7437,"▁//@THEdrive-thru:":7438,"▁当有人离开你的生活时,随他们去吧。这只是给更好的人":7439,"那些不愿与你手同行的人\r\n":7440,"▁生活是一场漫长的旅行,不要浪费时间":7441,"▁如果你放不下那个错的人,那么你永远也找不到那个对":7442,"▁如果你在背后议论我,那只能说明,我活的明显要比你精彩许多":7443,"那么短,什么让不重要的人影响了自己重要的心情":7444,"▁人生也许就是不断地放下,然而令人痛心的是,我都没能":7445,"▁人生重要的事情是确定一个伟大的目标,并决心实现":7446,"▁当你再成熟有担当一点后,你会发现你有两只手,一只是用来助己,另一只用助人":7447,"▁有些事,我不说,我不问,不代表我不在乎\r\n":7448,"。【口英语手机版】[心]心灵通道【果粉http://t.cn/zl26WJN":7449,"▁爱情是,友情是影子,当灭了,你会发现你的周围都是影子。朋友,是在最后":7450,"▁生命中有许多你不想做却不能不做的事,这就是责任;生命中有许多你想做却不能做的事,这就是":7451,"▁大挑战,世界总会让步。如果有时候你被它打败了,不断地挑战,它总会":7452,"是一种用任何语言也无法表达的温":7453,"▁幸福不在于你是谁,你拥有什么,而仅仅在于你自己怎么看待":7454,"▁无论多么艰难,都要继续向前,因为只有你放弃的那一刻,你才":7455,"▁无论过去发生过什么,无论你是否准备好了,下一刻都是":7456,"▁每个人心中都有一个沉睡的巨人,当巨人醒来时,奇迹就会发生":7457,"▁年后,让你觉得更失望的不是你":7458,"▁一个自由的人除了从书本上获取知识外,还可以从许多别的来源获得知识":7459,"▁人们伤心,不是因为爱情结束了,而是因为当一切都结束了,爱":7460,"▁想你,是一种美丽的忧伤的甜的,心里面,却是一种用任何语言也无法表达的温":7461,"▁太耀眼的城市不适合看星星,就象你的心不适合谈安定。\r\n":7462,"▁如果你想拥有你从未有过的东西,那么你必须去做你从未":7463,"▁曾经拥有的,不要忘记。不能得到的,更要珍惜。属于自己的,不要放弃。已经失去的,留作回忆":7464,"勇于对过去说“”,生活就会回给你一个新的“哈\r\n":7465,"▁当你在自己的感觉与别人的看法之间左右为难":7466,"▁每个人都注定要遇到那个特别的人。你要做的就是等待老天将他带到你的":7467,"偶尔要回头看看,否则永远都在追寻,而不知道自己失去了":7468,"▁不要因为结束而哭泣,微笑吧,为你的曾经拥有":7469,"▁当有人离开你的生活时,随他们去吧。这只是给更好的人留足了进入你生活的空间":7470,"▁爱情是,友情是影子,当灭了,你会发现你的周围都是影子。朋友,是在最后可以给你力量":7471,"▁大挑战,世界总会让步。如果有时候你被它打败了,不断地挑战,它总会服的。":7472}